#ifndef CNN_LAYER_H
#define CNN_LAYER_H

#include "net_engine_type.h"
#include "channels.h"


static Channel_Kernal_Data layer_1_f10_weights[] = { 
    {   0, { 0xbda736a0, 0xbc766f8e, 0x3dff2095, 0x3f55fe8e, 0x3e73b265, 0xbed256af, 0x3f9f8d33, 0xbfac319d, 0xbf14ad7b}, 0x00000000, CHANNEL_STATE_NOT_STARTED, NULL },
    {   1, { 0xbe8859c5, 0x3e985542, 0x3dd2f72a, 0x3f5a26db, 0x3ea3ef4a, 0xbeaa0b52, 0x3f0476e0, 0xbf8b9a67, 0xbefe1f32}, 0x00000000, CHANNEL_STATE_NOT_STARTED, NULL },
    {   2, { 0xbe0c2cc7, 0x3dd01a78, 0xbe37a43d, 0x3c8671ca, 0x3edf2e49, 0xbdd3cd0e, 0x3d09f375, 0xbe5d925d, 0x3d748d0e}, 0xbda9a660, CHANNEL_STATE_NOT_STARTED, NULL },
    {   3, { 0x3ef9ce1e, 0x3ea677e3, 0x3f48feef, 0xbf5ff716, 0xbf4a3ad7, 0x3e8aed0a, 0xc019c032, 0xbf397234, 0x3e824dc7}, 0x00000000, CHANNEL_STATE_NOT_STARTED, NULL },
    {   4, { 0xbefd380b, 0xbe067203, 0xbe8009c1, 0x3e8ac551, 0xbea1eda4, 0xbe3c62ca, 0x3f918ad3, 0x3f060196, 0x3f30ff46}, 0x00000000, CHANNEL_STATE_NOT_STARTED, NULL },
    {   5, { 0xbe9771da, 0x3e6beb9d, 0xbf19f879, 0x3f980fd7, 0x3ed9ed24, 0xbe6c7d8b, 0x3fa12b66, 0x3f2c99b8, 0xbf76e355}, 0x3f6b76b4, CHANNEL_STATE_NOT_STARTED, NULL },
    {   6, { 0xbf344693, 0xbd60b717, 0xbf08a3d8, 0x3e39fead, 0x3e2aef59, 0xbdcc32d6, 0xbeb92185, 0x3e4ff94d, 0xbe7368bc}, 0x00000000, CHANNEL_STATE_NOT_STARTED, NULL },
    {   7, { 0x3f24e65b, 0x3f06257d, 0x3f103bf9, 0x3e8981a5, 0x3df4e763, 0x3dc27dab, 0x3ea9f6d2, 0x3eb82b07, 0x3ea11b70}, 0x00000000, CHANNEL_STATE_NOT_STARTED, NULL },
    {   8, { 0x3ec96854, 0xbde48ae3, 0x3f35d8f5, 0xbe6a9727, 0xbedb7d63, 0xbe092427, 0x3ea14b43, 0xbe9fbb2d, 0x3de45c22}, 0x3f982656, CHANNEL_STATE_NOT_STARTED, NULL },
    {   9, { 0xc002b160, 0xbfad0908, 0x3e8b5d53, 0xbf07e244, 0x3f78b3e7, 0x3f955cb4, 0x3e251411, 0x3f28c597, 0x3eccdfd0}, 0x00000000, CHANNEL_STATE_NOT_STARTED, NULL },
    {  10, { 0xbd7de6b1, 0xbeb19409, 0xbf02f0f0, 0xbe012236, 0x3c59bb69, 0x3e19c4b9, 0x3f15c2ad, 0x3f11acbb, 0xbe72b329}, 0x00000000, CHANNEL_STATE_NOT_STARTED, NULL },
    {  11, { 0x3e3e9596, 0xbeb78811, 0xbdcb5508, 0xbed553c9, 0xbe9de51e, 0x3e4c369c, 0xbe72059f, 0x3ea666aa, 0x3f5aa523}, 0x3db1c7c7, CHANNEL_STATE_NOT_STARTED, NULL },
    {  12, { 0xbfb8d783, 0xbf63d9bf, 0x3e54d516, 0x40476912, 0x3f583889, 0x3e835e3e, 0xbfa42c42, 0xbf478ec0, 0xbd45eca6}, 0x00000000, CHANNEL_STATE_NOT_STARTED, NULL },
    {  13, { 0xbf9040f7, 0xbd498bd1, 0x3d9b5e2b, 0x4015a1da, 0x3eacd541, 0x3d5cf98f, 0xbf9197f4, 0xbef00212, 0xbcaa0411}, 0x00000000, CHANNEL_STATE_NOT_STARTED, NULL },
    {  14, { 0xbf177c85, 0x3edfc9dd, 0xbdc629ee, 0x3f746c10, 0xbf18cf49, 0xbe3c5969, 0xbf0e92ed, 0x3ec73530, 0x3e5cbfaa}, 0xbc9efe73, CHANNEL_STATE_NOT_STARTED, NULL },
    {  15, { 0xbe9e97ee, 0xbf9fc1f3, 0xbf2f8d20, 0x3f8de942, 0x3f099e69, 0xbecd1060, 0x3e62ce6c, 0x3f3691f6, 0x3ef47dee}, 0x00000000, CHANNEL_STATE_NOT_STARTED, NULL },
    {  16, { 0xbebc59f5, 0xbf89fcf7, 0xbf255bfc, 0x3f15e360, 0x3e8e4d0c, 0xbf38f7b7, 0x3e06ba5f, 0x3f29bd1f, 0x3eae79b4}, 0x00000000, CHANNEL_STATE_NOT_STARTED, NULL },
    {  17, { 0xbe4b7495, 0xbf111fb5, 0x3ea27631, 0x3e5f60e8, 0x3d70889d, 0xbed03405, 0x3ed6c66d, 0x3e953aef, 0x3e7662ad}, 0xbd00db0e, CHANNEL_STATE_NOT_STARTED, NULL },
    {  18, { 0xbf0a79b7, 0x3dfc2061, 0x3f4c4c7c, 0xbf2ffd28, 0x3ec4cbba, 0x3fe1547c, 0xbfe0a4d7, 0xbf5fa347, 0x3f962a10}, 0x00000000, CHANNEL_STATE_NOT_STARTED, NULL },
    {  19, { 0x3e5c2702, 0x3ee7783d, 0xbf6d62ef, 0xbdf8b6bd, 0x3ebf0e9e, 0xbee0cf86, 0x3d6f3f54, 0x3e725df4, 0xbe5199cf}, 0x00000000, CHANNEL_STATE_NOT_STARTED, NULL },
    {  20, { 0xbe935341, 0xbb936a18, 0x3ed814a3, 0xbe9b857d, 0x3e14df23, 0x3ef3e442, 0xbda26b37, 0xbe5ffdb2, 0xbe5a949c}, 0x3e078980, CHANNEL_STATE_NOT_STARTED, NULL },
    {  21, { 0x3f894aab, 0x3f71e686, 0x3f5794f6, 0x3f2060e8, 0x3f8294d4, 0x3f15217c, 0xbfe165cf, 0xbfcf97fc, 0xbfd7ded1}, 0x00000000, CHANNEL_STATE_NOT_STARTED, NULL },
    {  22, { 0xbe670b9e, 0xbdd26d90, 0xbeaf874c, 0x3ef96116, 0x3f150957, 0x3e80cfc0, 0xbe931bcc, 0xbeb522d1, 0x3da92fcb}, 0x00000000, CHANNEL_STATE_NOT_STARTED, NULL },
    {  23, { 0x3ecdac80, 0x3e93ea82, 0x3e76a515, 0xbe2958b6, 0x3ea2c7ab, 0x3e31cbed, 0xbef0d6c9, 0xbf2abf06, 0xbe9875e7}, 0xbd55d3c9, CHANNEL_STATE_NOT_STARTED, NULL },
    {  24, { 0xbf753570, 0x3ffa5b2a, 0xbf766272, 0xbfa3eeaa, 0x4014178f, 0xbf83474a, 0xbf45ef24, 0x3fa5cec7, 0xbf119574}, 0x00000000, CHANNEL_STATE_NOT_STARTED, NULL },
    {  25, { 0xbe2c6125, 0x3f3f5eee, 0xbf06e43e, 0xbf620d9d, 0x3faefec1, 0xbf2b0b38, 0xbe0281bf, 0x3f1405a6, 0xbeb2274d}, 0x00000000, CHANNEL_STATE_NOT_STARTED, NULL },
    {  26, { 0xbeb46494, 0x3f133a5d, 0xbe25b893, 0xbec4afee, 0x3f1d56ec, 0xbe8ee0a4, 0xbe5cf378, 0x3e8adcaa, 0xbd353239}, 0x3bfabc05, CHANNEL_STATE_NOT_STARTED, NULL },
    {  27, { 0xbf10990f, 0xbe7a8809, 0x3bc147d4, 0xbfc58fac, 0xbf157231, 0xbe7ec087, 0x3f2d2424, 0x3e5a8b08, 0x3e9a9a47}, 0x00000000, CHANNEL_STATE_NOT_STARTED, NULL },
    {  28, { 0x40154f1a, 0x3f6e90be, 0x3df64def, 0x3f551c3e, 0x3f761d00, 0xbe8522ed, 0x3f0ee730, 0xbdd53080, 0xbf27456e}, 0x00000000, CHANNEL_STATE_NOT_STARTED, NULL },
    {  29, { 0xbfaae9d6, 0xbf7445c2, 0xbd4cb9e3, 0x3e8a29b5, 0x3ea51f20, 0x3eb0a8e0, 0xbf82770a, 0xbee8c4d9, 0x3f023b79}, 0x3f2ad554, CHANNEL_STATE_NOT_STARTED, NULL },
};


static u32 PRelu_Layer_2_10_weights[10] ={
    0xbf201aa1, 0xbe58c2e1, 0x3f817ed8, 0x3ee1da8f, 0xbf8472ad, 
    0x3ea49d7d, 0xbe988525, 0x3e80f74f, 0xbf61fb00, 0xbfa39fe0
};

static Channel_Kernal_Data layer_4_f16_weights[] = {
    {   0, { 0xbdee983a, 0xbec46272, 0xbf141f45, 0x3ea34484, 0x3ceb9d7b, 0xbf00e498, 0xbeaec5ce, 0xbe953ee2, 0x3f5600ce}, 0x00000000, CHANNEL_STATE_NOT_STARTED, NULL },
    {   1, { 0xbcbfa468, 0x3e96cbe4, 0x3e761280, 0x3d1e09e8, 0x3e0ca33d, 0xbedc6ed3, 0xbe961b99, 0xbe1d6249, 0x3cdc4235}, 0x00000000, CHANNEL_STATE_NOT_STARTED, NULL },
    {   2, { 0xbdbbfc6b, 0x3e81307e, 0x3ed2e63a, 0x3e11a25f, 0xbd2054e7, 0xbeb6c6db, 0xbb982972, 0x3ea1ee2a, 0xbeedf44c}, 0x00000000, CHANNEL_STATE_NOT_STARTED, NULL },
    {   3, { 0x3ead5634, 0xbde23e22, 0x3e627d2a, 0xbf21a121, 0x3d8fc892, 0xbf1b7c8e, 0x3f1093cf, 0xbe9a72fd, 0x3f01b150}, 0x00000000, CHANNEL_STATE_NOT_STARTED, NULL },
    {   4, { 0x3ef64bb1, 0x3e34931d, 0x3d63ece3, 0xbc4f8cd2, 0xbe4bddbd, 0xbdf656c4, 0x3d140523, 0xbece7b85, 0xbece39ce}, 0x00000000, CHANNEL_STATE_NOT_STARTED, NULL },
    {   5, { 0xbe80381d, 0x3e4508d5, 0xbd072694, 0x3e3350be, 0x3edead88, 0xbb8565de, 0x3da56288, 0xbd0d3ea2, 0xbdf6f07f}, 0x00000000, CHANNEL_STATE_NOT_STARTED, NULL },
    {   6, { 0x3bbc191e, 0xbebb8e50, 0x3e831c9c, 0x3e61dbdf, 0x3f428481, 0xbe971a66, 0x3d44e0ac, 0xbe86d812, 0xbfe53e44}, 0x00000000, CHANNEL_STATE_NOT_STARTED, NULL },
    {   7, { 0x3c952752, 0x3d96a7fd, 0x3dd1ddd1, 0xbe212d9f, 0xbe61b597, 0xbe713c27, 0x3d7265a3, 0x3f02e6fe, 0x3e88f448}, 0x00000000, CHANNEL_STATE_NOT_STARTED, NULL },
    {   8, { 0xbd0dc310, 0x3eac68a5, 0x3ea12b66, 0x3e38eef7, 0x3d64da93, 0x3e8c3e43, 0xbe1fbe8d, 0xbf038a76, 0xbfaba3c8}, 0x00000000, CHANNEL_STATE_NOT_STARTED, NULL },
    {   9, { 0x39f5d982, 0x3e6a63e8, 0x3e7da0ea, 0x3d916d21, 0x3dc6904c, 0xbe8afde5, 0xbe78ccc7, 0x3dc30607, 0xbd441f4a}, 0x3f82a0f3, CHANNEL_STATE_NOT_STARTED, NULL },
    {  10, { 0xbe79807b, 0xbd3e3f5a, 0x3c0fac5a, 0x3ebd4d09, 0x3e857d9e, 0x3ad8b2bb, 0x3e1a07cd, 0x3e8ea5a4, 0x3e91afd9}, 0x00000000, CHANNEL_STATE_NOT_STARTED, NULL },
    {  11, { 0xbf27c20a, 0x3c22ea53, 0xbdfb412b, 0xbeacf694, 0xbe3a8e39, 0xbe9977bb, 0xbf815290, 0x3e0aeaec, 0x3e4d9350}, 0x00000000, CHANNEL_STATE_NOT_STARTED, NULL },
    {  12, { 0xbf18b96e, 0x3f4730c6, 0xbbf05984, 0xbecb3c60, 0x3ed3a0cf, 0x3e03f350, 0xbf24820e, 0x3f1e3a83, 0x3df77c7e}, 0x00000000, CHANNEL_STATE_NOT_STARTED, NULL },
    {  13, { 0xbec555e3, 0xbe782fa4, 0xbd8fce13, 0xbe33f579, 0xbe607564, 0xbdfdda77, 0x3e5d26e7, 0x3dc3c9f0, 0x3e1fed05}, 0x00000000, CHANNEL_STATE_NOT_STARTED, NULL },
    {  14, { 0x3d8a5cd1, 0xbdce42a5, 0xbdeadee2, 0x3cd1517b, 0xbf060eb3, 0xbec7f951, 0x3e093ca1, 0xbe3d6136, 0xbe1f1e01}, 0x00000000, CHANNEL_STATE_NOT_STARTED, NULL },
    {  15, { 0x3edf32c5, 0x3ec4b171, 0x3dd165b4, 0x3cae4b9c, 0x3d86eb81, 0x3dbff2f9, 0x3da7b80d, 0xbe0326ea, 0xbe19cbea}, 0x00000000, CHANNEL_STATE_NOT_STARTED, NULL },
    {  16, { 0x3cf8fe6a, 0x3dfb52fe, 0x3e2d902c, 0x3d492f0a, 0xbded08b9, 0x3d84dff6, 0xbf286c8a, 0xbeabbff8, 0xbd86361e}, 0x00000000, CHANNEL_STATE_NOT_STARTED, NULL },
    {  17, { 0x3e0ca048, 0x3d6fe12c, 0xbc896034, 0xbe1d73f1, 0xbe3173aa, 0xbd27d324, 0x3e9e4910, 0x3ddda745, 0xbd83edf4}, 0x00000000, CHANNEL_STATE_NOT_STARTED, NULL },
    {  18, { 0xbdb95a3c, 0xbdcd7f59, 0xbd18684a, 0x3f06b9aa, 0x3e9a209d, 0x3d887e27, 0xbe1ad543, 0xbe03cb92, 0xbc5f9849}, 0x00000000, CHANNEL_STATE_NOT_STARTED, NULL },
    {  19, { 0xbf85abce, 0x3ecad1a6, 0x3e68ef96, 0xbeb83fd8, 0xbe1f1a2d, 0x3d5fa086, 0xbf5c3a9c, 0xbd755c18, 0x3dec71ca}, 0x401f3492, CHANNEL_STATE_NOT_STARTED, NULL },
    {  20, { 0xbdd1912a, 0xb940035c, 0xbc34f249, 0xbea35537, 0xbde7438c, 0x3cc213f0, 0x3e9a9381, 0x3e2206a4, 0x3c5e571d}, 0x00000000, CHANNEL_STATE_NOT_STARTED, NULL },
    {  21, { 0xbcba3ff3, 0xbce1b094, 0x3e9097c5, 0x3d9331d2, 0xbd9ba353, 0x3e54f289, 0xbf94517a, 0xbe986d85, 0xbe33572e}, 0x00000000, CHANNEL_STATE_NOT_STARTED, NULL },
    {  22, { 0x3f254eed, 0xbde9f128, 0x3f1b286f, 0x3e87bf7e, 0xbecb68ee, 0xbbf39ead, 0xbef0b374, 0xbec77837, 0x3d795161}, 0x00000000, CHANNEL_STATE_NOT_STARTED, NULL },
    {  23, { 0x3e2aa901, 0x3c1a17aa, 0x3e36136e, 0x3d87a9d8, 0xbd55892f, 0x3d677f68, 0x3d8afadd, 0xbde92d9d, 0xbde19c2a}, 0x00000000, CHANNEL_STATE_NOT_STARTED, NULL },
    {  24, { 0xbdccb3aa, 0x3e09cf2a, 0x3e728bbb, 0x3daccb98, 0x3dac83b7, 0x3e5a6476, 0xbeb9ecfa, 0x3d4f87b9, 0x3e27b6c0}, 0x00000000, CHANNEL_STATE_NOT_STARTED, NULL },
    {  25, { 0xbe1faf36, 0xbcc66ffe, 0x3de0c2e4, 0x3e217767, 0xbba70236, 0x3d135f12, 0xbedc1ff7, 0x3cf81dda, 0xbbeeff59}, 0x00000000, CHANNEL_STATE_NOT_STARTED, NULL },
    {  26, { 0xbe334f63, 0xbc534be0, 0xbdf0a33e, 0x3b83fe55, 0xbe654923, 0xbd55ef2c, 0xbe8a9952, 0xbda36441, 0xbbda4606}, 0x00000000, CHANNEL_STATE_NOT_STARTED, NULL },
    {  27, { 0xbe1e1f75, 0xbda334d7, 0xbd1b822d, 0xbe8a1594, 0xbce8bbd4, 0xbe2ce6ec, 0xbf58494d, 0x3c24510d, 0xbe180adb}, 0x00000000, CHANNEL_STATE_NOT_STARTED, NULL },
    {  28, { 0x3d28ebc9, 0x3cf253f4, 0x3cdacd94, 0xbc55833a, 0x3dac1b11, 0x3c2baca9, 0x3e9b41b2, 0x3e0b3cbc, 0x3bb48d78}, 0x00000000, CHANNEL_STATE_NOT_STARTED, NULL },
    {  29, { 0x3e4cc8c6, 0x3dc13753, 0x3f080699, 0xbd6af6a2, 0x3be35181, 0xbd14a341, 0xbf5bd1f3, 0xba9884a4, 0xbdb46ef5}, 0x40173498, CHANNEL_STATE_NOT_STARTED, NULL },
    {  30, { 0x3e85a0d1, 0x3e6ac15e, 0xbd97791b, 0xbe71f51b, 0xbe9762d7, 0x3dbcc71a, 0xbe68b80c, 0xbe673950, 0x3c1dc313}, 0x00000000, CHANNEL_STATE_NOT_STARTED, NULL },
    {  31, { 0x3c49748f, 0xbe3cc5dd, 0x3e9ad4ac, 0x3e0fd4ab, 0x3dccce99, 0x3c1181da, 0xbe757ce6, 0x3c377512, 0x3da475d1}, 0x00000000, CHANNEL_STATE_NOT_STARTED, NULL },
    {  32, { 0xbec195ca, 0x3dfaea55, 0xbf27db7e, 0x3dc39946, 0x3d7df8fc, 0x3e9cb2f0, 0x3f04207d, 0x3daa4c81, 0xbdb25a34}, 0x00000000, CHANNEL_STATE_NOT_STARTED, NULL },
    {  33, { 0x3c208f6d, 0x3da184aa, 0x3d8f91b4, 0xbf1de938, 0xbef80a25, 0x3e3f419c, 0xbe7a8187, 0xbe9bfd15, 0xbceeb42d}, 0x00000000, CHANNEL_STATE_NOT_STARTED, NULL },
    {  34, { 0xbf9c66b1, 0xbf9db919, 0xbd9670b1, 0xbe68ba24, 0xbeeaa3e4, 0xbdd33145, 0x3bd85fe4, 0x3deffc5a, 0x3e88cc9a}, 0x00000000, CHANNEL_STATE_NOT_STARTED, NULL },
    {  35, { 0xbf9570cd, 0xbedbefc4, 0x3e7b82fe, 0x3e3f545b, 0xbd08a64d, 0x3e60628e, 0x3edc9b5e, 0x3ded9a39, 0x3e089638}, 0x00000000, CHANNEL_STATE_NOT_STARTED, NULL },
    {  36, { 0x3f28c5df, 0xbc917cb4, 0x3da25b57, 0x3ed9a3b0, 0x3c8ffd8c, 0xbe9ee5f8, 0x3cc6e301, 0x3e4a2c61, 0xbde96708}, 0x00000000, CHANNEL_STATE_NOT_STARTED, NULL },
    {  37, { 0xbf013012, 0xbe260dce, 0x3e288310, 0x3e1c8609, 0x3eea899a, 0x3d6ecbab, 0xbd971a28, 0x3e4628aa, 0x3e0a00ae}, 0x00000000, CHANNEL_STATE_NOT_STARTED, NULL },
    {  38, { 0x3f062a18, 0x3e6ceb82, 0x3ed0a3da, 0xbcde19a7, 0x3df79167, 0xbda88dff, 0xbba69ecf, 0xbbc9be3d, 0xbd44b3bb}, 0x00000000, CHANNEL_STATE_NOT_STARTED, NULL },
    {  39, { 0xbcbf9f2f, 0xbd9858b1, 0xbca600c6, 0x3da0cc55, 0xbdcf233c, 0xbd8ef8c2, 0xbe06192c, 0x3e2fd082, 0x3df69031}, 0x3ed79a58, CHANNEL_STATE_NOT_STARTED, NULL },
    {  40, { 0xbe8848e5, 0x3e7e31b3, 0xbf649eca, 0x3cd98eb1, 0x3d159f5c, 0x3dd3d53c, 0xbd74e5fc, 0xbd89d6c6, 0x3b9dd1dd}, 0x00000000, CHANNEL_STATE_NOT_STARTED, NULL },
    {  41, { 0x3b2b3745, 0xbe845845, 0xbe44e770, 0x3dbc116c, 0x3e3bca89, 0xbdec1f3f, 0x3e7024f7, 0xbd558070, 0x3ea9236b}, 0x00000000, CHANNEL_STATE_NOT_STARTED, NULL },
    {  42, { 0xbda409a0, 0xbf0a2b68, 0x3fcd35ff, 0x3d60b6e0, 0xbf16099a, 0xbf8da04e, 0x3e818646, 0xbe11d0c9, 0x3ee17722}, 0x00000000, CHANNEL_STATE_NOT_STARTED, NULL },
    {  43, { 0x3cacccb5, 0xbe4c38bc, 0xbf8ca65c, 0xbdd0ac9b, 0x3e8edb30, 0xbe2e5923, 0xbdc7173a, 0xbcdc854a, 0x3ed0c64f}, 0x00000000, CHANNEL_STATE_NOT_STARTED, NULL },
    {  44, { 0x3d2bcb64, 0xbe3dbf48, 0xbeb84fed, 0xbca022f7, 0xbe3810e3, 0xbe9e6890, 0x3e199a29, 0x3de91454, 0xbcefa110}, 0x00000000, CHANNEL_STATE_NOT_STARTED, NULL },
    {  45, { 0x3e55b57a, 0x3ee7b008, 0x3fb2fc5b, 0xbea2db5b, 0xbd515faf, 0xbe383416, 0x3d894686, 0xbd068d83, 0xbe6323ce}, 0x00000000, CHANNEL_STATE_NOT_STARTED, NULL },
    {  46, { 0x3e991333, 0xbf20329e, 0xbd099549, 0x3d228e78, 0x3c2ba155, 0xbe8b19cc, 0x3d8d327c, 0xbe9957ef, 0xbd392892}, 0x00000000, CHANNEL_STATE_NOT_STARTED, NULL },
    {  47, { 0x3d844934, 0xbc52f9ba, 0x3e4baa34, 0xbe50b268, 0x3ebd9dd1, 0xbecfd4de, 0xbb87bf4a, 0x3ce31964, 0x3dae882a}, 0x00000000, CHANNEL_STATE_NOT_STARTED, NULL },
    {  48, { 0xbebfc83a, 0xbf2f43cd, 0xbf42cc5e, 0x3e8d91ae, 0x3e007e09, 0x3e16a372, 0x3d525a6d, 0x3e88bc6c, 0x3e4e400f}, 0x00000000, CHANNEL_STATE_NOT_STARTED, NULL },
    {  49, { 0xbe0c26f2, 0xbef857ee, 0x3ef79801, 0x3daf88e4, 0x3d5a43e2, 0xbe9f833d, 0x3e067387, 0x3d21a13b, 0x3e88f660}, 0x3f82ab80, CHANNEL_STATE_NOT_STARTED, NULL },
    {  50, { 0xbdeb5667, 0xbe42b57a, 0xbe82cabf, 0x3e01cb97, 0x3ce13912, 0xbe3ca249, 0x3e812b5b, 0x3e1d4b00, 0xbdf7bde5}, 0x00000000, CHANNEL_STATE_NOT_STARTED, NULL },
    {  51, { 0x3e19fdb5, 0xbead1844, 0x3d5f1eb2, 0x3e98240e, 0xbdf66e5b, 0x3e8b2dad, 0xbdaec228, 0xbe62be96, 0xbe8c4b95}, 0x00000000, CHANNEL_STATE_NOT_STARTED, NULL },
    {  52, { 0x3e96e5e0, 0xbecdf533, 0xbe381bfa, 0x3f383100, 0xbdbd0f7d, 0xbd5dc04b, 0x3f0d43d0, 0x3d3a8870, 0xbf5c2dc7}, 0x00000000, CHANNEL_STATE_NOT_STARTED, NULL },
    {  53, { 0xbe48ad24, 0xbe68e72b, 0x3e1641a9, 0xbe335128, 0xbe62ab40, 0x3e0d6c7f, 0x3e99861e, 0x3df508ec, 0xbd25b690}, 0x00000000, CHANNEL_STATE_NOT_STARTED, NULL },
    {  54, { 0x3cba839c, 0x3d29871d, 0xbd885257, 0xbc1249c5, 0x3debe9ec, 0x3dc6f3ad, 0xbd3963e9, 0xbe1439cb, 0xbc858177}, 0x00000000, CHANNEL_STATE_NOT_STARTED, NULL },
    {  55, { 0xbdc28471, 0x3e0349e8, 0xbd12f66c, 0x3e447fb5, 0x3ede5a4c, 0x3dbbd849, 0xbdc28c25, 0x3c6b960d, 0x3e2407e9}, 0x00000000, CHANNEL_STATE_NOT_STARTED, NULL },
    {  56, { 0xbf2a08e0, 0xbf066ef9, 0xbe1dffb3, 0xbf2be0c3, 0xbf02c00e, 0x3eaa9532, 0x3db8768f, 0xbe8407c1, 0x3e84f5d5}, 0x00000000, CHANNEL_STATE_NOT_STARTED, NULL },
    {  57, { 0x3e4bb501, 0x3e6bb42c, 0x3e893d07, 0x3e8151e6, 0x3e80e0c0, 0x3e1b8f34, 0x3d96befa, 0xbe5effb2, 0xbdfd4852}, 0x00000000, CHANNEL_STATE_NOT_STARTED, NULL },
    {  58, { 0xbe8cbe3b, 0xbe9b56d8, 0xbe29554c, 0xbe8c4622, 0xbe87e4b9, 0xbdaf7d79, 0xbe4a68ef, 0xbd7659d8, 0x3e7930c4}, 0x00000000, CHANNEL_STATE_NOT_STARTED, NULL },
    {  59, { 0x3cb1c196, 0xbe981fdb, 0x3d673ca7, 0x3d9ce548, 0xbe5bed19, 0x3e87aa19, 0x3d3afa33, 0xbd9fd178, 0x3e04173b}, 0x3fc4422c, CHANNEL_STATE_NOT_STARTED, NULL },
    {  60, { 0x3e641b20, 0xbd70531b, 0x3e1dd833, 0x3e081721, 0x3da21676, 0x3e18c026, 0x3a311326, 0x3eb74791, 0x3e6242a9}, 0x00000000, CHANNEL_STATE_NOT_STARTED, NULL },
    {  61, { 0xbe4a7c9f, 0xbf45901f, 0xbe9d9cbf, 0xbe7cecc6, 0xbec5f879, 0x3e489234, 0xbd9af536, 0x3c8e81eb, 0x3e901675}, 0x00000000, CHANNEL_STATE_NOT_STARTED, NULL },
    {  62, { 0x3f0f21bb, 0xbed53068, 0xbf00639f, 0xbec555f9, 0xbe374398, 0x3e99ffdd, 0x3f0cc32e, 0x3d92a6b7, 0x3f026b30}, 0x00000000, CHANNEL_STATE_NOT_STARTED, NULL },
    {  63, { 0x3f52e570, 0x3e60d16b, 0xbe069690, 0x3e0864ec, 0xbe31f5da, 0xbe27b550, 0x3d8c3e89, 0x3e737c6c, 0x3e390617}, 0x00000000, CHANNEL_STATE_NOT_STARTED, NULL },
    {  64, { 0xbec78c0d, 0xbed5f34d, 0xbe00576c, 0xbf3e81fb, 0xbe3c1ef7, 0xbd86a877, 0xbda055a8, 0x3cb15966, 0x3df15071}, 0x00000000, CHANNEL_STATE_NOT_STARTED, NULL },
    {  65, { 0xbe96dfa5, 0xbe364afa, 0xbddd0d25, 0xbd90632c, 0x3d14d3e2, 0xbcd191a1, 0x3e0a43fb, 0xbe2f2c69, 0x3d649373}, 0x00000000, CHANNEL_STATE_NOT_STARTED, NULL },
    {  66, { 0xbf054c3f, 0xbd8d13a2, 0x3d79dda0, 0x3da6084c, 0x3d68d652, 0xbdbbcdb1, 0x3d930d56, 0xbebdf2ed, 0xbdb58dd5}, 0x00000000, CHANNEL_STATE_NOT_STARTED, NULL },
    {  67, { 0x3dc625c2, 0xbc7a311f, 0xbdd77070, 0x3cc869aa, 0xbd238947, 0xbc13b4cd, 0x3d1d5713, 0xbe2a33ea, 0x3db46e73}, 0x00000000, CHANNEL_STATE_NOT_STARTED, NULL },
    {  68, { 0xbe99cdcb, 0xbe6f9674, 0x3dc3735b, 0x3e44c990, 0x3e3fd4cc, 0x3d83ad3c, 0xbe02e771, 0xbdddfd83, 0xbdbd2c85}, 0x00000000, CHANNEL_STATE_NOT_STARTED, NULL },
    {  69, { 0x3c4c6d1a, 0xbec81cd3, 0xbf14eb61, 0xbeb22075, 0xbdff5753, 0x3e24d58d, 0xbd71176c, 0xbdcf6342, 0x3ea8c1e6}, 0x401a492b, CHANNEL_STATE_NOT_STARTED, NULL },
    {  70, { 0xbe35919f, 0x3d501e10, 0x3cd5a770, 0xbe821476, 0x3e2aa113, 0x3cc87d67, 0xbf199d67, 0x3dccc8c0, 0xbe1b4650}, 0x00000000, CHANNEL_STATE_NOT_STARTED, NULL },
    {  71, { 0xbef6a28d, 0xbe0fbf89, 0x3eb16db4, 0xbdce6e45, 0x3e1e6e15, 0x3ef47dca, 0xbdef3c9e, 0xbe674b7c, 0xbeff64f6}, 0x00000000, CHANNEL_STATE_NOT_STARTED, NULL },
    {  72, { 0xbe9cc4df, 0xbd78a1f5, 0x3b3cad78, 0x3e891600, 0x3ea38c2a, 0x3ef1d01e, 0x3ce41f4b, 0xbe650b07, 0xbed000e9}, 0x00000000, CHANNEL_STATE_NOT_STARTED, NULL },
    {  73, { 0xbed13128, 0x3d2457f2, 0x3b7ee3a3, 0xbe9ee576, 0x3e3596d1, 0x3d0a4289, 0xbef88cfe, 0x3e5a1bf8, 0xbe34d234}, 0x00000000, CHANNEL_STATE_NOT_STARTED, NULL },
    {  74, { 0xbf491d84, 0x3c4959cf, 0xbd8ecd8f, 0xbf7ff68c, 0x3d3214b5, 0x3d7258f7, 0xbf262a98, 0xbe4f18ac, 0xbca24724}, 0x00000000, CHANNEL_STATE_NOT_STARTED, NULL },
    {  75, { 0x3df27f1a, 0xbd02c555, 0xbd3029d9, 0xbba4ae57, 0xbddae7fb, 0x3de1fe55, 0x3e8b64f8, 0xbdfd23a8, 0x3c91cb3b}, 0x00000000, CHANNEL_STATE_NOT_STARTED, NULL },
    {  76, { 0x3dad5cb9, 0x3d80cf07, 0x3d002313, 0xbd8ff71d, 0xbdee52a7, 0x3e67a12f, 0x3e201319, 0xbd69e4db, 0x3e565ba9}, 0x00000000, CHANNEL_STATE_NOT_STARTED, NULL },
    {  77, { 0x3e0cbaba, 0xbc7951d9, 0xbc864b11, 0x3e8f92ce, 0xbd8707d5, 0xbdaf363f, 0x3e35c31e, 0xbcc46c78, 0xbe7c667f}, 0x00000000, CHANNEL_STATE_NOT_STARTED, NULL },
    {  78, { 0x3e619b4c, 0x3e255414, 0x3c9efa13, 0x3cea5454, 0xbe219907, 0xbdbac16c, 0xbce52356, 0x3deb485b, 0x3df31072}, 0x00000000, CHANNEL_STATE_NOT_STARTED, NULL },
    {  79, { 0xbebfb97f, 0xbb2a3197, 0xbd7696fd, 0xbe5b973c, 0x3e927ee6, 0x3ef63ad6, 0xbe30b7e0, 0xbdfef824, 0xbee78830}, 0x401991b4, CHANNEL_STATE_NOT_STARTED, NULL },
    {  80, { 0x3d012118, 0x3e1f23d1, 0x3d4848ba, 0xbe1162b6, 0x3e1c2b26, 0x3df32bb6, 0xbbee99e5, 0x3e15445b, 0x3d40d060}, 0x00000000, CHANNEL_STATE_NOT_STARTED, NULL },
    {  81, { 0xbd4d2529, 0x3dc11ce7, 0x3d99d838, 0x3dc77b51, 0xbba1e22d, 0x3d6220e3, 0x3eb3eb80, 0x3d8de419, 0xbf0496a8}, 0x00000000, CHANNEL_STATE_NOT_STARTED, NULL },
    {  82, { 0xbe711a43, 0xbe690ee2, 0xbe91de66, 0x3e7f771a, 0xbd85268a, 0x3ecfa045, 0x3eb0fc85, 0xbd33fecd, 0xbcb7ca56}, 0x00000000, CHANNEL_STATE_NOT_STARTED, NULL },
    {  83, { 0xbe0ac60e, 0xbe223fcf, 0xbec7a0c2, 0xbe91890a, 0xbe2fed8f, 0xbf011734, 0x3cdc793a, 0xbe21853b, 0xbf0ffcec}, 0x00000000, CHANNEL_STATE_NOT_STARTED, NULL },
    {  84, { 0x3e970f61, 0xbe10a3e2, 0xbef1b361, 0x3ebb7b56, 0xbe2b1679, 0xbf630cdc, 0x3e815d09, 0xbe399779, 0xbf9442da}, 0x00000000, CHANNEL_STATE_NOT_STARTED, NULL },
    {  85, { 0xbe787318, 0xbe4f7d1d, 0xbdb1f555, 0xbe112cf2, 0xbe9e309d, 0x3d553434, 0xbdb41ec7, 0xbea100e5, 0xbecb5d1c}, 0x00000000, CHANNEL_STATE_NOT_STARTED, NULL },
    {  86, { 0x3e8321e3, 0x3eac01a7, 0x3e1c6420, 0x3e9a8d51, 0x3dacad6c, 0x3e07f71e, 0x3e530214, 0x3e3cd2db, 0x3eb53e3c}, 0x00000000, CHANNEL_STATE_NOT_STARTED, NULL },
    {  87, { 0xbe7dc02f, 0xbf033132, 0xbe635f67, 0xbe842c17, 0xbf489ace, 0xbeeb43d8, 0xbd0e7324, 0xbf12ae87, 0xbf6e30e3}, 0x00000000, CHANNEL_STATE_NOT_STARTED, NULL },
    {  88, { 0x3e258858, 0x3e8862cd, 0x3e7cf628, 0x3d970b9e, 0x3e5d5dde, 0x3e9c5c80, 0x3d14f62d, 0x3e7e75d3, 0x3ed07ec4}, 0x00000000, CHANNEL_STATE_NOT_STARTED, NULL },
    {  89, { 0x3c5ba2c6, 0xbd188c43, 0xbe132a5b, 0x3e43fc74, 0xbd6cb0cc, 0x3d117cf7, 0x3ea9714e, 0xbdcfc933, 0xbe48b429}, 0x3f3cfa4c, CHANNEL_STATE_NOT_STARTED, NULL },
    {  90, { 0x3e4e7fc0, 0xbe8395b7, 0x3d904ba9, 0x3e0bc2ac, 0xbe9cb7c9, 0xbe449a7f, 0x3eb1dae4, 0x3e24cb0e, 0x3ba73acd}, 0x00000000, CHANNEL_STATE_NOT_STARTED, NULL },
    {  91, { 0x3ea82dba, 0xbe046609, 0xbef0e28b, 0xbdfdedfb, 0x3da86811, 0x3e38ec37, 0x3e4e4b3d, 0xbbfe2548, 0xbddb0512}, 0x00000000, CHANNEL_STATE_NOT_STARTED, NULL },
    {  92, { 0x3ee32fcc, 0xbe7faab6, 0x3e03be04, 0xbe81e25f, 0x3d979478, 0xbe97a926, 0xbd6d028c, 0xbd45f91b, 0x3e892372}, 0x00000000, CHANNEL_STATE_NOT_STARTED, NULL },
    {  93, { 0x3e854c4a, 0x3e00f4bc, 0xbe3fab83, 0xbe9f11ac, 0x3e9e4d51, 0xbe0ec203, 0xbdee417f, 0x3db682ca, 0xbd32ef4e}, 0x00000000, CHANNEL_STATE_NOT_STARTED, NULL },
    {  94, { 0xbf046e6c, 0x3dfc50e9, 0x3c34707e, 0xbe25b8a0, 0x3f01a8ea, 0xbdbc00b0, 0xbe53738d, 0x3e697c8b, 0xbd8bef2a}, 0x00000000, CHANNEL_STATE_NOT_STARTED, NULL },
    {  95, { 0xbe199f1f, 0xbe55d819, 0x3da97a8d, 0x3ec2d89a, 0x3e640b54, 0xbe3e2f89, 0xbe08a61f, 0xbe88afce, 0x3e51e262}, 0x00000000, CHANNEL_STATE_NOT_STARTED, NULL },
    {  96, { 0xbe90af46, 0x3f737cab, 0xbe5b37eb, 0xbebcb82c, 0x3db90b9a, 0xbf179f22, 0xbe5bc12c, 0x3f286dbd, 0xbe86a6c6}, 0x00000000, CHANNEL_STATE_NOT_STARTED, NULL },
    {  97, { 0xbe9dac86, 0xbe7bbf10, 0x3d0d15f8, 0x3e4129a3, 0x3e7975b4, 0xbdb7e217, 0x3bfd5ebb, 0xbe9e58b5, 0x3dde1a4a}, 0x00000000, CHANNEL_STATE_NOT_STARTED, NULL },
    {  98, { 0x3e771b35, 0x3d92ce8d, 0xbe269645, 0xbe3e6ef7, 0xbe40f277, 0x3e010bde, 0x3e8d64e7, 0x3cfbe79a, 0xbe87da76}, 0x00000000, CHANNEL_STATE_NOT_STARTED, NULL },
    {  99, { 0x3e1b5fb5, 0x3ae564c2, 0xbe9d68a3, 0x3da0adf6, 0x3d7c131a, 0xbe650e4a, 0x3d8b060b, 0x3df18ea0, 0x3c6290e4}, 0x3e428d3f, CHANNEL_STATE_NOT_STARTED, NULL },
    { 100, { 0x3cadb09c, 0x3f170dab, 0xbe860505, 0xbe224099, 0x3e1e2b60, 0xbf3a6e5a, 0xbd18cefb, 0xbdf91245, 0xbee21a93}, 0x00000000, CHANNEL_STATE_NOT_STARTED, NULL },
    { 101, { 0x3e15c0f8, 0xbe3dc533, 0x3d62f3aa, 0xbb9cf142, 0xbeb6e262, 0xbe3c4237, 0x3d40cfc3, 0x3e945948, 0x3d2b6705}, 0x00000000, CHANNEL_STATE_NOT_STARTED, NULL },
    { 102, { 0x3cd3d772, 0x3f08e002, 0xbe20b220, 0xbdd5bf94, 0xbf0f0199, 0xbe8cbe6f, 0x3e91629a, 0xbdb758be, 0x3f1313b9}, 0x00000000, CHANNEL_STATE_NOT_STARTED, NULL },
    { 103, { 0x3ddd99f4, 0x3eef8073, 0x3f31c2a2, 0xbeb70833, 0x3ccf5c64, 0x3eb3d2b2, 0xbe3e2253, 0xbeaa4c63, 0xbd2eed76}, 0x00000000, CHANNEL_STATE_NOT_STARTED, NULL },
    { 104, { 0x3df2b365, 0x3dcbb673, 0x3ef204eb, 0x3d0c2a00, 0x3e141f85, 0x3e5b302d, 0x3e56e802, 0x3e3f317c, 0x3e9badb6}, 0x00000000, CHANNEL_STATE_NOT_STARTED, NULL },
    { 105, { 0x3d2d6ec8, 0xbf006486, 0xbf16f277, 0xbe24f4e3, 0xbd3ec5ae, 0xbead5312, 0x3c259d33, 0x3eb9705f, 0x3e76ea8b}, 0x00000000, CHANNEL_STATE_NOT_STARTED, NULL },
    { 106, { 0x3daa6cfa, 0x3deea2c1, 0xbbb631a3, 0xbcfa2043, 0x3f3ca54e, 0x3ed946bf, 0x3e1e689b, 0x3ef8fc8a, 0x3e9180ff}, 0x00000000, CHANNEL_STATE_NOT_STARTED, NULL },
    { 107, { 0xbe28e6a0, 0x3d1edf66, 0xbd1dfa93, 0xbe9e1f5c, 0x3c43c6d3, 0xbe2e973a, 0x3e2be7ce, 0xbde66b91, 0x3e3465e8}, 0x00000000, CHANNEL_STATE_NOT_STARTED, NULL },
    { 108, { 0x3d139684, 0x3c8f5c8a, 0xbf9484f1, 0x3db6004a, 0xbc89bdfb, 0xbfe98008, 0x3d945fbd, 0xbe72951f, 0xbfbb64df}, 0x00000000, CHANNEL_STATE_NOT_STARTED, NULL },
    { 109, { 0x3ddc9d5a, 0x3e7df5a3, 0xbce2074d, 0xbde09bf0, 0xbdc7d90a, 0xbebfe6b6, 0x3cd7fada, 0x3e6cf165, 0xbdcb1537}, 0x3ea33773, CHANNEL_STATE_NOT_STARTED, NULL },
    { 110, { 0xbe0f0bfa, 0x3eefd5c0, 0x3e98cb2b, 0x3cc397c1, 0x3e9b2c3d, 0x3e8176e9, 0x3f0f4529, 0xbc47a7e5, 0x3f064b68}, 0x00000000, CHANNEL_STATE_NOT_STARTED, NULL },
    { 111, { 0xbe8aeb78, 0x3e02e982, 0x3df207f0, 0xbcef74f2, 0x3e49b951, 0x3ea3881d, 0xbea12e7b, 0xbdf7364f, 0xbe0ae078}, 0x00000000, CHANNEL_STATE_NOT_STARTED, NULL },
    { 112, { 0xbe04ea2f, 0x3e555106, 0x3dd01638, 0x3eccf895, 0x3eebcd02, 0xbc8b74fd, 0xbe2c03b3, 0xbe809f3b, 0xbf0be67e}, 0x00000000, CHANNEL_STATE_NOT_STARTED, NULL },
    { 113, { 0x3ddc49ea, 0xbe39992d, 0x3da2824c, 0x3e8aa35c, 0x3ef4cf3c, 0x3e88d9b6, 0x3e6e26e2, 0x3f0d6538, 0x3eb64dcc}, 0x00000000, CHANNEL_STATE_NOT_STARTED, NULL },
    { 114, { 0x3d46ad1b, 0xbe8bd6ca, 0xbdb6afaf, 0xbe42fac5, 0xbe72d0d8, 0xbe03c0d9, 0xbb4fd468, 0xbe9995d9, 0xbe5b9a4d}, 0x00000000, CHANNEL_STATE_NOT_STARTED, NULL },
    { 115, { 0x3e175818, 0xbe324f51, 0x3e82af2a, 0x3f0eda7a, 0xbee3a22f, 0xbdd2f2f6, 0xbe56484d, 0x3d3c08ab, 0xbe86d9e7}, 0x00000000, CHANNEL_STATE_NOT_STARTED, NULL },
    { 116, { 0x3f0a1aa4, 0x3e13c1a7, 0x3e7d46b3, 0xbf1314cb, 0xbdc72fc4, 0x3c665d90, 0xbf2a935b, 0x3d59524d, 0xbe4a19c6}, 0x00000000, CHANNEL_STATE_NOT_STARTED, NULL },
    { 117, { 0xbd060c00, 0xbde975d1, 0xbcaa6505, 0x3ea63805, 0xbcb51a27, 0xbe728b6a, 0xbe1478cb, 0xbeab1091, 0x3ef2366a}, 0x00000000, CHANNEL_STATE_NOT_STARTED, NULL },
    { 118, { 0x3e7d2090, 0x3ea5a74a, 0x3d23d7f5, 0xbf03f254, 0xbe3f6b3a, 0x3b1def6c, 0xbf3ed003, 0xbe913b75, 0xbefd5c13}, 0x00000000, CHANNEL_STATE_NOT_STARTED, NULL },
    { 119, { 0x3e1f93e6, 0xbe8c70b3, 0x3e5e0cee, 0xbcf0295d, 0xbe16d165, 0xbd04f830, 0xbddc4363, 0xbd55cad9, 0xbdaa8686}, 0x3eb8c5c1, CHANNEL_STATE_NOT_STARTED, NULL },
    { 120, { 0xbf2bbf03, 0xbec1b1cd, 0xbc755232, 0xbe8b363b, 0xbe0349b0, 0x3e096903, 0xbd4206a8, 0xbe19f8a3, 0x3db286c2}, 0x00000000, CHANNEL_STATE_NOT_STARTED, NULL },
    { 121, { 0xbf872131, 0xbe4f00f0, 0x3e076310, 0xbeb1640a, 0xbe1b6d75, 0x3df4cfe4, 0x3f110649, 0x3ecfa618, 0x3e98eec5}, 0x00000000, CHANNEL_STATE_NOT_STARTED, NULL },
    { 122, { 0xbf8190da, 0xbf17aaa8, 0x3deecb81, 0x3f22cb76, 0xbd535e63, 0x3eb95a05, 0x3e3b65b7, 0x3e695e0b, 0x3d9ec3b1}, 0x00000000, CHANNEL_STATE_NOT_STARTED, NULL },
    { 123, { 0xbf8ea942, 0xbe5bb2e8, 0xbdff8511, 0xbe34bd5d, 0xbde76b86, 0x3cc72966, 0x3dc60765, 0x3e04e0c7, 0x3e690e32}, 0x00000000, CHANNEL_STATE_NOT_STARTED, NULL },
    { 124, { 0x3dd1538f, 0x3dbd1e0d, 0xbcad5cf7, 0x3efa7202, 0xbd0ce836, 0x3e20cb58, 0x3c50382a, 0x3de0556a, 0x3ddab544}, 0x00000000, CHANNEL_STATE_NOT_STARTED, NULL },
    { 125, { 0x3e67f6d1, 0x3e9820e9, 0xbe432f4c, 0xbdcc24f9, 0xbc6f08e4, 0xbe54f934, 0xbea9d4c7, 0xbcd983a2, 0xbe8c45fa}, 0x00000000, CHANNEL_STATE_NOT_STARTED, NULL },
    { 126, { 0xbe1bf79e, 0x3cc57d38, 0xbd896035, 0xbe11292d, 0x3e0a5773, 0xbe44d0fb, 0xbdd6925c, 0xbdcc70b4, 0xbd50f2db}, 0x00000000, CHANNEL_STATE_NOT_STARTED, NULL },
    { 127, { 0x3d10e3fd, 0x3def96b3, 0xbdbd3b13, 0x3e70e15e, 0xbe1287f4, 0xbb310459, 0xbc16786a, 0xbd833a40, 0x3dd2a24b}, 0x00000000, CHANNEL_STATE_NOT_STARTED, NULL },
    { 128, { 0x3e2672cf, 0x3e5671ed, 0x3e75575f, 0xbd480d2d, 0x3e4c19da, 0x3a53f40a, 0x3e114859, 0x3debafa8, 0xbd0d272c}, 0x00000000, CHANNEL_STATE_NOT_STARTED, NULL },
    { 129, { 0xbf969867, 0xbe354f02, 0x3da35eeb, 0x3e8b92d6, 0x3dd9e280, 0x3e936d26, 0x3d20fa83, 0x3ea542c3, 0x3e815fcb}, 0x3fdad372, CHANNEL_STATE_NOT_STARTED, NULL },
    { 130, { 0xbc73ff36, 0xbe9585db, 0xbea6f8ca, 0x3ee98482, 0x3ea432ca, 0xbee7e972, 0x3e7c5ac4, 0x3f06c020, 0x3e002f58}, 0x00000000, CHANNEL_STATE_NOT_STARTED, NULL },
    { 131, { 0xbe868511, 0x3e2ced72, 0xbe4496d4, 0x3d3977f7, 0x3ea8a250, 0x3ed4270f, 0xbd56d65c, 0xbdfee219, 0xbe88247f}, 0x00000000, CHANNEL_STATE_NOT_STARTED, NULL },
    { 132, { 0x3f05d24f, 0xbf412402, 0x3f132788, 0xbe90444c, 0xbe536b0a, 0xbd837aa3, 0xbe3c9970, 0x3e23b4f6, 0x3e9aac93}, 0x00000000, CHANNEL_STATE_NOT_STARTED, NULL },
    { 133, { 0x3e00e10f, 0x3e1f84af, 0x3c2f835e, 0xbafdaf51, 0x3f0b3068, 0xbe89066c, 0x3e19b81d, 0xbf08ddd1, 0xbe99ea03}, 0x00000000, CHANNEL_STATE_NOT_STARTED, NULL },
    { 134, { 0x3c3fbcf7, 0x3deaefa1, 0x3e8237ba, 0xbcb23258, 0xbe2aeb1f, 0xbe751e21, 0x3d93b182, 0xbf6dc86c, 0xbebb3d38}, 0x00000000, CHANNEL_STATE_NOT_STARTED, NULL },
    { 135, { 0xbee78d8f, 0xbdbdf1cc, 0x3f02d023, 0xbeb1c7e9, 0x3b885e1f, 0x3e49748c, 0xbe371bf3, 0xbdf2da43, 0x3f0b0341}, 0x00000000, CHANNEL_STATE_NOT_STARTED, NULL },
    { 136, { 0xbed3c2e4, 0xbe8d47aa, 0xbd4a1eac, 0xbe024092, 0xbd892ff7, 0x3e8796ee, 0x3d759b5f, 0x3f3a6837, 0x3ea55949}, 0x00000000, CHANNEL_STATE_NOT_STARTED, NULL },
    { 137, { 0x3b093d67, 0x3e2c171d, 0xbbb60782, 0x3e5f50fd, 0xbe76d4b7, 0x3e64ff6b, 0xbd9bf9b1, 0xbe8fac7b, 0xbc0ce958}, 0x00000000, CHANNEL_STATE_NOT_STARTED, NULL },
    { 138, { 0xbe3ad213, 0xbf0c4b74, 0xbe5dca98, 0xbde7d201, 0x3e82c2c6, 0xbcb28f1a, 0x3e48bbe9, 0x3f23a0ad, 0xbb9a2b28}, 0x00000000, CHANNEL_STATE_NOT_STARTED, NULL },
    { 139, { 0xbdec285b, 0xbe8068ad, 0x3f0985a1, 0xbe3e5b75, 0xbddb195c, 0xbe85637e, 0x3e45ab4b, 0xbc4e0885, 0x3d636a6e}, 0xbdf63c63, CHANNEL_STATE_NOT_STARTED, NULL },
    { 140, { 0xbf01e112, 0xbe916e51, 0x3e60ccba, 0xbf51b68e, 0xbe4453e8, 0x3eac3456, 0x3d67df01, 0x3e8545f2, 0xbd5b9de1}, 0x00000000, CHANNEL_STATE_NOT_STARTED, NULL },
    { 141, { 0xbe941f29, 0x3edd5ab2, 0x3ee04050, 0xbf3467b7, 0x3e3e4d7e, 0x3d802fa1, 0xbe60397b, 0x3ca82d97, 0x3e2c4fc7}, 0x00000000, CHANNEL_STATE_NOT_STARTED, NULL },
    { 142, { 0xbed40bdf, 0x3ebefd79, 0x3e0c2199, 0xbf866830, 0x3f18bd59, 0x3ea153f4, 0xbf3cf202, 0x3f0cf67a, 0x3e9979b7}, 0x00000000, CHANNEL_STATE_NOT_STARTED, NULL },
    { 143, { 0x3e36d925, 0xbd99f0e7, 0xbe22539f, 0xbeec7b39, 0xbe0ea33d, 0xbeb1d29f, 0x3e82ca9a, 0xbeb87c2b, 0xbbe4bef9}, 0x00000000, CHANNEL_STATE_NOT_STARTED, NULL },
    { 144, { 0x3e1ad0b9, 0x3e0f85a2, 0xbdb375b3, 0x3e7b4d32, 0x3d9e68d8, 0x3ce2dc1a, 0x3e5155aa, 0x3d909233, 0x3cd63654}, 0x00000000, CHANNEL_STATE_NOT_STARTED, NULL },
    { 145, { 0xbd638186, 0x3f039ee3, 0x3dc46c99, 0x3d9e3b11, 0x3ec6e1ad, 0x3e0595d2, 0x3e0be603, 0xbe08827f, 0x3dc50812}, 0x00000000, CHANNEL_STATE_NOT_STARTED, NULL },
    { 146, { 0x3e991866, 0xbb4aac86, 0x3d917f64, 0xbf1a8aa2, 0x3e392844, 0x3e9ec240, 0xbe4054a0, 0xbdfb779e, 0xbd99ab0f}, 0x00000000, CHANNEL_STATE_NOT_STARTED, NULL },
    { 147, { 0x3e66083a, 0x3d75fe27, 0xbca41b63, 0xbddb5ec9, 0x3ede786c, 0xbe0bfcd1, 0x3e0f98f0, 0x3e075181, 0xbde64ddd}, 0x00000000, CHANNEL_STATE_NOT_STARTED, NULL },
    { 148, { 0x3da40b8b, 0xbe4c179b, 0xbdca53e3, 0xbfc31b69, 0xbd9c9d93, 0x3e8526c0, 0xbd9d1fc7, 0xbdd81401, 0x3d84ca4b}, 0x00000000, CHANNEL_STATE_NOT_STARTED, NULL },
    { 149, { 0xbe4b20a5, 0x3d629a42, 0x3dc34802, 0xbd8196ed, 0x3de4d5b9, 0xbe285324, 0x3df64309, 0xbdc363dd, 0x3c89f1b9}, 0x3f197690, CHANNEL_STATE_NOT_STARTED, NULL },
    { 150, { 0x3e56bc3e, 0xbd8fd810, 0xbe8a56d5, 0x3c5d0220, 0xbd259f39, 0xbe416a2c, 0x3d5335fc, 0xbde4dc16, 0x3aaeeb10}, 0x00000000, CHANNEL_STATE_NOT_STARTED, NULL },
    { 151, { 0x3d6bd816, 0xbe83ce48, 0xbf450e41, 0x3e438af0, 0xbea99e1a, 0xbf7e3f8a, 0x3d240e47, 0x3d73221b, 0xbe9255f6}, 0x00000000, CHANNEL_STATE_NOT_STARTED, NULL },
    { 152, { 0x3ea8c1c9, 0x3bac1d11, 0x3ec3f1e7, 0x3e97ab60, 0xbdba8728, 0xbf1b26eb, 0x3ee08dba, 0x3e0999e6, 0xbed5454c}, 0x00000000, CHANNEL_STATE_NOT_STARTED, NULL },
    { 153, { 0x3d7039be, 0xbc9f612f, 0xbd08a6cb, 0x3e459fa7, 0x3e828c3d, 0x3da59af2, 0x3e176ed0, 0x3e43e4d4, 0x3e5b75f2}, 0x00000000, CHANNEL_STATE_NOT_STARTED, NULL },
    { 154, { 0x3cd25452, 0xbc2edcb4, 0x3da48306, 0x3d6aae47, 0xbe24dec9, 0x3d802819, 0xbd5ed037, 0xbe0da3e5, 0x3ca1e6bd}, 0x00000000, CHANNEL_STATE_NOT_STARTED, NULL },
    { 155, { 0xbe0c1451, 0x3d47c36a, 0x3e858783, 0x3bf48075, 0xbe132eaa, 0xbd8ed9a8, 0xbd8e6e3f, 0xbdcaf3c0, 0xbdd4c86c}, 0x00000000, CHANNEL_STATE_NOT_STARTED, NULL },
    { 156, { 0xbdbafea6, 0x3d973218, 0x3dd68053, 0xbdc1eee5, 0x3e217232, 0x3da04448, 0x3de65d3d, 0x3e60499c, 0xbd63e6bd}, 0x00000000, CHANNEL_STATE_NOT_STARTED, NULL },
    { 157, { 0xbe0bfc13, 0x3d582431, 0xbb146c39, 0x3da9553a, 0x3d5ef0db, 0xbda87e8f, 0x3da284fe, 0x3c6c0eda, 0x3d846727}, 0x00000000, CHANNEL_STATE_NOT_STARTED, NULL },
    { 158, { 0x3db803e4, 0xbd319224, 0xbcbeab4e, 0x3d698b48, 0x3d97864b, 0x3d572cce, 0x3d962706, 0xbb9c6609, 0xbce4c89a}, 0x00000000, CHANNEL_STATE_NOT_STARTED, NULL },
    { 159, { 0x3dec75b3, 0x3d6cca4f, 0x3e6cad77, 0xbb89550c, 0xbef89051, 0xbf7056fe, 0x3be90d4d, 0xbe6c51c0, 0xbf90a640}, 0x402dea26, CHANNEL_STATE_NOT_STARTED, NULL },
};

static u32 PRelu_Layer_5_16_weights[16] ={
    0x3d89388d, 0x3e519c80, 0x3e8118e2, 0x3d29916c, 0x3e472e27,
    0x3e9a019d, 0x3ed995fb, 0x3ede166a, 0x3e339bb7, 0xbf06a620,
    0x3e04f1ee, 0x3e42777b, 0xba87f9b4, 0xbe21bc1d, 0xbe590820,
    0xbd6f02b0
};

static Channel_Kernal_Data layer_6_f32_weights[512] = {
    {   0, { 0x3d87367d, 0x3e09555c, 0xbdff7eb4, 0x3eeb9fe3, 0x3ebb768a, 0x3e4d1413, 0x3ec7e28a, 0x3e81c2c5, 0x3eb16f1c}, 0x00000000, CHANNEL_STATE_NOT_STARTED, NULL },
    {   1, { 0x3e0cab32, 0x3bcd13e1, 0x3e6a936c, 0xbd55265c, 0x3d48704b, 0x3dd34e3a, 0xbe415e17, 0xbdb7290f, 0xbd97b873}, 0x00000000, CHANNEL_STATE_NOT_STARTED, NULL },
    {   2, { 0xbedba85d, 0xbe0a197f, 0xbf128fad, 0xbeab7ca0, 0xbdbbf7a5, 0xbd56572b, 0xbe6c5795, 0xbd8814c7, 0x3d2b5b0b}, 0x00000000, CHANNEL_STATE_NOT_STARTED, NULL },
    {   3, { 0x3d5f1f5d, 0x3a8fbb5d, 0x3d9ebdf6, 0xbdf9f564, 0xbe126fc0, 0xbd5b6737, 0x3d0abad3, 0xbc6dd75d, 0xbd90e855}, 0x00000000, CHANNEL_STATE_NOT_STARTED, NULL },
    {   4, { 0x3cda0a1c, 0x3d863030, 0xbe2ece66, 0x3e621039, 0x3e208c4f, 0x3e7097e2, 0x3e8657df, 0x3d5df804, 0x3db0a98e}, 0x00000000, CHANNEL_STATE_NOT_STARTED, NULL },
    {   5, { 0x3dda6953, 0xbe4de08a, 0x3e0c0834, 0x3e3b4772, 0xbd05ddac, 0xbe1d3028, 0x3db5314f, 0x3d938437, 0xbe1dc323}, 0x00000000, CHANNEL_STATE_NOT_STARTED, NULL },
    {   6, { 0x3d8c3f36, 0x3e006d6d, 0x3d783f85, 0x3e365f2c, 0xbe2a2823, 0xbd7b3d84, 0x3e7f9a62, 0xbe11d6d3, 0x3d1b45de}, 0x00000000, CHANNEL_STATE_NOT_STARTED, NULL },
    {   7, { 0x3ecdbc9c, 0x3e26df3d, 0x3e180254, 0xbcc5be94, 0x3dc0eb4e, 0x3d8f9e03, 0xbd7b31e5, 0xbd2f5391, 0xbd4c0645}, 0x00000000, CHANNEL_STATE_NOT_STARTED, NULL },
    {   8, { 0x3d8690a3, 0x3c2af793, 0x3dd35970, 0xbe052a47, 0xbe1310ce, 0xbdf575f6, 0xbdfb0c95, 0x3e13eace, 0xbe6fefae}, 0x00000000, CHANNEL_STATE_NOT_STARTED, NULL },
    {   9, { 0xbdc867a2, 0xbd9c92c2, 0x3c82f754, 0xbd732408, 0xbdbdad2f, 0x3d9193f4, 0xbd8e28f7, 0x3d5a63b2, 0x3d8b83cc}, 0x00000000, CHANNEL_STATE_NOT_STARTED, NULL },
    {  10, { 0x3c7773bb, 0xbe55e031, 0xbdec7153, 0x3dc73f43, 0x3d7f59ae, 0xbdc06e18, 0xbcf31d72, 0x3c1ae9c8, 0x3e335768}, 0x00000000, CHANNEL_STATE_NOT_STARTED, NULL },
    {  11, { 0x3c21f40c, 0xbdddecf6, 0x3c911994, 0xbe197c5c, 0xbd4af2b7, 0xbd77ec1d, 0x3dc5c328, 0x3d937aec, 0x3da0cb90}, 0x00000000, CHANNEL_STATE_NOT_STARTED, NULL },
    {  12, { 0x3e1adaeb, 0xbd6ada96, 0xbc167854, 0x3d3d0dcd, 0xbe357926, 0xbe022089, 0xbc66ed18, 0xbe50ce30, 0x3dc411dc}, 0x00000000, CHANNEL_STATE_NOT_STARTED, NULL },
    {  13, { 0x3de38b83, 0x3ce45a1d, 0x3dcfc421, 0x3e1ed264, 0x3e153820, 0x3e1dd798, 0x3d9d61c9, 0x3d6ecd99, 0x3e00ce7d}, 0x00000000, CHANNEL_STATE_NOT_STARTED, NULL },
    {  14, { 0x3ce13b55, 0xbc165065, 0x3ce10f44, 0x3d82c0a5, 0x3d7b577d, 0x3d18b33f, 0x3e83b0c9, 0x3e1302a5, 0x3db80b46}, 0x00000000, CHANNEL_STATE_NOT_STARTED, NULL },
    {  15, { 0x3e54127c, 0x3e56c171, 0x3e8d34da, 0xbdaec82d, 0xbe257a2e, 0xbc967f12, 0xbde01275, 0xbd9361b3, 0xbe7c5385}, 0xbdb7ca1c, CHANNEL_STATE_NOT_STARTED, NULL },
    {  16, { 0xbc26d87a, 0xbceface6, 0x3cac7458, 0xbc81333b, 0xbc8457bc, 0xbd03b036, 0xbd979455, 0xbdb25ef2, 0xbe0cebb8}, 0x00000000, CHANNEL_STATE_NOT_STARTED, NULL },
    {  17, { 0x3d5cd89b, 0xbd5c4c95, 0x3d098a18, 0x3d85816e, 0xbcefca0e, 0x3db9eab0, 0xbe6b37c5, 0xbe22c265, 0xbe6f95aa}, 0x00000000, CHANNEL_STATE_NOT_STARTED, NULL },
    {  18, { 0xbe06f9dd, 0x3ddf8e06, 0x3deb7f51, 0xbd62d61b, 0xbc437149, 0x3d8e81fa, 0x3d3f966a, 0x3d8d71cf, 0x3d4c0f5a}, 0x00000000, CHANNEL_STATE_NOT_STARTED, NULL },
    {  19, { 0x3d551b21, 0x3c5522cf, 0xbd4031c2, 0xbd344775, 0xbce1c2ee, 0xbdb7a988, 0xbe153373, 0xbded1155, 0xbf2a54f7}, 0x00000000, CHANNEL_STATE_NOT_STARTED, NULL },
    {  20, { 0xbd87ecc0, 0x3b9c3ede, 0x3d0eba6c, 0xbcdfa172, 0xbe2fcfa4, 0xbb8acfa4, 0x3d665ee5, 0x3e08a7da, 0xbdf560d3}, 0x00000000, CHANNEL_STATE_NOT_STARTED, NULL },
    {  21, { 0x3d89ee8b, 0x3d5a12d9, 0x3d8f4f06, 0x3ddbdfcb, 0xbd53db9f, 0xbe7c7afd, 0xbdb1e814, 0x3e129d2e, 0xbbe49ee8}, 0x00000000, CHANNEL_STATE_NOT_STARTED, NULL },
    {  22, { 0x3d585229, 0x3dde016d, 0xbde5bd57, 0x3e1ffe63, 0x3dbb1bb7, 0xbe178f96, 0x3e857b7e, 0x3d62281d, 0xbe3ce6ef}, 0x00000000, CHANNEL_STATE_NOT_STARTED, NULL },
    {  23, { 0xbdcf5a87, 0xbd96fde0, 0x3c21f23b, 0xbcbf45a9, 0x3d888a17, 0xbe0dd105, 0xbb4c76f6, 0x3d29ba3e, 0x3e88941d}, 0x00000000, CHANNEL_STATE_NOT_STARTED, NULL },
    {  24, { 0x3e43864d, 0x3e097ae7, 0x3e764b7e, 0xbeab803c, 0xbe5ec61b, 0xbebe01bb, 0x3e922c93, 0x3e2f8f40, 0x3e7b9522}, 0x00000000, CHANNEL_STATE_NOT_STARTED, NULL },
    {  25, { 0xbe8e9fed, 0xbdeb13f7, 0xbce943be, 0xbe53849d, 0xbe40fa56, 0xbdcca48a, 0xbde0c7c6, 0xbe2ae64c, 0xbc92cc4d}, 0x00000000, CHANNEL_STATE_NOT_STARTED, NULL },
    {  26, { 0x3cac7aee, 0xbdf4d559, 0x3b06e2e7, 0xbd63ba67, 0xbe09cac9, 0x3c902338, 0x3d616f85, 0x3da0d896, 0xbc069557}, 0x00000000, CHANNEL_STATE_NOT_STARTED, NULL },
    {  27, { 0xbe299a42, 0xbe05eb0a, 0xbca759ff, 0xbd21789a, 0x3c5c6016, 0x3d8a278b, 0xbd4e3e51, 0xbdfc86de, 0xbdc84ab6}, 0x00000000, CHANNEL_STATE_NOT_STARTED, NULL },
    {  28, { 0x3da5c655, 0x3d9cf5e8, 0xbdb5fbdd, 0x3c2d9946, 0xbe7adb6f, 0xbd3452a1, 0x3c1079ba, 0x3d1c4317, 0xbe6233d2}, 0x00000000, CHANNEL_STATE_NOT_STARTED, NULL },
    {  29, { 0xbdc3d94d, 0xbe0e9525, 0xbd2b4d92, 0xbe1ecdf9, 0x3cb30bb7, 0xbde39d9a, 0xbcdfab81, 0xbc2f4703, 0xbcb181ba}, 0x00000000, CHANNEL_STATE_NOT_STARTED, NULL },
    {  30, { 0x3c0e58f0, 0x3e364e3b, 0x3d8a65b7, 0x3e365512, 0x3d089931, 0xbdb412d7, 0x3d0cad96, 0x3bb8071a, 0xbd551852}, 0x00000000, CHANNEL_STATE_NOT_STARTED, NULL },
    {  31, { 0xbe15d61d, 0x3d8dfe1c, 0xbd91ea8c, 0xbe5c1682, 0x3daa732b, 0xbdc74e11, 0x3e5c9bb9, 0x3e283c21, 0x3d8907e7}, 0x3fdda20b, CHANNEL_STATE_NOT_STARTED, NULL },
    {  32, { 0xbd1abefd, 0xbc054f26, 0x3e7980b4, 0x3c48c135, 0xbda965ca, 0x3eeeb64e, 0x3cfeb05e, 0xbe52eef9, 0x3e549e97}, 0x00000000, CHANNEL_STATE_NOT_STARTED, NULL },
    {  33, { 0xbba8d395, 0x3c14d0c3, 0xbea47e43, 0x3d5db095, 0xbe3d2d79, 0x3d3ba5d3, 0xbda99538, 0x3d090617, 0x3cd6109d}, 0x00000000, CHANNEL_STATE_NOT_STARTED, NULL },
    {  34, { 0xbe333133, 0xbc96e433, 0x3e2d164c, 0xbba3ee53, 0xbd624dd3, 0xbdb890d9, 0x3d96528e, 0xbe7b0806, 0xbe44ed96}, 0x00000000, CHANNEL_STATE_NOT_STARTED, NULL },
    {  35, { 0xbd72a8e0, 0xbe450ccc, 0xbee5ff80, 0xbc1907cf, 0xbb3b457c, 0xbe6cfb82, 0x3db05647, 0x39a48dbb, 0xbea686f4}, 0x00000000, CHANNEL_STATE_NOT_STARTED, NULL },
    {  36, { 0xbe2c8d5a, 0x3c2b17bf, 0x3e9a4f66, 0x3dc57baf, 0xbcec2e25, 0x3e071bf1, 0x3dd6da58, 0xbdc33687, 0xbc873c06}, 0x00000000, CHANNEL_STATE_NOT_STARTED, NULL },
    {  37, { 0x3dadfe40, 0xbd350429, 0xbe9ae9aa, 0x3d80ad2f, 0x3cfa2922, 0xbee50387, 0x3e031e15, 0x3e3304ca, 0xbe4cb0e0}, 0x00000000, CHANNEL_STATE_NOT_STARTED, NULL },
    {  38, { 0xbe0b22cc, 0x3dfa21ce, 0xbe7d6e4b, 0x3c640486, 0x3dd75904, 0x3de04d1e, 0xbbc0e2ec, 0x3d1f02d9, 0x3ea1f989}, 0x00000000, CHANNEL_STATE_NOT_STARTED, NULL },
    {  39, { 0xbc62b43e, 0x3e04e2e3, 0x3e428f42, 0xbe0690e3, 0x3e0a85f9, 0x3e9ae890, 0x3d536385, 0x3e577879, 0x3dbf7cf8}, 0x00000000, CHANNEL_STATE_NOT_STARTED, NULL },
    {  40, { 0x3dd9f9eb, 0x3dff487d, 0xbead7a8f, 0xbd923226, 0x3d9fcfa5, 0xbd885fe1, 0x3dcc39fb, 0xbd14519c, 0xbe562aed}, 0x00000000, CHANNEL_STATE_NOT_STARTED, NULL },
    {  41, { 0xbd8b1b06, 0x3d892bb9, 0x3de81f2a, 0x3cdd0ecc, 0x3df3cc75, 0x3e9fba2f, 0xbda2a413, 0xbcaecd86, 0x3d619daa}, 0x00000000, CHANNEL_STATE_NOT_STARTED, NULL },
    {  42, { 0x3cd0c145, 0xbda5ddf7, 0xbe8cc949, 0x3b97edfb, 0xbd9be7d5, 0x3c095855, 0x3e62635c, 0x3dfb0d9f, 0xbe4f06d0}, 0x00000000, CHANNEL_STATE_NOT_STARTED, NULL },
    {  43, { 0xbe2bb322, 0xbe66715f, 0xbebd1f16, 0x3cbde0fd, 0xbe081b69, 0xbe68c5a2, 0x3dc76813, 0xbd34dd7f, 0xbe0d1b29}, 0x00000000, CHANNEL_STATE_NOT_STARTED, NULL },
    {  44, { 0xbcee0583, 0xbe049463, 0xbe95fdea, 0xbdd484c5, 0x3d0243f0, 0xbd327ffe, 0xbd29ab10, 0xbd021f05, 0xbe2186ae}, 0x00000000, CHANNEL_STATE_NOT_STARTED, NULL },
    {  45, { 0xbd0fcc79, 0xbe780ae5, 0xbea7367f, 0x3d41a236, 0xbe546082, 0xbe8c2b34, 0x3da5cbd6, 0xbe886122, 0xbe5ee338}, 0x00000000, CHANNEL_STATE_NOT_STARTED, NULL },
    {  46, { 0xbd1a0b6c, 0xbe51bff4, 0xbe89478e, 0x3cf805be, 0xbdc3e889, 0xbe666b3a, 0x3cd14d68, 0x3d47fe0e, 0xbe9272ec}, 0x00000000, CHANNEL_STATE_NOT_STARTED, NULL },
    {  47, { 0x3e02e3ab, 0x3e3dcf12, 0x3e08103c, 0xbe3536a6, 0xbe1646b5, 0x3e82367f, 0xbdd35a93, 0xbdd8eacd, 0x3dbdba96}, 0x3fa5a9c6, CHANNEL_STATE_NOT_STARTED, NULL },
    {  48, { 0x3ddc8d81, 0x3d00a9b7, 0xbda0d9fc, 0xbd569473, 0x3a425e55, 0x3d098e27, 0xbd7f8523, 0xbda3fe97, 0xbd2eac84}, 0x00000000, CHANNEL_STATE_NOT_STARTED, NULL },
    {  49, { 0xbe834098, 0xbdc7c86c, 0x3caff6be, 0xbe2fefbc, 0xbd324467, 0x3dceb93e, 0x3f0329f0, 0x3e27daab, 0x3ea0ab7c}, 0x00000000, CHANNEL_STATE_NOT_STARTED, NULL },
    {  50, { 0x3ca2e8ac, 0x3e1564da, 0xbe0a70f2, 0xbd927126, 0x3c35d0c1, 0x3c81ea5d, 0x3ebb7b01, 0x3e3e4c43, 0x3ce891ba}, 0x00000000, CHANNEL_STATE_NOT_STARTED, NULL },
    {  51, { 0x3d6cd62d, 0xbd61299c, 0x3dee6fcf, 0x3c891bc2, 0xbccf6bad, 0x3d9bfecb, 0x3b241c59, 0x3b96569e, 0x3d121916}, 0x00000000, CHANNEL_STATE_NOT_STARTED, NULL },
    {  52, { 0xbc364f0f, 0xbde880e5, 0xbe5c6a64, 0x3e10729f, 0x3b1cb6b6, 0x3cde4e88, 0xbe3444a2, 0xbc6b7048, 0xbd82a497}, 0x00000000, CHANNEL_STATE_NOT_STARTED, NULL },
    {  53, { 0x3c9e68a3, 0xbdbd27dd, 0x3de5e973, 0xbdae22c0, 0x3d0c384f, 0xbd0cbef5, 0x3c24ef79, 0x3e0f6c76, 0x3e660e4f}, 0x00000000, CHANNEL_STATE_NOT_STARTED, NULL },
    {  54, { 0x3dacbd5a, 0x3d87ba03, 0x3e814a59, 0x3c87bb4b, 0xbe0d8da4, 0x3d92be12, 0xbd53a867, 0xbd4018f5, 0x3dc9a4e5}, 0x00000000, CHANNEL_STATE_NOT_STARTED, NULL },
    {  55, { 0xbd2cf4f5, 0x3d785f90, 0x3e82a3b5, 0xbd110d36, 0x3de7e778, 0xbc98b091, 0xbdc7a74b, 0x3cd22709, 0x3e505272}, 0x00000000, CHANNEL_STATE_NOT_STARTED, NULL },
    {  56, { 0xbe603d9d, 0x3e1de60b, 0xbcc7daa7, 0xbe15bf9a, 0x3d3fc373, 0xbe4550da, 0x3e09ea71, 0x3dd55500, 0x3c5db410}, 0x00000000, CHANNEL_STATE_NOT_STARTED, NULL },
    {  57, { 0xbd5ad0fd, 0xbd6da6fe, 0xb92088e9, 0xbd1c2816, 0xbd7c7482, 0xbc38fa09, 0xbe044538, 0x3c5ac504, 0xbdcde461}, 0x00000000, CHANNEL_STATE_NOT_STARTED, NULL },
    {  58, { 0x3d9c80f9, 0xba9a1578, 0x3d27aa7b, 0x3db53e6b, 0x3c92bd6f, 0x3b494451, 0x3d437ea4, 0x3e443b73, 0x3db57d33}, 0x00000000, CHANNEL_STATE_NOT_STARTED, NULL },
    {  59, { 0x3d674080, 0xbd8c5958, 0xbc880459, 0x3dbffa3f, 0xbd51c3ee, 0xbd8754fd, 0x3def73c7, 0x3de3d17a, 0x3a05af6a}, 0x00000000, CHANNEL_STATE_NOT_STARTED, NULL },
    {  60, { 0x3e6f7fb8, 0x3d5b22da, 0x3c9a0bfc, 0xbe16052b, 0xbde6e715, 0xbbd18e7f, 0xbd895d47, 0x3e0ea91e, 0x3e0193cb}, 0x00000000, CHANNEL_STATE_NOT_STARTED, NULL },
    {  61, { 0x3dad9147, 0x3da20faa, 0x3da36010, 0x3c9bfbf2, 0x3d3614d0, 0xbb0a98f0, 0x3db4a2e4, 0x3dc41100, 0x3d8074e9}, 0x00000000, CHANNEL_STATE_NOT_STARTED, NULL },
    {  62, { 0x3dc46fa7, 0x3db79046, 0xbd9cadeb, 0xbd80e4cc, 0xbbbd3c21, 0xbd332d32, 0x3d66668e, 0x3db00c2d, 0xbd5abc80}, 0x00000000, CHANNEL_STATE_NOT_STARTED, NULL },
    {  63, { 0xbdfdde23, 0xbd452ba4, 0x3e2f4e1c, 0x3e4f05f6, 0x3e11a8ac, 0x3c04523a, 0x3d73d007, 0x3c2cd5d1, 0x3e3f9fd2}, 0xbfe37b4f, CHANNEL_STATE_NOT_STARTED, NULL },
    {  64, { 0x3e3b31f0, 0x3d6650f2, 0xbd479b7f, 0xbb795e64, 0xbc788c87, 0xbc996e44, 0x3dad94dd, 0x3e11a597, 0xbcf8bf4f}, 0x00000000, CHANNEL_STATE_NOT_STARTED, NULL },
    {  65, { 0xbf081d78, 0xbe1c1316, 0xbdc7d675, 0xbe82f4fd, 0xbc5bcde6, 0xbde6eefe, 0x3e01b81f, 0xbca281a0, 0x3de3d1c9}, 0x00000000, CHANNEL_STATE_NOT_STARTED, NULL },
    {  66, { 0x3d6320f4, 0xbdb1a067, 0x3d7f23a1, 0x3ea0abde, 0x3d05361a, 0xbb982b54, 0x3e854468, 0x3e7cd039, 0x3e486152}, 0x00000000, CHANNEL_STATE_NOT_STARTED, NULL },
    {  67, { 0x3db47d88, 0x3bec5459, 0x3e1a1a1f, 0x3d686dd2, 0x3cb48ec6, 0x3dd4426f, 0x3e0df2a1, 0x3dd6d7ce, 0x3e4b835d}, 0x00000000, CHANNEL_STATE_NOT_STARTED, NULL },
    {  68, { 0x3d9cf4cf, 0xbdb791d0, 0xbdbc0b91, 0x3d8b0ff7, 0xbd1f0d49, 0xbe008d7e, 0xbdd17ea0, 0x3db3a7ef, 0xbca3dbe9}, 0x00000000, CHANNEL_STATE_NOT_STARTED, NULL },
    {  69, { 0x3def15ef, 0xbd11cc79, 0x3e824925, 0x3d98abde, 0xbdb55321, 0xbdd1bf28, 0x3c935431, 0x3da9e81c, 0x3e6ded15}, 0x00000000, CHANNEL_STATE_NOT_STARTED, NULL },
    {  70, { 0x3ddf587b, 0xbdce1145, 0x3e3ff3cf, 0xbc038583, 0xbc4c54fb, 0x3c479bcb, 0xbd1b9a25, 0x3d701e84, 0xbe2351cd}, 0x00000000, CHANNEL_STATE_NOT_STARTED, NULL },
    {  71, { 0xbd31cc19, 0xbce90b9b, 0xbdab3805, 0xbdf2cc50, 0x3b13beb9, 0xbc754685, 0xbdc7e735, 0xbdd52752, 0x3ddbbf61}, 0x00000000, CHANNEL_STATE_NOT_STARTED, NULL },
    {  72, { 0x3e5e54bc, 0xbe57534b, 0x3edd898c, 0x3e659720, 0x3c5cae52, 0x3d303b2d, 0x3c32cf0b, 0xbe556482, 0x3eb934c3}, 0x00000000, CHANNEL_STATE_NOT_STARTED, NULL },
    {  73, { 0x3d9121e8, 0x3d13e483, 0x3d3a78a9, 0xbcdcd379, 0xbc04c21a, 0xbd51d063, 0x3ce979d9, 0xbd0aab2a, 0xbd15d8f7}, 0x00000000, CHANNEL_STATE_NOT_STARTED, NULL },
    {  74, { 0x3d666122, 0x3dafe698, 0x3e1e5199, 0x3d42e382, 0x3b1dc0f1, 0xbe27f276, 0xbbd0c8c4, 0x3da662b1, 0x3e4b6475}, 0x00000000, CHANNEL_STATE_NOT_STARTED, NULL },
    {  75, { 0xbc0fe130, 0xbd205f9a, 0xbe02c3a5, 0x3d71f5d3, 0x3e3446bd, 0x3cf337e1, 0x3cba2b6b, 0xbd11cb5a, 0xbccea645}, 0x00000000, CHANNEL_STATE_NOT_STARTED, NULL },
    {  76, { 0xbde0d85d, 0xbd9d7f49, 0x3df956fa, 0xbdb8c93a, 0xbda84ecf, 0xbdaf14b3, 0x3d0971b6, 0x3de3c33a, 0x3df8d522}, 0x00000000, CHANNEL_STATE_NOT_STARTED, NULL },
    {  77, { 0xbd159383, 0x3bca7fec, 0x3d8a72e4, 0xbd416f2e, 0x3d609cde, 0x3dbd61c1, 0x3ce688e4, 0x3d584209, 0xbbb616d5}, 0x00000000, CHANNEL_STATE_NOT_STARTED, NULL },
    {  78, { 0x3dcc1f54, 0x3dc4dfbe, 0x3e450370, 0x3d5a4667, 0x3d283fcb, 0xbdf423c7, 0x3d6dc56b, 0xbd0f0ed2, 0xbd22a157}, 0x00000000, CHANNEL_STATE_NOT_STARTED, NULL },
    {  79, { 0xbe59ad66, 0xbca40103, 0xbdde8f54, 0xbcf72f06, 0xbe12182f, 0x3e11a11c, 0xbd7a60e7, 0x3d4c7cbd, 0x3e3fbfbc}, 0x3ecb0eec, CHANNEL_STATE_NOT_STARTED, NULL },
    {  80, { 0x3dc03d06, 0xbd0d2832, 0xbdb8d568, 0xbd90c2ac, 0xbc2d0ae0, 0xbc4c80c8, 0x3dc790d1, 0x3d0d4c5d, 0xbd90990f}, 0x00000000, CHANNEL_STATE_NOT_STARTED, NULL },
    {  81, { 0x3db525d6, 0xbda03c19, 0xbdac86b3, 0xbcc0accf, 0xbd721b08, 0x3d8c245c, 0xbc8c6e5c, 0x3c95e164, 0x3d506063}, 0x00000000, CHANNEL_STATE_NOT_STARTED, NULL },
    {  82, { 0x3dc81579, 0x3c806934, 0xbd281b0a, 0x3d87c94f, 0xbdb908ef, 0xbd42c5c2, 0x3db121c0, 0x3de5415b, 0x3d3c8744}, 0x00000000, CHANNEL_STATE_NOT_STARTED, NULL },
    {  83, { 0x3dd93c74, 0x3df80f4c, 0x3e45d28c, 0xbe0783c1, 0xbddfd6a9, 0x3de8d496, 0xbe218375, 0xbe1c76d2, 0xbcc656fc}, 0x00000000, CHANNEL_STATE_NOT_STARTED, NULL },
    {  84, { 0x3e1cb1e1, 0x3d0cd730, 0xbef975e6, 0x3dc9a848, 0x3d8ea247, 0xbe72f2f0, 0xbe0e5a0a, 0x3d856640, 0xbd7a9361}, 0x00000000, CHANNEL_STATE_NOT_STARTED, NULL },
    {  85, { 0x3d102fb4, 0x3db9262b, 0x3c881da7, 0xbc998f1f, 0xbdb0aef1, 0x3ccd0c92, 0xbd8314c6, 0xbe2f8bf5, 0x3e0134e7}, 0x00000000, CHANNEL_STATE_NOT_STARTED, NULL },
    {  86, { 0xbe0c9bf4, 0xbdf733b0, 0x3d9edfc1, 0x3df13219, 0xbdbb7966, 0xbcaa979c, 0x3c8a1308, 0xbd4c9679, 0x3d2af440}, 0x00000000, CHANNEL_STATE_NOT_STARTED, NULL },
    {  87, { 0x3c899499, 0x3e079617, 0x3df74f19, 0xbdfe77fb, 0x3d32d1dd, 0x3dbf0478, 0x3d0f5611, 0xbdd0bdf0, 0x3d2ba44e}, 0x00000000, CHANNEL_STATE_NOT_STARTED, NULL },
    {  88, { 0xbdedd7e6, 0xbd0e6765, 0x3e254817, 0x3d8c9611, 0xbdb1c9a9, 0xbc452831, 0xbd4595b9, 0xbdc47ecd, 0x3da837db}, 0x00000000, CHANNEL_STATE_NOT_STARTED, NULL },
    {  89, { 0xbde8014a, 0xbda7ec11, 0x3d3e55f6, 0xbc4009ac, 0xbd4d41f9, 0xbd07c066, 0x3d96874d, 0x3d9ec3ca, 0xbd46e31b}, 0x00000000, CHANNEL_STATE_NOT_STARTED, NULL },
    {  90, { 0x3d6b8453, 0x3d9cd6d3, 0x3e587e1b, 0xbd433959, 0xbdd99afa, 0xbd59a944, 0xbd99f591, 0xba0f20ce, 0xbdb128a6}, 0x00000000, CHANNEL_STATE_NOT_STARTED, NULL },
    {  91, { 0x3d80a233, 0xbcf60768, 0x3cf99629, 0xbc2a9adb, 0xbd4569c0, 0xbca3a2a1, 0xbe062c87, 0xbda164b8, 0x3d98951d}, 0x00000000, CHANNEL_STATE_NOT_STARTED, NULL },
    {  92, { 0x3dea7372, 0x3d3fb349, 0x3d633944, 0xbe59348d, 0xbe5e9912, 0xbdf6e334, 0x3d17f8b7, 0x3c256964, 0x3d1fe9f9}, 0x00000000, CHANNEL_STATE_NOT_STARTED, NULL },
    {  93, { 0x3ccc6b0e, 0x3bcad0c5, 0x3dacd101, 0xbdc24871, 0xbc6182f1, 0x3d705559, 0xbe18ca6c, 0xbd98dc16, 0xbd43b238}, 0x00000000, CHANNEL_STATE_NOT_STARTED, NULL },
    {  94, { 0x3dd39ef6, 0x3cf8853d, 0x3d0603c3, 0x3a96b623, 0xbd0cca7a, 0xbdca7dea, 0xbdabe164, 0xbc63d13d, 0xbc1c0571}, 0x00000000, CHANNEL_STATE_NOT_STARTED, NULL },
    {  95, { 0xbe33524d, 0xbc8f6073, 0xbe9406f1, 0x3e0cea80, 0x3dd6c0ad, 0xbd8fd258, 0x3e25f356, 0x3db18141, 0xbd1709f5}, 0x3f08c3ff, CHANNEL_STATE_NOT_STARTED, NULL },
    {  96, { 0x3d86001b, 0xbe14b654, 0xbd9fe1d9, 0x3e13dc44, 0xbdc5b76f, 0xbd2980b5, 0x3e2cf335, 0xbc87bb25, 0xbd5ce467}, 0x00000000, CHANNEL_STATE_NOT_STARTED, NULL },
    {  97, { 0x3e141574, 0x3cf2660e, 0x3e43349d, 0x3eb145ab, 0x3cd88be0, 0x3e270cd0, 0x3e881595, 0x3d823c14, 0x3e48f768}, 0x00000000, CHANNEL_STATE_NOT_STARTED, NULL },
    {  98, { 0x3dd4dbfb, 0x3e26525b, 0xbcc21623, 0x3dacfe41, 0xbd0129e6, 0xbdcda9c2, 0x3e83b6fd, 0x3db33604, 0xbd66951e}, 0x00000000, CHANNEL_STATE_NOT_STARTED, NULL },
    {  99, { 0xbe66d70a, 0x3be7b762, 0xbdbad7ce, 0xbe53f735, 0x3c993fce, 0x3d9d828a, 0xbea577de, 0xbc4bb23e, 0x3d96821e}, 0x00000000, CHANNEL_STATE_NOT_STARTED, NULL },
    { 100, { 0x3e581da3, 0xbcbe2b27, 0xbc6e9715, 0x3e346a96, 0x3c200bb1, 0xbdfe6a05, 0x3e2c1b0d, 0x3cefd290, 0xbd609735}, 0x00000000, CHANNEL_STATE_NOT_STARTED, NULL },
    { 101, { 0xbe3c7f45, 0x3e22886f, 0xbd1e1838, 0xbcf5ea14, 0x3c33d27f, 0x3de1482d, 0xbded9af3, 0x3daf598d, 0xbb4dfdf1}, 0x00000000, CHANNEL_STATE_NOT_STARTED, NULL },
    { 102, { 0xbe1c383c, 0xbd2d5ef6, 0xbd623f4f, 0xbdf2c797, 0x3c077dbf, 0xbd05db69, 0xbe0e6664, 0xbdfd78b7, 0x3d68aff6}, 0x00000000, CHANNEL_STATE_NOT_STARTED, NULL },
    { 103, { 0x3cb3b5f0, 0x3d346157, 0xbd9abb80, 0x3d694126, 0x3dbc56ed, 0x3da3afd6, 0xbed837c5, 0xbd4b511d, 0xbc8899e2}, 0x00000000, CHANNEL_STATE_NOT_STARTED, NULL },
    { 104, { 0x3e35119a, 0x3bf83720, 0xbb4dadd7, 0xbe87a91e, 0xbd79e3f7, 0x3e23840c, 0xbde7be86, 0x3bb422b3, 0xbcd58bde}, 0x00000000, CHANNEL_STATE_NOT_STARTED, NULL },
    { 105, { 0xbd9c034c, 0xbdfe7d84, 0xbd807039, 0xbe0775e8, 0xbe39eb04, 0xbdf50d30, 0xbe106fbb, 0xbe3e06f5, 0xbe23069d}, 0x00000000, CHANNEL_STATE_NOT_STARTED, NULL },
    { 106, { 0xbd28b1bd, 0x3c27a1e6, 0x3d3ea325, 0xbcab9f52, 0xbc77ad74, 0xbd795c6d, 0xbd859e42, 0xbda0f5f5, 0x3d72d441}, 0x00000000, CHANNEL_STATE_NOT_STARTED, NULL },
    { 107, { 0xbd4a9f6b, 0x3d5e130b, 0x3dd07c0d, 0xbc3f1781, 0xbd3ece04, 0xbd20de7f, 0xbda72dda, 0x3d5d0271, 0x3cc12f23}, 0x00000000, CHANNEL_STATE_NOT_STARTED, NULL },
    { 108, { 0xbcce1be0, 0x3e36c959, 0xbc8aad39, 0xbde1ef28, 0x3da722b3, 0x3c1421ca, 0xbdb2d4fe, 0x3e0a123f, 0xba8adfe3}, 0x00000000, CHANNEL_STATE_NOT_STARTED, NULL },
    { 109, { 0xbda268e1, 0x3ddfe236, 0xbbe47ccb, 0xbcb48b92, 0x3de2d38f, 0x3d92a1ba, 0xbc92af38, 0x3d964f62, 0x3cc31a6b}, 0x00000000, CHANNEL_STATE_NOT_STARTED, NULL },
    { 110, { 0xbdb62c0f, 0x3c423104, 0xbcd1adcb, 0x3bc7f975, 0x3ddbd4b8, 0xbd3e1f44, 0xbda94790, 0x3d72ce75, 0x3d019a65}, 0x00000000, CHANNEL_STATE_NOT_STARTED, NULL },
    { 111, { 0xbdbba9b6, 0x3d26662c, 0xbe0829bc, 0xbdb5cfe8, 0x3e3c892b, 0xbb9656fc, 0xbe12e8f5, 0xbe518e23, 0xbe3ff802}, 0x3fac3302, CHANNEL_STATE_NOT_STARTED, NULL },
    { 112, { 0x3d05f533, 0x3c1bc5ad, 0x3c85099c, 0x3d056529, 0xbd5693cd, 0xbd6cc9c4, 0x3d225590, 0xbcea897e, 0xbe088835}, 0x00000000, CHANNEL_STATE_NOT_STARTED, NULL },
    { 113, { 0xbd80204d, 0xbc3d2e52, 0x3b9d9fcf, 0x3ca0d454, 0x3d312a5f, 0x3bf442fb, 0xbda70ed1, 0xbcd6d088, 0xbd265bb9}, 0x00000000, CHANNEL_STATE_NOT_STARTED, NULL },
    { 114, { 0xbcfbf2a0, 0x3d5f845e, 0xbae132cc, 0xbe3d6a46, 0xbd5369d4, 0xbddf2edc, 0x3e5638cc, 0x3d12c17f, 0xbbb153b4}, 0x00000000, CHANNEL_STATE_NOT_STARTED, NULL },
    { 115, { 0x3d11bd4a, 0xbd3f8108, 0xbda38cad, 0x3d1950c8, 0x3d497c2b, 0x3c32e3f1, 0xbd163a42, 0xbd82ce4f, 0xbd19dd69}, 0x00000000, CHANNEL_STATE_NOT_STARTED, NULL },
    { 116, { 0xbda851ea, 0xbd6baec8, 0xbd07425f, 0xbda248a4, 0xbd35c69c, 0xbd527ba3, 0x3d199bf7, 0x3b1971e1, 0x3cbac597}, 0x00000000, CHANNEL_STATE_NOT_STARTED, NULL },
    { 117, { 0xbdd6cb5d, 0xbdea6788, 0xbc8f8a0a, 0x3ce9601a, 0x3c9f8b71, 0x3c0e4644, 0x3d79ebfc, 0x3da1f4cd, 0x3d4d11af}, 0x00000000, CHANNEL_STATE_NOT_STARTED, NULL },
    { 118, { 0x3a893b23, 0x3c330158, 0x3d828cd5, 0xbd69c11b, 0x3bc586e8, 0x3d90faee, 0xbd648ffc, 0x3cd4f7d1, 0xbd81ba86}, 0x00000000, CHANNEL_STATE_NOT_STARTED, NULL },
    { 119, { 0x3e07d5fe, 0x3dd855bc, 0xbd09ca1a, 0xba8bda06, 0xbd958006, 0xbd4b8216, 0xbdcabfc5, 0xbb8ade8f, 0x3db687b6}, 0x00000000, CHANNEL_STATE_NOT_STARTED, NULL },
    { 120, { 0x3dac9bc4, 0x3b79cf1a, 0x3cf672fd, 0xbe1f3423, 0xbcfdb615, 0xbe2790c7, 0x3d00b90c, 0x3dd8456b, 0x3dcfeda6}, 0x00000000, CHANNEL_STATE_NOT_STARTED, NULL },
    { 121, { 0x3d85ca03, 0x3d827f3f, 0x3d57671e, 0xbd14c852, 0xbd2a8b70, 0xbd357b97, 0xbd9683cc, 0xbd9e4e0f, 0xbc5eb869}, 0x00000000, CHANNEL_STATE_NOT_STARTED, NULL },
    { 122, { 0xba3a3956, 0x3bb86af1, 0xbd4c4a4f, 0x3c18ee1c, 0xbd2ce51c, 0xbd3ba74e, 0x3cac1268, 0x3d5b1e66, 0x3d1053ee}, 0x00000000, CHANNEL_STATE_NOT_STARTED, NULL },
    { 123, { 0xbdf1e2ba, 0xbd970c65, 0xbd81f720, 0x3d67a9f4, 0xbbc35e49, 0xbce8be4c, 0x3d75a390, 0x3d8a7059, 0xbd304407}, 0x00000000, CHANNEL_STATE_NOT_STARTED, NULL },
    { 124, { 0xbd2aa966, 0x3cf1ded6, 0x3d951d48, 0x3cd89106, 0x3d25e269, 0x3d3263c8, 0x3d3a57b5, 0xbbe4414e, 0xbca41759}, 0x00000000, CHANNEL_STATE_NOT_STARTED, NULL },
    { 125, { 0xbc34c2c9, 0xbd96af27, 0xbd1152cc, 0xbbf6a8b3, 0x3cb5bd7c, 0x3cf63242, 0x3ca4728a, 0x3d829855, 0x3daaccc5}, 0x00000000, CHANNEL_STATE_NOT_STARTED, NULL },
    { 126, { 0xbd415b1a, 0xbcf7624f, 0x3b2835d9, 0xbbc97e85, 0xbcf11b75, 0xbd391f61, 0x3cf7ef86, 0xbc2614a9, 0x3af1c6be}, 0x00000000, CHANNEL_STATE_NOT_STARTED, NULL },
    { 127, { 0x3df2bc06, 0x3de01b76, 0x3d8ec2c1, 0xbe02c9cd, 0xbd56db62, 0xbd09bffc, 0xbd768682, 0xbd4e43f0, 0xbdf8db87}, 0x3f4599b2, CHANNEL_STATE_NOT_STARTED, NULL },
    { 128, { 0x3d26dbfd, 0xbe93dba1, 0x3dadb6cb, 0x3defe35d, 0xbf067a78, 0xbcfb2dc4, 0x3e220c6d, 0xbebcbc05, 0xbce846be}, 0x00000000, CHANNEL_STATE_NOT_STARTED, NULL },
    { 129, { 0xbcee24d1, 0xbc4863da, 0x3d805058, 0x3d94c398, 0xbe16bea7, 0x3dfdfb16, 0xbdb2ae09, 0xbd843c21, 0x3dba7201}, 0x00000000, CHANNEL_STATE_NOT_STARTED, NULL },
    { 130, { 0x3d74f29e, 0x3db1ada9, 0xbd423a84, 0x3d67f62a, 0x3e0233f3, 0xbda3d54a, 0xbe18039a, 0xbcf8639d, 0xbe2aea4a}, 0x00000000, CHANNEL_STATE_NOT_STARTED, NULL },
    { 131, { 0xbdf68a68, 0x3dbe0000, 0xbd971021, 0x3d912b2a, 0x3d0f6b32, 0xbe146cb9, 0x3d2d56b6, 0x3d99abe2, 0xbe201d45}, 0x00000000, CHANNEL_STATE_NOT_STARTED, NULL },
    { 132, { 0x3d687414, 0xbda6158a, 0xbcf56c14, 0x3dffdc77, 0xbda8da4b, 0xbe874707, 0x3e4f93a1, 0x3dfa702a, 0xbe530b9b}, 0x00000000, CHANNEL_STATE_NOT_STARTED, NULL },
    { 133, { 0x3ce5cc4f, 0x3d5f53a4, 0xbe2815c0, 0x3d710dce, 0x3dac69e5, 0x3b124943, 0xbc3c412b, 0x3dd48215, 0xbd93995a}, 0x00000000, CHANNEL_STATE_NOT_STARTED, NULL },
    { 134, { 0x3e8141bd, 0x3d4f30b8, 0x3aec65b4, 0xbd38b633, 0x3d623e2f, 0xbd0000c4, 0x3d88373d, 0x3e1402c6, 0x3a2a9d0e}, 0x00000000, CHANNEL_STATE_NOT_STARTED, NULL },
    { 135, { 0xbe23e392, 0x3d0f5021, 0xbdecdf23, 0xbd3e934d, 0x3da06f1a, 0x3d82e64a, 0x3d65769a, 0x3eb9936f, 0x3e4eed1c}, 0x00000000, CHANNEL_STATE_NOT_STARTED, NULL },
    { 136, { 0xbdb36d28, 0x3d182e8d, 0xbdc3aa37, 0xbe10c4f5, 0x3d2fecf2, 0xbc4141fc, 0xbb101d24, 0xbdec44d5, 0xbce9b66a}, 0x00000000, CHANNEL_STATE_NOT_STARTED, NULL },
    { 137, { 0xbd1fd873, 0xbbf443a6, 0x3d71b5db, 0xbc89617a, 0xbcc526c2, 0xbbace280, 0x3b48c31a, 0x3d141c8f, 0x3d21f462}, 0x00000000, CHANNEL_STATE_NOT_STARTED, NULL },
    { 138, { 0xbd4da9b9, 0x3d4c4122, 0xbd909849, 0x3e599267, 0x3d08e394, 0x3cc6690d, 0xbd693be2, 0x3d70fcc4, 0xbd0874f9}, 0x00000000, CHANNEL_STATE_NOT_STARTED, NULL },
    { 139, { 0xbca141fb, 0xbe02db48, 0xbd965a19, 0x3d787d55, 0x3d1aa374, 0x3c0ad90b, 0xbe2fa422, 0xbd81a596, 0xbda95f7d}, 0x00000000, CHANNEL_STATE_NOT_STARTED, NULL },
    { 140, { 0xbd7fef1e, 0xbe01a2cb, 0xbd6ab197, 0xbd05ec19, 0x3df7ee1e, 0xbdee03b1, 0xbde95c97, 0x3cc5848d, 0xbe47f2ab}, 0x00000000, CHANNEL_STATE_NOT_STARTED, NULL },
    { 141, { 0x3c6d02d7, 0x3ced3fc2, 0xbdebfdef, 0x3ca98c6e, 0x3d2086ab, 0xbd955a2f, 0xbd216795, 0x3c5779de, 0xbdfc93ea}, 0x00000000, CHANNEL_STATE_NOT_STARTED, NULL },
    { 142, { 0xbd3a492d, 0x3b58abb9, 0xbe09ebac, 0x3d18477b, 0xbd64a08d, 0xbe033760, 0xbcd38fee, 0xbd832855, 0xbd55dd92}, 0x00000000, CHANNEL_STATE_NOT_STARTED, NULL },
    { 143, { 0xbe17c419, 0x3ddd7bd4, 0x3c0e44b4, 0xbd7bc214, 0x3cad4f53, 0xbe7f93a8, 0xbd584c22, 0xbd80eced, 0x3dff2f86}, 0x3f49a978, CHANNEL_STATE_NOT_STARTED, NULL },
    { 144, { 0x3c53ffcf, 0x3d8fc124, 0xbe16da90, 0x3e187f13, 0x3b93ff23, 0xbe058ac1, 0x3e0afa2b, 0x3dbb9af2, 0xbd0680f1}, 0x00000000, CHANNEL_STATE_NOT_STARTED, NULL },
    { 145, { 0x3e941d87, 0xbaa5bbd3, 0x3eab212d, 0xbddfdc6d, 0xbe6a1a28, 0xbdf5a171, 0xbea5aa49, 0xbe43c1aa, 0xbddf2222}, 0x00000000, CHANNEL_STATE_NOT_STARTED, NULL },
    { 146, { 0x3e06ace2, 0x3cd1832b, 0x3dc30e51, 0xbc6d30b9, 0x3d673fdc, 0x3e801e2e, 0x3d3c0c4d, 0x3dcb849e, 0xbc80a772}, 0x00000000, CHANNEL_STATE_NOT_STARTED, NULL },
    { 147, { 0x3c606d89, 0x3e938ddd, 0x3e186ea5, 0xbd73e08b, 0x3defe31f, 0x3deaced0, 0xbd6a02db, 0x3d61eb0c, 0x3e755584}, 0x00000000, CHANNEL_STATE_NOT_STARTED, NULL },
    { 148, { 0xbc3a152c, 0x3da8b66a, 0xbd22e5bf, 0xbdaccfb1, 0xbdcfd8ad, 0xbe2b6dcc, 0xbcda2c75, 0x3de6d537, 0x3e073f5b}, 0x00000000, CHANNEL_STATE_NOT_STARTED, NULL },
    { 149, { 0xbe164c17, 0x3e49f6da, 0x3dbcc5b9, 0xbd825eac, 0xbde2c658, 0x3e840210, 0xbc05ede8, 0x3cc6206b, 0x3d82603d}, 0x00000000, CHANNEL_STATE_NOT_STARTED, NULL },
    { 150, { 0x3e0d9178, 0xbdde0fb0, 0xbc849de8, 0x3e2db364, 0x3d8aee7d, 0xbd025858, 0x3d87ca8e, 0x3d31d76b, 0xbd9b28ef}, 0x00000000, CHANNEL_STATE_NOT_STARTED, NULL },
    { 151, { 0xbd0a25d6, 0xbd637ade, 0xbd4afce7, 0x3d9e13b3, 0xbdbcec6d, 0xbe47b04e, 0xbd8a57a6, 0x3e3e8859, 0x3e162cb7}, 0x00000000, CHANNEL_STATE_NOT_STARTED, NULL },
    { 152, { 0x3e4d11c6, 0x3e2c6ad2, 0x3e3c90f4, 0x3de6e347, 0xbcd8021c, 0xbcaed319, 0x3de4b8b9, 0x3e7c2407, 0x3e79cb90}, 0x00000000, CHANNEL_STATE_NOT_STARTED, NULL },
    { 153, { 0x3ce4aab9, 0xbda522a7, 0xbe284ac6, 0xbdcba83a, 0xbd61d61c, 0xbde9d504, 0x3b7d5abb, 0xbddf2808, 0xbe01457f}, 0x00000000, CHANNEL_STATE_NOT_STARTED, NULL },
    { 154, { 0x3d962965, 0x3de021ee, 0x3e619556, 0x3d588adc, 0xbcc31747, 0x3e4a0032, 0x3d9315fb, 0x3dce2e2c, 0x3e9d0590}, 0x00000000, CHANNEL_STATE_NOT_STARTED, NULL },
    { 155, { 0xbdd7ccf7, 0x3dac62ec, 0x3d43e122, 0xbdd59dc7, 0xbe3725f8, 0x3d546db9, 0xbc14178a, 0x3daacd70, 0xbdc48125}, 0x00000000, CHANNEL_STATE_NOT_STARTED, NULL },
    { 156, { 0x3e08781e, 0x3e1ea063, 0x3d632310, 0xbda38e3d, 0x3dd623fc, 0xbda368de, 0xbd112bf6, 0x3e1d18bd, 0x3e68e67a}, 0x00000000, CHANNEL_STATE_NOT_STARTED, NULL },
    { 157, { 0xbd06380e, 0x3d13b3d0, 0x3a2fb20d, 0xbcbc1cf5, 0x3d1fd492, 0xbc11a8b5, 0x3ddd4571, 0x3e3e51af, 0x3db05e9b}, 0x00000000, CHANNEL_STATE_NOT_STARTED, NULL },
    { 158, { 0x3cb65e95, 0xbd94a859, 0x3cb623f7, 0xbd8c9def, 0x3d24f3db, 0xbcb449a0, 0x3d841cfe, 0x3d91e466, 0x3c09868a}, 0x00000000, CHANNEL_STATE_NOT_STARTED, NULL },
    { 159, { 0xbd55be46, 0xbd2b2cf2, 0xbae32989, 0xbdca69b5, 0x3e443b55, 0x3d374b77, 0xbe20b7f9, 0xbbd542e1, 0xbe2ca44e}, 0x3e9ff2a6, CHANNEL_STATE_NOT_STARTED, NULL },
    { 160, { 0x3cd0ed59, 0x3dae8aa1, 0x3c3a7469, 0x3cab05bf, 0xbd6b0119, 0xbb9866e4, 0x3c5f960f, 0xbd5f66f6, 0xbe96435e}, 0x00000000, CHANNEL_STATE_NOT_STARTED, NULL },
    { 161, { 0xbde6e3af, 0x3da7b58f, 0xbe09f735, 0xbd5dc8de, 0xbdc18013, 0xbde60348, 0xbe00b751, 0xbd9eaf0e, 0xbddada8e}, 0x00000000, CHANNEL_STATE_NOT_STARTED, NULL },
    { 162, { 0xbce711d5, 0x3d56f29b, 0xbd9dc6cc, 0xbc238b6f, 0x3c8aa6be, 0x3d2c8a6e, 0x3eadc3dc, 0xbbab8c68, 0xbcc4949e}, 0x00000000, CHANNEL_STATE_NOT_STARTED, NULL },
    { 163, { 0x3ea5cf39, 0x3d89733c, 0x3e297afa, 0xbd451e88, 0xbddfae11, 0xbc051b05, 0xbe56cebb, 0xbd8bc04d, 0xbe0fef5f}, 0x00000000, CHANNEL_STATE_NOT_STARTED, NULL },
    { 164, { 0x3e653924, 0x3ca8c26a, 0x3e1db3ea, 0x3ddc8d85, 0x3d90a162, 0x3df36c5d, 0x3ed73851, 0x3da7456b, 0x3e3853e6}, 0x00000000, CHANNEL_STATE_NOT_STARTED, NULL },
    { 165, { 0x3e28b685, 0xbd565d24, 0x3c45c545, 0x3d81f913, 0xbd903548, 0xbd17b9ca, 0xbcb94b20, 0xbe7b0d22, 0xbe12d182}, 0x00000000, CHANNEL_STATE_NOT_STARTED, NULL },
    { 166, { 0xbded26d1, 0x3d491c01, 0x3d9890e2, 0xbe093f5a, 0xbe2b15ea, 0xbdf9c1a5, 0x3e1644d1, 0x3e20d9b4, 0x3e12dda7}, 0x00000000, CHANNEL_STATE_NOT_STARTED, NULL },
    { 167, { 0x3caa7b22, 0x3cc10aad, 0xbe155b7a, 0xbdc06d31, 0x3dae79fa, 0xbd1143a0, 0x3e05fb65, 0x3e844bd3, 0x3e2c664b}, 0x00000000, CHANNEL_STATE_NOT_STARTED, NULL },
    { 168, { 0x3e0558c2, 0x3df5d762, 0x3e4955e0, 0xbd9a92c4, 0xbe8fe9af, 0xbe7bf6d3, 0x3f3beedd, 0xbc3abb59, 0x3e890eb5}, 0x00000000, CHANNEL_STATE_NOT_STARTED, NULL },
    { 169, { 0x3dc198dc, 0x3d7abcb7, 0x3dc275b7, 0xbe2c2723, 0xbdd1c0ef, 0xbe588353, 0x3b4f443f, 0xbdacb022, 0xbde5b5af}, 0x00000000, CHANNEL_STATE_NOT_STARTED, NULL },
    { 170, { 0x3d1b09b0, 0x3e1d8e4f, 0x3e3d5637, 0xbddb5662, 0xbda2a4d2, 0x3d53f70c, 0xbe9b9a7c, 0xbd6db617, 0x3cdf71c4}, 0x00000000, CHANNEL_STATE_NOT_STARTED, NULL },
    { 171, { 0x3dac9c58, 0x3da78ac0, 0x3e640ddd, 0x3b5cd45c, 0x3e12623c, 0xbd889359, 0x3e2caa88, 0xbbff536e, 0x3e05da68}, 0x00000000, CHANNEL_STATE_NOT_STARTED, NULL },
    { 172, { 0xbdb7b8db, 0xbcce810b, 0x3db583c4, 0xbdc09c27, 0xbddde727, 0xbdbae9f5, 0x3e16ba69, 0x3dc9e7f5, 0xbe081c49}, 0x00000000, CHANNEL_STATE_NOT_STARTED, NULL },
    { 173, { 0x3dcff2fe, 0xbb9e8f18, 0xbdb7043e, 0xbe01214c, 0xbd41cdd9, 0xbd928e07, 0xbd1e687d, 0xbe74cc00, 0xbd82d6de}, 0x00000000, CHANNEL_STATE_NOT_STARTED, NULL },
    { 174, { 0x3e0b9713, 0x3bc40e64, 0x3b1db60f, 0xbd5e9f24, 0xbe0b475c, 0xbd601744, 0x3df4660b, 0xbd1512a2, 0xbc91a7d3}, 0x00000000, CHANNEL_STATE_NOT_STARTED, NULL },
    { 175, { 0x3d9586e0, 0xbb549c04, 0xbe8475c3, 0x3e4bc27c, 0xbda73074, 0xbce23951, 0xbc97545b, 0xbe0fc1c1, 0xbe801384}, 0xbec22ddb, CHANNEL_STATE_NOT_STARTED, NULL },
    { 176, { 0xbd8dd031, 0xbd1b4b71, 0xbd050da6, 0xbe413f1c, 0xbddfff20, 0xbe0d4bd8, 0xbe3d17e3, 0xbbe7a3aa, 0xbe740b72}, 0x00000000, CHANNEL_STATE_NOT_STARTED, NULL },
    { 177, { 0x3d428d4a, 0x3ea5c4e0, 0xbd0792cf, 0xbcacf583, 0x3e90050f, 0xbd076183, 0xbda3c89f, 0x3e085edb, 0xbd4c3f0d}, 0x00000000, CHANNEL_STATE_NOT_STARTED, NULL },
    { 178, { 0x3dab7e02, 0x3b7d62ce, 0xbe44cd16, 0x3d9731da, 0x3d3ab524, 0x3d65146b, 0xbe918307, 0x3dff31ff, 0x3d5801b7}, 0x00000000, CHANNEL_STATE_NOT_STARTED, NULL },
    { 179, { 0xbd1fa540, 0x3e482186, 0x3e180b7a, 0xbddb1e19, 0x3e2ca279, 0x3e719d4d, 0xbda0eb46, 0xbb57a5cd, 0x3e3bbea3}, 0x00000000, CHANNEL_STATE_NOT_STARTED, NULL },
    { 180, { 0xbe23f20f, 0xbe21eebd, 0xbe62665b, 0xbd604680, 0xbe1f1a9b, 0xbe8694a6, 0xbc55466f, 0xbda3e0ae, 0xbe01f4a7}, 0x00000000, CHANNEL_STATE_NOT_STARTED, NULL },
    { 181, { 0xbe33d592, 0x3e29ab94, 0x3dfd1cbe, 0xbe80d62f, 0x3d49f615, 0x3e033ce9, 0xbe8fcd41, 0xbd33a0fe, 0x3dee89cf}, 0x00000000, CHANNEL_STATE_NOT_STARTED, NULL },
    { 182, { 0xbe5651a3, 0x3da50b98, 0x3e0a9e0b, 0x3dde91f0, 0xbda63bca, 0x3e12464d, 0x3e75e1ec, 0x3a9714d9, 0xbdc01ddd}, 0x00000000, CHANNEL_STATE_NOT_STARTED, NULL },
    { 183, { 0x3cdb5a1b, 0xbdacaec3, 0xbdaf85ed, 0x3e8dd25d, 0xbd651441, 0xbdf1505e, 0x3e1f33fd, 0x3e05e96a, 0x3e047a38}, 0x00000000, CHANNEL_STATE_NOT_STARTED, NULL },
    { 184, { 0xbe08ecd0, 0x3e1a7c1e, 0x3e3d7814, 0xbe3e343a, 0x3caca692, 0xbd043639, 0xbe227d32, 0x3e79146c, 0x3e91d758}, 0x00000000, CHANNEL_STATE_NOT_STARTED, NULL },
    { 185, { 0xbd30f4b3, 0xbdc1ff23, 0xbd9987c4, 0xbd27e562, 0xbda3a981, 0xbd4762b7, 0xbd32adcf, 0xbda058bd, 0xbe05404f}, 0x00000000, CHANNEL_STATE_NOT_STARTED, NULL },
    { 186, { 0xbdd3dc2d, 0x3db29f0f, 0x3e380a87, 0x3bc84286, 0x3ddc8526, 0x3e44df62, 0xbde6957c, 0x3dc66a05, 0x3e56da25}, 0x00000000, CHANNEL_STATE_NOT_STARTED, NULL },
    { 187, { 0xbdb42d98, 0x3dd0c9ce, 0x3d87d224, 0xbd96067c, 0xbc92c837, 0x3dd92596, 0xbdcca0c1, 0xbd4d3e2e, 0xbd8c1af7}, 0x00000000, CHANNEL_STATE_NOT_STARTED, NULL },
    { 188, { 0xbe06a5aa, 0x3dd974cf, 0x3de5f6ff, 0xbdb1686c, 0x3d08f1a6, 0xbbb44012, 0xbdafa1f0, 0x3d81c70a, 0xbda25c28}, 0x00000000, CHANNEL_STATE_NOT_STARTED, NULL },
    { 189, { 0xbc237784, 0x3de02c88, 0x3e00a358, 0x3c35deb6, 0x3e31c971, 0x3dfcc2e4, 0x3cb2ccf7, 0x3e16b4ae, 0x3e036b89}, 0x00000000, CHANNEL_STATE_NOT_STARTED, NULL },
    { 190, { 0xba89de26, 0x3d864ee3, 0x3d95f4f5, 0xbdb95bc2, 0x3d4f0052, 0x3deff720, 0xbe0a9e4d, 0x3ce569fc, 0x3d06c6db}, 0x00000000, CHANNEL_STATE_NOT_STARTED, NULL },
    { 191, { 0x3d46eb40, 0xbe8b3d88, 0xbe5d0473, 0xbcb898fb, 0xbed0a628, 0xbe1d8b17, 0x3ea0c997, 0xbdcbc9b9, 0xbb487486}, 0xbe97037e, CHANNEL_STATE_NOT_STARTED, NULL },
    { 192, { 0xbd7edb91, 0xbe1d258f, 0xbe767765, 0xbc833906, 0xbe1da7a2, 0x3ce6bfa1, 0xbbe3f1b0, 0xbdddf326, 0xbd6be815}, 0x00000000, CHANNEL_STATE_NOT_STARTED, NULL },
    { 193, { 0xbe4e1b13, 0xbd95abe5, 0xbdd1e7ee, 0x3e08d75c, 0x3d8d789a, 0xbdc8f419, 0xbb8284b1, 0x3d58bc37, 0xbe2b4890}, 0x00000000, CHANNEL_STATE_NOT_STARTED, NULL },
    { 194, { 0x3e389bc4, 0xbd1b0661, 0x3ceca221, 0x3d680961, 0x3d4fdf83, 0xbe4658b3, 0xbe30d4b7, 0x3dfe8bec, 0x3e2151b5}, 0x00000000, CHANNEL_STATE_NOT_STARTED, NULL },
    { 195, { 0xbe21af60, 0xbddb90ad, 0xbd8c4698, 0xbe1aa4df, 0xbde7d83a, 0xbe591ecc, 0xbe881779, 0xbe1898ac, 0xbe56e8c1}, 0x00000000, CHANNEL_STATE_NOT_STARTED, NULL },
    { 196, { 0xbdb16c9f, 0xbe74669c, 0xbe7ff1ad, 0xbe298bbb, 0x3cee2de2, 0xbd218d58, 0xbe56bb96, 0x3b2da3e4, 0x3e37c43f}, 0x00000000, CHANNEL_STATE_NOT_STARTED, NULL },
    { 197, { 0xbe65ca86, 0xbdcb0eb4, 0xbdaa92bf, 0x3cc20280, 0x3e35f8f3, 0xbd76c191, 0x3e1e8806, 0x3dd4d141, 0xbe8420e1}, 0x00000000, CHANNEL_STATE_NOT_STARTED, NULL },
    { 198, { 0xbd3e0e16, 0x3d38245c, 0x3e695012, 0xbe3e9105, 0xbdd77e34, 0xbe33cd60, 0x3db974e5, 0x3dd21f69, 0xbe8c0970}, 0x00000000, CHANNEL_STATE_NOT_STARTED, NULL },
    { 199, { 0x3d63a5df, 0x3e8f34ef, 0x3e0fae67, 0xbc31b9a9, 0x3d655a62, 0x3e3fd995, 0xbc77630b, 0xbda4faf2, 0xbcc6eb54}, 0x00000000, CHANNEL_STATE_NOT_STARTED, NULL },
    { 200, { 0x3e83c040, 0x3e9e56e1, 0x3d140d4f, 0xbe50027e, 0xbcec9a56, 0xbe5a258b, 0x3dd633f0, 0x3dec1143, 0x3d2dc7ac}, 0x00000000, CHANNEL_STATE_NOT_STARTED, NULL },
    { 201, { 0x3d4a2144, 0x3d2defd4, 0x3d33d96c, 0x3d7a168e, 0xbabcb42b, 0xbc4a2d05, 0x3cda53a7, 0xbad5d970, 0xbc61e2bf}, 0x00000000, CHANNEL_STATE_NOT_STARTED, NULL },
    { 202, { 0x3dfc5721, 0x3bdfce82, 0xbe66b4e1, 0x3c20ec74, 0x3cf93b28, 0xbce0d65e, 0x3d5670d9, 0x3d848421, 0xbd836a0b}, 0x00000000, CHANNEL_STATE_NOT_STARTED, NULL },
    { 203, { 0xbd9deeba, 0xbe566e36, 0xbed0191d, 0xbe0290df, 0xbde8ed65, 0xbe8d64ba, 0xbc13bf46, 0xbd6120e5, 0xbe1ab584}, 0x00000000, CHANNEL_STATE_NOT_STARTED, NULL },
    { 204, { 0xbc8af9bc, 0xbc2ff390, 0xbb325898, 0xbd886794, 0xbda81dc8, 0xbcf790b7, 0x3df1a9bb, 0x3d9a6e3f, 0xbd39f8f7}, 0x00000000, CHANNEL_STATE_NOT_STARTED, NULL },
    { 205, { 0xbd1eb9ad, 0xbd6c664b, 0xbe43bca2, 0xbcbe83f6, 0xbc06a82b, 0xbe093190, 0xbde22f28, 0xbdc2d695, 0xbd1767f0}, 0x00000000, CHANNEL_STATE_NOT_STARTED, NULL },
    { 206, { 0xbe358f43, 0xbe5c889c, 0xbe313bd3, 0xbe14afed, 0xbbafb059, 0xbd3bf7f4, 0xbdc23126, 0xbd9cec7c, 0xbdf6a5d2}, 0x00000000, CHANNEL_STATE_NOT_STARTED, NULL },
    { 207, { 0xbd646c1c, 0xbd1b4c2b, 0x3e1ed35f, 0x3d7c669b, 0xbd5e8952, 0xbddd9d6e, 0x3de65fdb, 0x3c423926, 0xbe7be49c}, 0x3fee837c, CHANNEL_STATE_NOT_STARTED, NULL },
    { 208, { 0x3cf355f3, 0xbdd3fe40, 0xbe5aa58e, 0x3d5b970e, 0xbd5e55f3, 0xbe814563, 0x3d9b73b6, 0xbdf02c74, 0xbe99ce56}, 0x00000000, CHANNEL_STATE_NOT_STARTED, NULL },
    { 209, { 0xbd803ed1, 0xbdeba830, 0x3c2fc88b, 0xbd95e858, 0xbdfa2a6f, 0xbccc926f, 0xbe0bf50a, 0xbddffa22, 0xbd1a612f}, 0x00000000, CHANNEL_STATE_NOT_STARTED, NULL },
    { 210, { 0x3d080de6, 0xbcb088d8, 0x3c05ccd7, 0x3d3f0c2e, 0xbd29c84e, 0x3d5edbbe, 0x3d9b3a3f, 0xbc943f6d, 0xbe031465}, 0x00000000, CHANNEL_STATE_NOT_STARTED, NULL },
    { 211, { 0xbc1763e0, 0x3ddaf5cc, 0xbe31cbc0, 0x3bbd6bdc, 0x3dd6cbc6, 0xbc0aedef, 0xbc98005d, 0x3d227d92, 0x3d5ef99f}, 0x00000000, CHANNEL_STATE_NOT_STARTED, NULL },
    { 212, { 0x3d0e68c6, 0xbdedbf66, 0xbe8fb210, 0xbc77be7f, 0x3c9514ba, 0xbe91e260, 0xbd1837a0, 0x3d2917c2, 0xbe9afa75}, 0x00000000, CHANNEL_STATE_NOT_STARTED, NULL },
    { 213, { 0x3d377f9f, 0x3c8c9ddc, 0x3d56df57, 0x3d157530, 0x3cd41d35, 0x3d54ddf7, 0xbd176e9b, 0x3c299f54, 0x3db9b70c}, 0x00000000, CHANNEL_STATE_NOT_STARTED, NULL },
    { 214, { 0x3cfcf393, 0x3dceb19f, 0x3d683162, 0xbcb1e43a, 0x3cae0a66, 0x3db3a4d2, 0xbca5c7de, 0x3e0dff29, 0x3c7faabb}, 0x00000000, CHANNEL_STATE_NOT_STARTED, NULL },
    { 215, { 0x3c28b1bd, 0xbd263665, 0x3d889f08, 0xbd2d6db5, 0xbdae402e, 0x3e1b9ad2, 0x3c864eb1, 0x3d6ebecb, 0x3e9daaab}, 0x00000000, CHANNEL_STATE_NOT_STARTED, NULL },
    { 216, { 0xbd14a89c, 0xba4a4667, 0xbe47bb53, 0x3d04da0c, 0x3e28e33c, 0x3d908b5c, 0x3d1c5504, 0x3df1f8a9, 0xbe85c36f}, 0x00000000, CHANNEL_STATE_NOT_STARTED, NULL },
    { 217, { 0xbd326d13, 0xbda427f9, 0xbd6619ed, 0xbda8e9d9, 0xbd17d0cf, 0xbd91b211, 0xbd9808c6, 0xbd94b9d7, 0xbc97c86f}, 0x00000000, CHANNEL_STATE_NOT_STARTED, NULL },
    { 218, { 0x3db08ba2, 0x3c63e4f8, 0x3dbae347, 0x3d0c3c9f, 0x3b222907, 0xbd349f30, 0x3de05efa, 0xbc7d188e, 0x3dd708a3}, 0x00000000, CHANNEL_STATE_NOT_STARTED, NULL },
    { 219, { 0xbc70e769, 0xbd607ec5, 0xbd82c447, 0x3cef7e1a, 0x3c90bd18, 0xbd4710e9, 0x3d8c69a6, 0xbd05e775, 0xbdebcef7}, 0x00000000, CHANNEL_STATE_NOT_STARTED, NULL },
    { 220, { 0x3d469622, 0x3d783cb9, 0xbe1ee0f3, 0xbcb105b2, 0xbd34a73f, 0xbc87df85, 0xbd63c949, 0xbcb3991f, 0x3cca4f47}, 0x00000000, CHANNEL_STATE_NOT_STARTED, NULL },
    { 221, { 0x3d19ac93, 0x3d855cac, 0xbc27495b, 0x3ba460c1, 0x3d8a6fa6, 0xbd855113, 0x3d96db84, 0x3caf7430, 0xbdd753fd}, 0x00000000, CHANNEL_STATE_NOT_STARTED, NULL },
    { 222, { 0xbb15a8bc, 0x3c325ebf, 0xbde31fa8, 0x3cf43e07, 0x3d84a470, 0xbe4384a1, 0xbc76024e, 0x3cfceb60, 0xbe3b5a4f}, 0x00000000, CHANNEL_STATE_NOT_STARTED, NULL },
    { 223, { 0xbc1f9247, 0xbe20dbec, 0x3e2cc1cc, 0xbb3b99b8, 0xbd883497, 0x3e257cf6, 0xbd0dc97d, 0xbe300fa9, 0x3e6476ad}, 0x3f509d19, CHANNEL_STATE_NOT_STARTED, NULL },
    { 224, { 0x3e05eeaf, 0xbbdb304f, 0x3d8037cb, 0xbd1b2ab3, 0x3c1d83bc, 0xbd07bb2d, 0xbe050ae6, 0xbdd05d90, 0x3cb93139}, 0x00000000, CHANNEL_STATE_NOT_STARTED, NULL },
    { 225, { 0xbe18c595, 0xbdc8b95e, 0xbe84e633, 0xbd43d557, 0xbde803a3, 0xbcee150e, 0x3e72d69f, 0x3d26aa03, 0xbd57c414}, 0x00000000, CHANNEL_STATE_NOT_STARTED, NULL },
    { 226, { 0x3d127a94, 0xbdc37af2, 0xbd99d3b0, 0x3ceaad43, 0xbdad33d2, 0xbdd3ccd2, 0x3e0fd405, 0xbd0ccd0f, 0xbca17f8c}, 0x00000000, CHANNEL_STATE_NOT_STARTED, NULL },
    { 227, { 0xbdfc67d0, 0xbdf19b29, 0xbe3f2033, 0x3d8fa315, 0x3c0bafd2, 0x3db07063, 0xbd81c1bf, 0x3d64dac2, 0xbe84f51b}, 0x00000000, CHANNEL_STATE_NOT_STARTED, NULL },
    { 228, { 0xbe50ae05, 0xbd9792d3, 0xbe84af57, 0xbde24a4e, 0x3d9636f8, 0xbd9ed6f2, 0xbe541b7e, 0xbd3353a7, 0xbd2c7cc8}, 0x00000000, CHANNEL_STATE_NOT_STARTED, NULL },
    { 229, { 0xbdf8e704, 0xbd17d46b, 0xbe0a4cf3, 0xbb7a003b, 0x3e62a94c, 0x3e63b241, 0xbc2c2449, 0x3dae5b75, 0xbdecd6ee}, 0x00000000, CHANNEL_STATE_NOT_STARTED, NULL },
    { 230, { 0xbe85579f, 0x3e2020ac, 0xbe1fd5be, 0xbdcc7a82, 0xbdfbc8aa, 0xbe507ca7, 0x3c8dbb5d, 0xbb2a4c5b, 0xbdb8be72}, 0x00000000, CHANNEL_STATE_NOT_STARTED, NULL },
    { 231, { 0x3e2066e2, 0x3cc1719c, 0x3c2aac96, 0xbe4518d2, 0xbe01b64b, 0x3d4aa304, 0xbe0f4992, 0xbde2d565, 0xbdd87755}, 0x00000000, CHANNEL_STATE_NOT_STARTED, NULL },
    { 232, { 0xbdb8f1fc, 0x3e40f340, 0x3b65e774, 0xbdfcc159, 0x3d5ccb53, 0xbe12978e, 0xbc77575a, 0x3e24d1e5, 0xbdbb6eb3}, 0x00000000, CHANNEL_STATE_NOT_STARTED, NULL },
    { 233, { 0xbd011695, 0x3d5b8b63, 0x3da16834, 0x3d723e6f, 0x3d513ded, 0x3e396c5a, 0x3dc7635d, 0x3e1c91db, 0x3d7f6376}, 0x00000000, CHANNEL_STATE_NOT_STARTED, NULL },
    { 234, { 0xbe11c7b6, 0xbe8990f0, 0xbd866b8e, 0xbe17900d, 0xbc9a3b7d, 0x3e27a7cf, 0xbe2a4411, 0xbda4fd38, 0x3d444059}, 0x00000000, CHANNEL_STATE_NOT_STARTED, NULL },
    { 235, { 0x3d49243b, 0xbd1a8562, 0x3cf601e0, 0x3deb45ca, 0x3c95144c, 0x3d6372f9, 0x3d8b55da, 0x3c42c10e, 0x3b80a9fa}, 0x00000000, CHANNEL_STATE_NOT_STARTED, NULL },
    { 236, { 0x3df2baf2, 0x3d10c7c8, 0x3e02edfc, 0xbaf8cb73, 0x3c7dae04, 0x3e11b928, 0xbd4684c6, 0xbdb8cf77, 0x3d83ee78}, 0x00000000, CHANNEL_STATE_NOT_STARTED, NULL },
    { 237, { 0x3aebd31d, 0x3c5136b1, 0x3d94108b, 0xbba435aa, 0x3d62d05d, 0x3cc4a4d4, 0xbe4cf48c, 0xbc974d5b, 0x39a155eb}, 0x00000000, CHANNEL_STATE_NOT_STARTED, NULL },
    { 238, { 0x3e12e736, 0xbce3ebf8, 0xbdb4ff4c, 0x3d47a3a4, 0xbe0a9291, 0xbd9522ba, 0x3da4feed, 0x3d7f5b6d, 0x3d322b7f}, 0x00000000, CHANNEL_STATE_NOT_STARTED, NULL },
    { 239, { 0xbeb06851, 0xbd43a834, 0xbe8b5b52, 0x3d6cfed5, 0x3e077824, 0xbe8ba92d, 0x3d8dde32, 0x3df55b66, 0xbe371952}, 0x3fc00089, CHANNEL_STATE_NOT_STARTED, NULL },
    { 240, { 0xbd8de2b9, 0x3d3f35d1, 0x3d53d867, 0xbdcb3aa1, 0xbc8c9a65, 0x3db35d8d, 0x3dd8e3e3, 0x3e14f0eb, 0x3e254975}, 0x00000000, CHANNEL_STATE_NOT_STARTED, NULL },
    { 241, { 0xbe41a4d6, 0xbd9a647e, 0x3df80604, 0x3f01a425, 0x3ea623f0, 0x3d95c6ef, 0x3e95d7ef, 0xbd86535b, 0xbc524ede}, 0x00000000, CHANNEL_STATE_NOT_STARTED, NULL },
    { 242, { 0x3e41990d, 0xbd6bb5cd, 0x3eb529dc, 0x3ea5e148, 0x3db98f22, 0xbd9fb25d, 0xbe6afe90, 0xbe95ad7a, 0xbe9e4c31}, 0x00000000, CHANNEL_STATE_NOT_STARTED, NULL },
    { 243, { 0xbd168a32, 0xbe01f39e, 0xbe5f2323, 0x3b606b84, 0xbc8e725e, 0xbcd6584d, 0xbc5b09b8, 0x3c84fd3b, 0xbdd75bed}, 0x00000000, CHANNEL_STATE_NOT_STARTED, NULL },
    { 244, { 0x3e6ab455, 0x3dd1d7f3, 0x3ea6eb6f, 0xbce7fa85, 0x3e655d0d, 0x3e84e2d8, 0xba531723, 0x3e4d896c, 0x3e6ceaca}, 0x00000000, CHANNEL_STATE_NOT_STARTED, NULL },
    { 245, { 0x3e1eec10, 0xbd98bbdc, 0xbe2978c5, 0x3c603ad0, 0x3d9735e1, 0xbc2bb3ee, 0x3d36431b, 0x3e46f6d0, 0xbe842207}, 0x00000000, CHANNEL_STATE_NOT_STARTED, NULL },
    { 246, { 0xbe46b5dd, 0x3c99924c, 0xbe94274d, 0xbe2342fb, 0x3e863b6e, 0xbe9578e4, 0xbe7c9e8b, 0xbcc0bc55, 0x3dd7d323}, 0x00000000, CHANNEL_STATE_NOT_STARTED, NULL },
    { 247, { 0xbea35e56, 0xbcd4ff0c, 0x3de42bff, 0x3e9dcedd, 0x3e84d6de, 0x3e9c6801, 0xbc9d82b8, 0xbe206a3f, 0xbe66b81f}, 0x00000000, CHANNEL_STATE_NOT_STARTED, NULL },
    { 248, { 0xbd011558, 0x3e346785, 0xbdfbdcc1, 0x3dacbd28, 0x3e2173d5, 0xbd8620d1, 0xbc496e46, 0xbd3fd826, 0xbe99804d}, 0x00000000, CHANNEL_STATE_NOT_STARTED, NULL },
    { 249, { 0x3cc785b8, 0x3cac2456, 0xbb50d347, 0xbdc46804, 0xbde91b36, 0xbb5eb1f4, 0x3d0ec40c, 0xbd377869, 0xbaabefdc}, 0x00000000, CHANNEL_STATE_NOT_STARTED, NULL },
    { 250, { 0x3d02c22d, 0xbd14a10b, 0xbd053168, 0xbdf5663a, 0x3e39f11e, 0x3dd5318f, 0x3d46c590, 0x3d2bc9e9, 0x3dd946b3}, 0x00000000, CHANNEL_STATE_NOT_STARTED, NULL },
    { 251, { 0x3d8e3154, 0x3e165059, 0xbcd04a9b, 0x3e5a109c, 0x3e59d36d, 0x3d7ac997, 0x3e526484, 0xbced7632, 0x3db47821}, 0x00000000, CHANNEL_STATE_NOT_STARTED, NULL },
    { 252, { 0x3d2f5fa2, 0xbe2b6412, 0xbda33119, 0xbd163f09, 0xbd122423, 0x3d93df7b, 0x3a8950fc, 0x3d70b5c8, 0x3e3d48dc}, 0x00000000, CHANNEL_STATE_NOT_STARTED, NULL },
    { 253, { 0xbde643ef, 0xbdadc465, 0xbda00391, 0xbaf6c6b3, 0xbdf67464, 0xbdb57042, 0xbe121127, 0x3c08b683, 0xbd47e865}, 0x00000000, CHANNEL_STATE_NOT_STARTED, NULL },
    { 254, { 0xbd8ff52d, 0xbe13c885, 0xbc3fc3e1, 0x3c6a1a2b, 0xbdbdfcb2, 0x3d42d524, 0x3cc0588f, 0x3da36ad2, 0x3de6a885}, 0x00000000, CHANNEL_STATE_NOT_STARTED, NULL },
    { 255, { 0xbe47571e, 0x3d639b37, 0xbe189aae, 0x3e2fb14b, 0x3dc94103, 0xbde04376, 0xbe0d46f5, 0xbd834302, 0xbe5cf455}, 0xbfc1fb46, CHANNEL_STATE_NOT_STARTED, NULL },
    { 256, { 0x3d0042d4, 0x3db3fb43, 0x3ce70ae2, 0x3da4d7ab, 0x3d2487c3, 0x3e28ffc8, 0xbd03e1a6, 0x3d45b2db, 0x3dfe54bc}, 0x00000000, CHANNEL_STATE_NOT_STARTED, NULL },
    { 257, { 0x3d8319d7, 0x3a41c6bf, 0xbd871d3e, 0x3dc09b97, 0x3c16c582, 0x3d76dc8d, 0x3e15a6d2, 0x3d7bc373, 0x3e5bde81}, 0x00000000, CHANNEL_STATE_NOT_STARTED, NULL },
    { 258, { 0xbe106be1, 0xbe11276b, 0x3e22cd41, 0xbd910c1f, 0xbe81c36f, 0xbe18a16c, 0x3c110a08, 0xbd06dc62, 0x3e9a20c6}, 0x00000000, CHANNEL_STATE_NOT_STARTED, NULL },
    { 259, { 0xbdb15443, 0xbdb467b0, 0x3daf1c0b, 0x3d9de5fb, 0xbc5ce75e, 0xbe641341, 0xbdbeb626, 0x3c9ca339, 0xbe90a769}, 0x00000000, CHANNEL_STATE_NOT_STARTED, NULL },
    { 260, { 0x3e81d03b, 0x3ea255ee, 0x3efd7d1e, 0x3e69f7f0, 0x3eb723fb, 0x3e8d17ef, 0xbd01e07d, 0x3d2324ac, 0x3e18382f}, 0x00000000, CHANNEL_STATE_NOT_STARTED, NULL },
    { 261, { 0x3e09acb5, 0xbd0c7470, 0xbd518376, 0x3dc6148f, 0x3e8161a6, 0xbe06d7ce, 0xbdd2704e, 0x3da9dc39, 0x3cdafcc6}, 0x00000000, CHANNEL_STATE_NOT_STARTED, NULL },
    { 262, { 0xbd264779, 0xbe547e38, 0xbe3cfe6b, 0x3e4a4d0e, 0xbe389296, 0xbe834a87, 0x3e0b71e9, 0x3deb0d47, 0xbe36361e}, 0x00000000, CHANNEL_STATE_NOT_STARTED, NULL },
    { 263, { 0xbb9f4b09, 0xbb485132, 0xbd9f0fc8, 0x3c4176d8, 0xbd1b8818, 0xbd141b09, 0xbddc6a05, 0x3da1e57b, 0x3d2848e4}, 0x00000000, CHANNEL_STATE_NOT_STARTED, NULL },
    { 264, { 0x3e85363c, 0x3e244226, 0x3ee2d9cb, 0xbdc33928, 0xbe88ff46, 0xbe91320f, 0x3d2d6fd8, 0x3df8f7f2, 0x3f042cf9}, 0x00000000, CHANNEL_STATE_NOT_STARTED, NULL },
    { 265, { 0x3b973b4d, 0xbd22a130, 0xbd0dea7a, 0x3dc69fd7, 0x3d672c4d, 0xbc2e9ce5, 0x3c5a43fa, 0xbd311459, 0xbd90d353}, 0x00000000, CHANNEL_STATE_NOT_STARTED, NULL },
    { 266, { 0x3dc01216, 0x3d9e9478, 0x3e3623ad, 0x3d43e09e, 0x3e1ac8da, 0x3de7d6e4, 0xbcd77121, 0xbd455467, 0x3defde69}, 0x00000000, CHANNEL_STATE_NOT_STARTED, NULL },
    { 267, { 0x3c0f33bb, 0xbde82440, 0x3e33ef0f, 0x3db987ab, 0xbcd4e699, 0xbd01e4d0, 0x3df27125, 0x3e01e606, 0xbd753d19}, 0x00000000, CHANNEL_STATE_NOT_STARTED, NULL },
    { 268, { 0xbd9305f1, 0xbe4cdafa, 0xbd665f63, 0x3cddd3bc, 0xbe47d89e, 0x3c85a383, 0xbd66d785, 0xbd2bedc2, 0xbdb6330c}, 0x00000000, CHANNEL_STATE_NOT_STARTED, NULL },
    { 269, { 0x3dd8d29d, 0x3dad7cf5, 0xbd198c64, 0xbcb70ebc, 0xbd45f6f5, 0xbe3d1f0f, 0x3d4fc38b, 0x3d347739, 0xbe11b6b7}, 0x00000000, CHANNEL_STATE_NOT_STARTED, NULL },
    { 270, { 0xbb885c43, 0xbdbececf, 0x3e07802f, 0xbd4f162f, 0x3e1f1f67, 0xbe366484, 0xbd6797df, 0xbd8eeec7, 0xbe501513}, 0x00000000, CHANNEL_STATE_NOT_STARTED, NULL },
    { 271, { 0x3e05692f, 0xbe0b901e, 0x3e36407e, 0xbd0d0224, 0x3e1731fc, 0xbbc363f7, 0x3c9be225, 0xbd20fdc3, 0x3cab753d}, 0xbf37304a, CHANNEL_STATE_NOT_STARTED, NULL },
    { 272, { 0xbe08a9bd, 0xbe2959c1, 0xbe157c37, 0xbdd573ec, 0xbddd7fe1, 0xbe283492, 0xbd893855, 0xbd84d6c6, 0xbe2ef2b4}, 0x00000000, CHANNEL_STATE_NOT_STARTED, NULL },
    { 273, { 0xbdabee28, 0x3cbc43b4, 0x3d8b77e2, 0xbe0639c1, 0xbd9413c5, 0x3d756a46, 0xbe2d51b6, 0x3d27ca93, 0xbd97270f}, 0x00000000, CHANNEL_STATE_NOT_STARTED, NULL },
    { 274, { 0x3d879b23, 0xbd3d9e76, 0xbd812c06, 0x3d36730b, 0x3cdb8200, 0x3d07e82b, 0xbcfc25d2, 0xbd8ecdf7, 0xbd2140e7}, 0x00000000, CHANNEL_STATE_NOT_STARTED, NULL },
    { 275, { 0xbe163846, 0x3cd2cd81, 0xbc3c12a2, 0xbd265e56, 0x3d19b964, 0xbd69f2a2, 0xbd0d6f42, 0x3bdaa237, 0xbcaa2f55}, 0x00000000, CHANNEL_STATE_NOT_STARTED, NULL },
    { 276, { 0xbbe74bdc, 0x3d0d118d, 0xbda0c964, 0xbca5a410, 0xbd0aa410, 0xbccff08b, 0x3b0a3844, 0x3d87c032, 0xbc10440f}, 0x00000000, CHANNEL_STATE_NOT_STARTED, NULL },
    { 277, { 0x3da652c1, 0x3d10caf6, 0x3cf5b75e, 0xbdb689b0, 0xbdda53b3, 0xbd3ddd96, 0xbe05f8c4, 0xbd91b684, 0x3daf0a12}, 0x00000000, CHANNEL_STATE_NOT_STARTED, NULL },
    { 278, { 0x3cb11e70, 0x3893912d, 0xbd436c9b, 0xbd028331, 0x3b7a080c, 0x3ce000b3, 0x3d212173, 0x3cfae566, 0x3d23facc}, 0x00000000, CHANNEL_STATE_NOT_STARTED, NULL },
    { 279, { 0x3c513914, 0x3d82bd3c, 0x3d0cba20, 0x3d582975, 0x3c647e7d, 0x3d4337dd, 0xbd2b3f6f, 0x3c296329, 0xbcc449d5}, 0x00000000, CHANNEL_STATE_NOT_STARTED, NULL },
    { 280, { 0x3c2e2058, 0x3da4f651, 0xbddc6836, 0x3d9d5b0d, 0x3c793133, 0x3c0876c4, 0x3d2ebd76, 0x3c677e11, 0x3cc6115f}, 0x00000000, CHANNEL_STATE_NOT_STARTED, NULL },
    { 281, { 0xbdce6cb3, 0xbd83065e, 0xbde1b022, 0xbd0f81e2, 0xbd44b314, 0xbd6d99c1, 0xbd7289b3, 0xbd78ef08, 0xbda48a59}, 0x00000000, CHANNEL_STATE_NOT_STARTED, NULL },
    { 282, { 0xbdb4b683, 0xbb5dad05, 0xbd9d7594, 0x3c9d1972, 0xbd1938c3, 0x3ca8fbf2, 0xbd0b43e7, 0xbcb5649e, 0xbace6fe9}, 0x00000000, CHANNEL_STATE_NOT_STARTED, NULL },
    { 283, { 0xbdb5d26c, 0x3c03d3a7, 0x3daaa9bc, 0xbd240cfe, 0xbc6754e4, 0x3d25c171, 0x3d176b13, 0x3c38bd86, 0x3c988598}, 0x00000000, CHANNEL_STATE_NOT_STARTED, NULL },
    { 284, { 0xbd13bb1c, 0xbd749c2e, 0xbda9cb5d, 0xbde67aa3, 0xbdbfedc0, 0xbced5875, 0xbe1094a1, 0xbda7280f, 0xbd2f2acc}, 0x00000000, CHANNEL_STATE_NOT_STARTED, NULL },
    { 285, { 0x3ca4e3d6, 0x3d66f384, 0xbd489062, 0x3d70d0a1, 0xbb84a113, 0xbda50834, 0x3d893a9b, 0xbaf25c58, 0xbcd3a0d4}, 0x00000000, CHANNEL_STATE_NOT_STARTED, NULL },
    { 286, { 0x3b6ff256, 0xbc42ed3b, 0x3cd671a4, 0xbd313051, 0x3c832384, 0x3c6fa9a0, 0xbda15448, 0xbd705614, 0xbcb29dbc}, 0x00000000, CHANNEL_STATE_NOT_STARTED, NULL },
    { 287, { 0xbce5a1d6, 0xbaa5a722, 0xbe4351e7, 0xbca072c6, 0x3d3169b3, 0xbc492543, 0xbca1345c, 0xbd25f57e, 0xbdb8bde5}, 0xbef7e1d8, CHANNEL_STATE_NOT_STARTED, NULL },
    { 288, { 0xbd19936f, 0xbcc3f7cb, 0xbdf02b91, 0xbbd0d947, 0xbc32d3fe, 0xbe094e33, 0xbcb4faa7, 0xbb57bb9a, 0xbdcfdaca}, 0x00000000, CHANNEL_STATE_NOT_STARTED, NULL },
    { 289, { 0xbc8b56ec, 0xbc1c54cd, 0x3de474db, 0xbbdf58a7, 0x3d67a592, 0x3cefb497, 0xbda32a97, 0x3c8b5ccc, 0x3d37021a}, 0x00000000, CHANNEL_STATE_NOT_STARTED, NULL },
    { 290, { 0xbcf29692, 0xbdad057e, 0x3be976c6, 0xbcbd453c, 0xbd6845c6, 0xbd9c84a0, 0x3da86cc5, 0x3d272d69, 0x3d8e3a91}, 0x00000000, CHANNEL_STATE_NOT_STARTED, NULL },
    { 291, { 0xbda49538, 0xbd487b54, 0xbd42abb6, 0xbd123df9, 0x3c6a13bb, 0xbca88f64, 0xbd905def, 0xbdae5a07, 0xbdb31eb1}, 0x00000000, CHANNEL_STATE_NOT_STARTED, NULL },
    { 292, { 0x3c4cf79d, 0x3ce0d105, 0x3c86df97, 0xbd47bce9, 0x3d84842c, 0xbcb176e9, 0xbe0d3e0f, 0x3da68d6d, 0xbd109019}, 0x00000000, CHANNEL_STATE_NOT_STARTED, NULL },
    { 293, { 0xbda2211a, 0xbe06cc19, 0x3d2771b2, 0x3c02b96e, 0xbb54df40, 0x3c8177be, 0xbd7b1df0, 0xbd94b3f9, 0x3dd58c48}, 0x00000000, CHANNEL_STATE_NOT_STARTED, NULL },
    { 294, { 0x3e0a4238, 0xbdc32f8e, 0xbb4523ab, 0x3c9e77a7, 0x3bc0ec6a, 0xbd2edfca, 0x3dd0cd41, 0xbd0e4cb7, 0x3d4871a8}, 0x00000000, CHANNEL_STATE_NOT_STARTED, NULL },
    { 295, { 0x3e1b951c, 0x3ddee731, 0x3d1e0840, 0xbc720729, 0xbd3df3a0, 0x3d02a6a1, 0x3dc093d1, 0xbd484d93, 0x3cfc5c4c}, 0x00000000, CHANNEL_STATE_NOT_STARTED, NULL },
    { 296, { 0x3d825050, 0xbd1a6cb0, 0x3ceb1fc0, 0x3dd74b50, 0xbd419eef, 0x3bf62b8e, 0x3dd716d3, 0xbc47641f, 0x3d9eca30}, 0x00000000, CHANNEL_STATE_NOT_STARTED, NULL },
    { 297, { 0x3ce92bbb, 0xbc05cd7e, 0xbdbc3002, 0x3bbceed9, 0xbd12c6d2, 0xbdeb9401, 0xbabe0b79, 0xbd30c73a, 0xbd8776cd}, 0x00000000, CHANNEL_STATE_NOT_STARTED, NULL },
    { 298, { 0xbd0b2347, 0xbd795383, 0xbdddc304, 0xbcc35001, 0xbd26e120, 0xbccded8d, 0xbd252499, 0xbd1f4a78, 0xbd985685}, 0x00000000, CHANNEL_STATE_NOT_STARTED, NULL },
    { 299, { 0xbd8b62d6, 0xbda1de94, 0xbc3d6c89, 0x3d3485ca, 0x3c0e705f, 0x3db29b4b, 0xbcca57aa, 0xbcb9f868, 0x3d01cfdd}, 0x00000000, CHANNEL_STATE_NOT_STARTED, NULL },
    { 300, { 0xbe287a4a, 0xbd9da9fe, 0x3ccaaa03, 0x3c1754d8, 0xbd56ff57, 0xbb45b900, 0xbdce217a, 0xbe0969dc, 0xbdc8a64b}, 0x00000000, CHANNEL_STATE_NOT_STARTED, NULL },
    { 301, { 0xbd242775, 0xbca1050d, 0x3cb79e58, 0xbd4d01fb, 0x3bb47ed2, 0xbc6964d5, 0xb92db215, 0xbbecbd40, 0x3cef96c4}, 0x00000000, CHANNEL_STATE_NOT_STARTED, NULL },
    { 302, { 0xbcb40286, 0xbc722613, 0x3cb42959, 0xbd41af90, 0xbd707d27, 0xbcfc8061, 0xbd1a8506, 0xbd868487, 0xbd3228f6}, 0x00000000, CHANNEL_STATE_NOT_STARTED, NULL },
    { 303, { 0x3dbaa8eb, 0x3d57c887, 0xbc838a6f, 0xbe0f29d5, 0xbdb337c8, 0xbe1d3688, 0x3e3147b4, 0xbcae7a5d, 0x3d4d269f}, 0xbf1d286b, CHANNEL_STATE_NOT_STARTED, NULL },
    { 304, { 0x3d95b3f4, 0xbd7de195, 0xbca155a3, 0x3df4c574, 0x3d07978a, 0xbcb45f94, 0x3df0fcd1, 0x3d901bab, 0x3ddca01d}, 0x00000000, CHANNEL_STATE_NOT_STARTED, NULL },
    { 305, { 0x3d9b876b, 0x3e1d5b4f, 0x3caf9cd4, 0x3e17c312, 0x3da0b5a9, 0x3e047f4a, 0xbd8c7201, 0xbcd9f4d2, 0x3ce87a53}, 0x00000000, CHANNEL_STATE_NOT_STARTED, NULL },
    { 306, { 0xbe70175a, 0xbe2d1320, 0xbf125260, 0xbd5640b8, 0x3d52dc6b, 0xbd9ca209, 0xbd7e291d, 0xbcd14c03, 0xbdecdfab}, 0x00000000, CHANNEL_STATE_NOT_STARTED, NULL },
    { 307, { 0xbcb03e38, 0x3ccf8382, 0xbc379d4a, 0xbdf64c7e, 0xbe5e2f39, 0xbe1fb55e, 0x3d644c05, 0x3cb167da, 0xbd8a719e}, 0x00000000, CHANNEL_STATE_NOT_STARTED, NULL },
    { 308, { 0xbea70bab, 0xbe508abe, 0xbed84bdb, 0xbd501ba2, 0xbd059a79, 0xbdefe865, 0xbdbcae0c, 0xbdcbf5e1, 0xbdf4f6ae}, 0x00000000, CHANNEL_STATE_NOT_STARTED, NULL },
    { 309, { 0xbd961e87, 0xbcbfd6a7, 0xbd9f8b40, 0x3d34025b, 0x3e2113d9, 0x3d5c7583, 0xbdccaa95, 0xbc9d455f, 0x3b01d97d}, 0x00000000, CHANNEL_STATE_NOT_STARTED, NULL },
    { 310, { 0xbd066731, 0x3e097a9e, 0x3eba92ea, 0xbc5f39d9, 0xbe4ce6d6, 0x3de110f8, 0x3d9d6e3b, 0x3dd134d8, 0x3d6faf62}, 0x00000000, CHANNEL_STATE_NOT_STARTED, NULL },
    { 311, { 0x3f14710e, 0x3ea94822, 0x3dc2d872, 0xbe414c5e, 0xbe1e3b6b, 0xbe5e5a1f, 0x3ad11748, 0x3c8a4cfe, 0x3dcf2911}, 0x00000000, CHANNEL_STATE_NOT_STARTED, NULL },
    { 312, { 0x3e8454a5, 0x3e25346e, 0x3e7e0a1f, 0xbbf468f2, 0xbe23917a, 0xbe79711f, 0xbd6a9cc0, 0x3e14b201, 0x3dcf0d37}, 0x00000000, CHANNEL_STATE_NOT_STARTED, NULL },
    { 313, { 0x3dbb1c7f, 0x3d8b7045, 0xbc87f9d0, 0x3c03ee02, 0xbc79ccbd, 0xbc81d482, 0xbc5c9e61, 0xbdb22579, 0xbd035c69}, 0x00000000, CHANNEL_STATE_NOT_STARTED, NULL },
    { 314, { 0xbd806537, 0xbde0baf2, 0xbd891f83, 0x3be4ed47, 0xbd0613e1, 0x3ba91e51, 0x3e110450, 0x3d95f954, 0x3d12a3d9}, 0x00000000, CHANNEL_STATE_NOT_STARTED, NULL },
    { 315, { 0xbe232a93, 0xbd8d3eda, 0xbe1e7501, 0xbdfc2448, 0xbd102c99, 0xbe1e0ac5, 0xbd39b318, 0xbd80a1e5, 0xbdf90fae}, 0x00000000, CHANNEL_STATE_NOT_STARTED, NULL },
    { 316, { 0xbe08dc83, 0x3dc9d70d, 0x3e20ac44, 0xbe185452, 0xbd9de060, 0xbc3e5439, 0xbd873ab7, 0xbd32c700, 0xbabf7dc6}, 0x00000000, CHANNEL_STATE_NOT_STARTED, NULL },
    { 317, { 0xbe095cb5, 0xbcbc5ee1, 0xbe11d4d5, 0xbcaf654a, 0xbd0e1141, 0xbd05132e, 0xbd06c37f, 0xbbba8f53, 0xbcef2281}, 0x00000000, CHANNEL_STATE_NOT_STARTED, NULL },
    { 318, { 0xbe0ba483, 0xbde5f497, 0xbe925494, 0xbbb1a494, 0xbcb2dadd, 0xbe0582c9, 0xbd535bf7, 0xbc004595, 0x3d6593ff}, 0x00000000, CHANNEL_STATE_NOT_STARTED, NULL },
    { 319, { 0x3e954f6b, 0x3d5cdf26, 0x3ddc01da, 0xbd3bb30d, 0xbd9dcaf3, 0x3d824306, 0xbe1eb426, 0xbd5446dc, 0x3e26a2a1}, 0x3fbc27cb, CHANNEL_STATE_NOT_STARTED, NULL },
    { 320, { 0xbd430a5c, 0x3df126ac, 0x3c51f6b8, 0xbce7437d, 0x3e049407, 0x3d6040e4, 0xbd6529e2, 0x3dca3e09, 0x3c4ff14c}, 0x00000000, CHANNEL_STATE_NOT_STARTED, NULL },
    { 321, { 0xbe2a1792, 0xbd20db94, 0x3e481a97, 0xbe6a0e1e, 0x3dcec9a8, 0x3ccfb35c, 0xbe9247b0, 0xbbc443f7, 0x3d9a7134}, 0x00000000, CHANNEL_STATE_NOT_STARTED, NULL },
    { 322, { 0xbd0809cc, 0x3d6fc9c1, 0x3d7491bc, 0xbd395231, 0x3b747fb7, 0x3c09caf3, 0xbe3e6dfe, 0xbe620e3b, 0xbc964049}, 0x00000000, CHANNEL_STATE_NOT_STARTED, NULL },
    { 323, { 0xbca23607, 0xbd4f573d, 0xbd9189c3, 0xbd5bb164, 0xbddbb699, 0xbd972668, 0xbd85b202, 0xbe14046a, 0xbdd85c61}, 0x00000000, CHANNEL_STATE_NOT_STARTED, NULL },
    { 324, { 0x3dd78589, 0x3d574933, 0x3d0d4553, 0x3ce82dbc, 0x3dbe7f27, 0x3d697790, 0xbdf90128, 0x3e3433b7, 0x3e2b666b}, 0x00000000, CHANNEL_STATE_NOT_STARTED, NULL },
    { 325, { 0xbd8c35cb, 0xbd910eb2, 0xbdbf1d80, 0xbdd99f61, 0xbdde1216, 0xbe1430f9, 0xbe2ab0ad, 0xbe8041dc, 0xbe0c96f2}, 0x00000000, CHANNEL_STATE_NOT_STARTED, NULL },
    { 326, { 0xbe1edef1, 0x3b18e156, 0x3d5312db, 0xbd03cb20, 0x3e209ff0, 0x3dc89206, 0x3de0e733, 0x3e733303, 0xbbbfdbcb}, 0x00000000, CHANNEL_STATE_NOT_STARTED, NULL },
    { 327, { 0x3d0e6675, 0x3d48c36d, 0x3b127a61, 0x3e6df0c0, 0x3ebde9fb, 0x3dd11b9e, 0x3d1fb2e8, 0x3d4fe946, 0xbd809e0c}, 0x00000000, CHANNEL_STATE_NOT_STARTED, NULL },
    { 328, { 0xbd9d6583, 0xbd884aee, 0xbe007e80, 0xbdf6203c, 0xbe182fe8, 0xbd88efe0, 0xbde5062f, 0xbe359a76, 0xbd9f24e9}, 0x00000000, CHANNEL_STATE_NOT_STARTED, NULL },
    { 329, { 0x3c45edc5, 0x3dc52641, 0x3d8be613, 0x3d210cc2, 0x3dc7256f, 0x3ce58f81, 0x3d0ccbc5, 0x3de00905, 0x3d14da3c}, 0x00000000, CHANNEL_STATE_NOT_STARTED, NULL },
    { 330, { 0xbd7c7bc2, 0xbdd09843, 0xbdb8105d, 0xbda364bd, 0xbd0189f4, 0xbd5aa6fb, 0xbdf3b401, 0xbe1c9621, 0xbd87d468}, 0x00000000, CHANNEL_STATE_NOT_STARTED, NULL },
    { 331, { 0xbdab8388, 0xbd5960d5, 0xbdce7bf1, 0xbe14bad6, 0xbdb3edd9, 0xbcae6322, 0xbcb44248, 0xbd91144e, 0x3c866758}, 0x00000000, CHANNEL_STATE_NOT_STARTED, NULL },
    { 332, { 0xbcbd4a06, 0xbe0b4e41, 0xbd93ac73, 0xbdb46bd9, 0xbd02216a, 0x3d0f2dbb, 0xbd9c3e2f, 0xbe21601c, 0xbc8514c8}, 0x00000000, CHANNEL_STATE_NOT_STARTED, NULL },
    { 333, { 0xbd781b6e, 0xbd312cbf, 0xbd08bcf7, 0xbdaa3fbe, 0xbd97ed55, 0xbd201376, 0xbe4dad32, 0xbd455b28, 0x3d0247e2}, 0x00000000, CHANNEL_STATE_NOT_STARTED, NULL },
    { 334, { 0x3d989e00, 0xbc056103, 0xbc50769b, 0xbcc305d6, 0xbe079f9b, 0xbc65055f, 0xbbf24bbb, 0xbdcb584d, 0xbc80be03}, 0x00000000, CHANNEL_STATE_NOT_STARTED, NULL },
    { 335, { 0xbdb24ab9, 0x3d1ed25a, 0xbda7bc64, 0x3e63e1b3, 0x3dae630b, 0xbdbcc8c3, 0x3c11cc1b, 0x3e51a4f2, 0xbea8cacf}, 0x3faf9a58, CHANNEL_STATE_NOT_STARTED, NULL },
    { 336, { 0xbd10e1a7, 0xbc51bea6, 0xbceb47cf, 0xbd0631b7, 0xbe1d3fe6, 0xbe8a2098, 0x3c1df9cd, 0xbd2b26c3, 0x3cf42604}, 0x00000000, CHANNEL_STATE_NOT_STARTED, NULL },
    { 337, { 0xbe164943, 0x3cd026fe, 0xbe19ee77, 0x3dfac020, 0x3db3ae92, 0x3d7b05be, 0xbdeda364, 0x3c06bcd8, 0xbe69d2b2}, 0x00000000, CHANNEL_STATE_NOT_STARTED, NULL },
    { 338, { 0x3e52aa56, 0xbe149967, 0xbebf9c0e, 0x3d25352b, 0x3c5af6a3, 0x3d90043b, 0x3e5c91cd, 0x3da01aae, 0xbb8b60db}, 0x00000000, CHANNEL_STATE_NOT_STARTED, NULL },
    { 339, { 0xbc57db70, 0xbdccbb99, 0xbea94c35, 0x3dbcb815, 0xbdc25806, 0xbdd2953a, 0xbe038191, 0xbdfe77fa, 0x3d47031d}, 0x00000000, CHANNEL_STATE_NOT_STARTED, NULL },
    { 340, { 0x3df4e3e3, 0x3e2a0f25, 0x3e857690, 0x3dbdfe6e, 0x3d499e4a, 0x3e88f4ab, 0x3cecb0bf, 0x3e069569, 0x3e26e1e9}, 0x00000000, CHANNEL_STATE_NOT_STARTED, NULL },
    { 341, { 0x3e012348, 0xbcb56db2, 0xbe1a8da8, 0xbc20a7aa, 0xbda529ea, 0xbdad09ae, 0x3d9439f0, 0x3d7c0111, 0xbe04f18c}, 0x00000000, CHANNEL_STATE_NOT_STARTED, NULL },
    { 342, { 0x3eba4674, 0x3ea14b2a, 0x3da573a3, 0x3dc9fa52, 0x3d9e0220, 0x3e377be9, 0xbd8aee90, 0x3cbe742d, 0x3d030425}, 0x00000000, CHANNEL_STATE_NOT_STARTED, NULL },
    { 343, { 0x3e3e1214, 0xbb9a2317, 0xbc332432, 0xbcfa3dd9, 0x3c893c42, 0x3e4664c2, 0xbe9a08c0, 0xbeac4618, 0xbe62dce1}, 0x00000000, CHANNEL_STATE_NOT_STARTED, NULL },
    { 344, { 0x3e09a502, 0xbd974261, 0xbdcc4c65, 0xbc8eb600, 0xbd04a598, 0xbd78ada4, 0x3d885657, 0x3d73d5b7, 0xbd66564a}, 0x00000000, CHANNEL_STATE_NOT_STARTED, NULL },
    { 345, { 0x3b9feae4, 0x3e12283c, 0x3e33f8d5, 0x3d15f1da, 0x3cd7a5d5, 0x3c77d6f5, 0x3d913a75, 0x3ba0cf60, 0xbdc6e7b8}, 0x00000000, CHANNEL_STATE_NOT_STARTED, NULL },
    { 346, { 0x3d857313, 0x3d3a46f6, 0xbe69c9b4, 0x3d431623, 0xbc618128, 0xbcb722ba, 0xbb841a42, 0xbdb12207, 0x3dcf9e25}, 0x00000000, CHANNEL_STATE_NOT_STARTED, NULL },
    { 347, { 0xbc60092d, 0xbc1a858c, 0x3c247c71, 0x3d6d3e18, 0x3cdd23ae, 0xbd92aff4, 0xbd6b9f9f, 0xbd94a40b, 0xbe35e4fa}, 0x00000000, CHANNEL_STATE_NOT_STARTED, NULL },
    { 348, { 0xbe92c80b, 0xbe5c163c, 0xbdfaeab2, 0x3d10e590, 0xbd939c5f, 0xbe5edc94, 0x3df50723, 0x3d9b0df4, 0x3e2fb7ae}, 0x00000000, CHANNEL_STATE_NOT_STARTED, NULL },
    { 349, { 0x3dab343c, 0x3d5d0bf9, 0xbd114c0b, 0x3c955596, 0xbc8d0a27, 0xbdb7df60, 0x3dce4afc, 0x3c196b6c, 0xbdb4facc}, 0x00000000, CHANNEL_STATE_NOT_STARTED, NULL },
    { 350, { 0xbe2c82f9, 0xbe828445, 0xbe661491, 0xbe0e9ff6, 0xbd8e2f78, 0xbde929cf, 0x3dd0c6df, 0xbcb2ccde, 0xbe031009}, 0x00000000, CHANNEL_STATE_NOT_STARTED, NULL },
    { 351, { 0x3be8a54d, 0xbe83cc87, 0x3de32b6d, 0x3e7809b1, 0x3c08436d, 0x3dbec724, 0xbcd8b51c, 0xbda802bb, 0xbdd9bc4c}, 0x3f4c8e81, CHANNEL_STATE_NOT_STARTED, NULL },
    { 352, { 0x3e0d5116, 0xbe2696bd, 0xbe40610b, 0x3e41abdc, 0x3dc27f88, 0xbc9302f2, 0x3e696326, 0x3e723365, 0x3df59537}, 0x00000000, CHANNEL_STATE_NOT_STARTED, NULL },
    { 353, { 0x3e0f52e7, 0x3e0a51df, 0xbd3f5261, 0x3e562494, 0xbd7a7fc3, 0xbdc087f8, 0x3e0d2f5d, 0xbde83628, 0xbd98ee1e}, 0x00000000, CHANNEL_STATE_NOT_STARTED, NULL },
    { 354, { 0xbe58efdb, 0x3de0e204, 0xba0e47a3, 0xbe2d296d, 0x3dca518f, 0xbd2f239c, 0x3c8c1268, 0x3e21be48, 0xbdad2cc3}, 0x00000000, CHANNEL_STATE_NOT_STARTED, NULL },
    { 355, { 0xbe8f2590, 0xbc05b980, 0xbca54d8a, 0xbe95e5ed, 0x3d96cc02, 0x3cedaa7e, 0xbe9df66e, 0x3cd4cf53, 0xbd2e1ee5}, 0x00000000, CHANNEL_STATE_NOT_STARTED, NULL },
    { 356, { 0x3da417c5, 0x3e4f81de, 0x3e630d46, 0x3d96d57b, 0x3dbdd0fe, 0x3d84d936, 0x3e195d2a, 0x3cbfd1c9, 0xbb5725bf}, 0x00000000, CHANNEL_STATE_NOT_STARTED, NULL },
    { 357, { 0xbf008b10, 0x3e7773ab, 0x3d5622e0, 0xbdcd5c60, 0xbbbfbe4c, 0xbd56b5af, 0xbe88fd68, 0x3e3f211a, 0xbdbe6df7}, 0x00000000, CHANNEL_STATE_NOT_STARTED, NULL },
    { 358, { 0xbdd969ae, 0xbe1a9c89, 0xbd289e80, 0xbe03af2e, 0x3c8baa17, 0x3dd6acf8, 0x3e8be090, 0x3e0e3059, 0x3dc787a1}, 0x00000000, CHANNEL_STATE_NOT_STARTED, NULL },
    { 359, { 0x3e5dc04b, 0x3ea9bdcd, 0x3e788cbc, 0x3cc695b5, 0x3cda2e9c, 0xbd30765d, 0xbe56ec8e, 0xbe10b6ec, 0x3e095c94}, 0x00000000, CHANNEL_STATE_NOT_STARTED, NULL },
    { 360, { 0xbd99fefd, 0xbcd99060, 0x3c820bc9, 0xbe9dd7a3, 0xbce27109, 0xbd0119a5, 0xbe13d654, 0x3e472f77, 0xbddc37b7}, 0x00000000, CHANNEL_STATE_NOT_STARTED, NULL },
    { 361, { 0x3db0ee31, 0x3d19b781, 0x3b956f61, 0x3d7edad0, 0xbcf32979, 0xbdd7be35, 0x3dc1a329, 0xbd63a4eb, 0xbe4b66b7}, 0x00000000, CHANNEL_STATE_NOT_STARTED, NULL },
    { 362, { 0xbbcd69a7, 0x3dee7937, 0xbe07e658, 0xbcd09c3b, 0xbddeb63a, 0xbe7b2f93, 0xbe4106a0, 0x3c947cec, 0x3c700d49}, 0x00000000, CHANNEL_STATE_NOT_STARTED, NULL },
    { 363, { 0xbe11f955, 0xbde3d415, 0xbd2fb54e, 0xbe296041, 0xbe14de6b, 0x3d07eb35, 0xbe1a2100, 0xbe0212d2, 0x3c68d435}, 0x00000000, CHANNEL_STATE_NOT_STARTED, NULL },
    { 364, { 0xbe14068b, 0x3da8d254, 0x39eccd38, 0xbe11455d, 0x3abb495c, 0x3c8a3e1f, 0xbe92df1c, 0x3c1f8671, 0x3caa6d7a}, 0x00000000, CHANNEL_STATE_NOT_STARTED, NULL },
    { 365, { 0xbdf5bf15, 0x39b3454b, 0xbce79c9c, 0xbda98a78, 0x3c6933d8, 0xbca540ee, 0xbda31d1a, 0x3da0c06f, 0x3d4826dc}, 0x00000000, CHANNEL_STATE_NOT_STARTED, NULL },
    { 366, { 0xbe28b4b4, 0xbc4b1dd7, 0xbd84bf84, 0xbe3802a2, 0x3c9046b3, 0xbd060b6d, 0xbe44249f, 0xbd0ed35e, 0xbdd1a459}, 0x00000000, CHANNEL_STATE_NOT_STARTED, NULL },
    { 367, { 0x3da4e7b0, 0xbe0b458f, 0x3e330a65, 0xbe8cf530, 0xbd1cea71, 0x3db67248, 0x3e5c736c, 0xbe7e0cd1, 0xbd110866}, 0x3f6b5e6c, CHANNEL_STATE_NOT_STARTED, NULL },
    { 368, { 0xbd33f889, 0x3e230c14, 0x3c958ffc, 0x3d462baf, 0x3e165e7e, 0xbd7e1da1, 0x3d0bbd50, 0x3d9d3e28, 0xbdcd18f5}, 0x00000000, CHANNEL_STATE_NOT_STARTED, NULL },
    { 369, { 0xbedece42, 0x3e5f89b5, 0xbc48d3b4, 0xbe0ef0ae, 0x3d800230, 0xbe05727e, 0x3e277234, 0xbd1187f6, 0x3de78e10}, 0x00000000, CHANNEL_STATE_NOT_STARTED, NULL },
    { 370, { 0x3d41246e, 0x3dbff40e, 0x3e06fd20, 0xbeb96412, 0xbdc3894a, 0x3cb6096f, 0xbdbc3fb6, 0x3daf7492, 0x3e5458fa}, 0x00000000, CHANNEL_STATE_NOT_STARTED, NULL },
    { 371, { 0xbebf8422, 0xbe591016, 0x3dad61c9, 0x3ce27911, 0xbe38993d, 0xbd95c402, 0x3ddf9bee, 0x3d376bdf, 0x3d61b4fb}, 0x00000000, CHANNEL_STATE_NOT_STARTED, NULL },
    { 372, { 0xbda789c2, 0x3d931549, 0xbd82e9b1, 0xbe609c07, 0xbd98405b, 0x3cfc2587, 0xbc157f43, 0x3d43d0de, 0x3d1d3d02}, 0x00000000, CHANNEL_STATE_NOT_STARTED, NULL },
    { 373, { 0x3d5b0751, 0xbe4e8676, 0x3db58e53, 0xbd762513, 0xbe6e23e7, 0x3da5280f, 0x3de753de, 0x3ca75e15, 0x3d2a6fb2}, 0x00000000, CHANNEL_STATE_NOT_STARTED, NULL },
    { 374, { 0x3eb5c3d2, 0xbe778452, 0x3ba6ac24, 0x3f2f9177, 0x3e3be40e, 0xbe0b2017, 0x3dd01420, 0xbd177922, 0xbd243da3}, 0x00000000, CHANNEL_STATE_NOT_STARTED, NULL },
    { 375, { 0xbb0bcf4f, 0x3e70fe57, 0x3db55072, 0x3eff7675, 0x3e7a3241, 0xbe4aa91b, 0xbeec9db9, 0xbd7fe533, 0x3e89fada}, 0x00000000, CHANNEL_STATE_NOT_STARTED, NULL },
    { 376, { 0xbf0c5ab6, 0xbe2fb9af, 0x3de08587, 0xbdb25e12, 0xbe13cd8c, 0x3b515b4a, 0xbdb4304f, 0x3d6e07d4, 0x3d5bfe21}, 0x00000000, CHANNEL_STATE_NOT_STARTED, NULL },
    { 377, { 0x3e9a34de, 0x3dda364d, 0xbcc8c045, 0x3e91dd96, 0x3d86012e, 0x3ce1b83e, 0x3cc7e950, 0xbd5b78c6, 0x3d35bc35}, 0x00000000, CHANNEL_STATE_NOT_STARTED, NULL },
    { 378, { 0xbe6a0643, 0xbdb89a95, 0x3ca63fb3, 0xbda6d918, 0xbdcebb9a, 0x3c21b8f1, 0x3d8cb261, 0x3d7b89f7, 0x3d828662}, 0x00000000, CHANNEL_STATE_NOT_STARTED, NULL },
    { 379, { 0xbea4d9ae, 0xbe08c613, 0x3d88c2f8, 0xbdce005b, 0xbd87614c, 0xbcea4162, 0x3d35a814, 0x3da04ae2, 0x3d88da88}, 0x00000000, CHANNEL_STATE_NOT_STARTED, NULL },
    { 380, { 0xbefb8a75, 0xbe44fa89, 0x3d38e0da, 0x3bb1fb95, 0x3c5b8b2c, 0xbd297f71, 0x3d3316a9, 0x3b57b600, 0x3c9bab8e}, 0x00000000, CHANNEL_STATE_NOT_STARTED, NULL },
    { 381, { 0xbe696b21, 0xbe998415, 0xbd30425c, 0xbe315a66, 0xbde307c5, 0x3d886285, 0x3bfd5e04, 0x3d5ea135, 0x3c1d946e}, 0x00000000, CHANNEL_STATE_NOT_STARTED, NULL },
    { 382, { 0xbeddccaa, 0xbe258487, 0x3d188342, 0xbeb01aea, 0xbe660b43, 0xbb6cf7ff, 0xbe048b9a, 0xbd4d597e, 0x3db2943d}, 0x00000000, CHANNEL_STATE_NOT_STARTED, NULL },
    { 383, { 0x3e7a695b, 0x3e368b27, 0xbe88c3f5, 0xbe0240f1, 0x3dbe151b, 0xbe16058c, 0xbe8ba6a4, 0xbc9b60f1, 0xbd63dfca}, 0x3f624b78, CHANNEL_STATE_NOT_STARTED, NULL },
    { 384, { 0xbcdb371a, 0x3d49be95, 0xbdc88c7e, 0xbd9f2931, 0x3e2e6b7c, 0x3e001436, 0xbc8f2a20, 0x3d9ff7c4, 0xbbdb896d}, 0x00000000, CHANNEL_STATE_NOT_STARTED, NULL },
    { 385, { 0x3bbc34bc, 0xbdec1319, 0xbd812614, 0x3d95cb33, 0x3b23eebc, 0x3ce8e40c, 0x3da9887b, 0x3d844994, 0xbbfffa48}, 0x00000000, CHANNEL_STATE_NOT_STARTED, NULL },
    { 386, { 0x3c44fa80, 0xbea9d695, 0x3d0ab783, 0xbd342832, 0x3cda0417, 0xbdf922f5, 0xbeb1fd5c, 0x3dbe0022, 0xbe04a11f}, 0x00000000, CHANNEL_STATE_NOT_STARTED, NULL },
    { 387, { 0xbe103957, 0xbdd7dcd7, 0xbe48ba5b, 0x3c814d9c, 0xbe36291e, 0xbdce02e2, 0x3ddb5406, 0xbd7c1019, 0xbcfc8e4c}, 0x00000000, CHANNEL_STATE_NOT_STARTED, NULL },
    { 388, { 0xbe504b7b, 0xbdd7d264, 0x3ea5c01c, 0x3e487f23, 0xbe334ba0, 0xbe4f299a, 0xbba6c15c, 0x3e295017, 0x3c8b15fe}, 0x00000000, CHANNEL_STATE_NOT_STARTED, NULL },
    { 389, { 0xbe31816c, 0xbe490175, 0x3d1987a0, 0x3e78121b, 0xbcaf5211, 0xbe0c27a9, 0x3de64653, 0xbdc43004, 0x3de91257}, 0x00000000, CHANNEL_STATE_NOT_STARTED, NULL },
    { 390, { 0x3f183ae3, 0xbe80b253, 0xbe4554e6, 0xbd1aa5d7, 0x3d81ff36, 0x3e578b04, 0x3d1f0f6b, 0xbd55ba22, 0x3c995e01}, 0x00000000, CHANNEL_STATE_NOT_STARTED, NULL },
    { 391, { 0x3daa6436, 0x3dda70d4, 0x3ca6fc9e, 0x3efb64ca, 0x3cdd1620, 0xbdf9bd0d, 0x3e47a618, 0xbcdae612, 0x3db214f0}, 0x00000000, CHANNEL_STATE_NOT_STARTED, NULL },
    { 392, { 0x3e0741a7, 0x3de51c5a, 0xbe4ae4b1, 0xbd4fd003, 0xbd38c7d9, 0x3d617783, 0xbdb49a15, 0xbc10b163, 0xbc537a5c}, 0x00000000, CHANNEL_STATE_NOT_STARTED, NULL },
    { 393, { 0x3e9468e1, 0x3e48dbdd, 0x3e1bfdb0, 0x3d9993bb, 0x3d7bd9cf, 0xbd96ed57, 0xbe17a1f6, 0xbd282ac8, 0xbaec5da0}, 0x00000000, CHANNEL_STATE_NOT_STARTED, NULL },
    { 394, { 0xbd934f4c, 0xbe229064, 0xbe23a493, 0x3d0d5e61, 0x3cc14b6f, 0xbc05b4ea, 0x3c0cce69, 0xbd9f8fe8, 0x3d36e966}, 0x00000000, CHANNEL_STATE_NOT_STARTED, NULL },
    { 395, { 0xbd90db1a, 0xbe31860a, 0xbe23d3d7, 0xbe9df193, 0xbdc202c4, 0xbd558eb8, 0xbdcfb140, 0x3db33f87, 0x3985efe1}, 0x00000000, CHANNEL_STATE_NOT_STARTED, NULL },
    { 396, { 0xbe38ee40, 0x3d6a315a, 0xbd9a4f94, 0x3e233a8b, 0xbdd4413a, 0x3d5d78dd, 0x3e09a207, 0xbdbac79a, 0xbd03119f}, 0x00000000, CHANNEL_STATE_NOT_STARTED, NULL },
