#ifndef CNN_LAYER_H
#define CNN_LAYER_H

#include "net_engine_type.h"
#include "channels.h"


static Channel_Kernal_Data layer_1_f10_weights[] = { 
    { 0, { 0xbda736a0, 0xbc766f8e, 0x3dff2095, 0x3f55fe8e, 0x3e73b265, 0xbed256af, 0x3f9f8d33, 0xbfac319d, 0xbf14ad7b}, 0x00000000, CHANNEL_STATE_NOT_STARTED, NULL},
    { 1, { 0xbe8859c5, 0x3e985542, 0x3dd2f72a, 0x3f5a26db, 0x3ea3ef4a, 0xbeaa0b52, 0x3f0476e0, 0xbf8b9a67, 0xbefe1f32}, 0x00000000, CHANNEL_STATE_NOT_STARTED, NULL},
    { 2, { 0xbe0c2cc7, 0x3dd01a78, 0xbe37a43d, 0x3c8671ca, 0x3edf2e49, 0xbdd3cd0e, 0x3d09f375, 0xbe5d925d, 0x3d748d0e}, 0xbda9a660, CHANNEL_STATE_NOT_STARTED, NULL},
    { 3, { 0xbda736a0, 0xbc766f8e, 0x3dff2095, 0x3f55fe8e, 0x3e73b265, 0xbed256af, 0x3f9f8d33, 0xbfac319d, 0xbf14ad7b}, 0x00000000, CHANNEL_STATE_NOT_STARTED, NULL},
    { 4, { 0xbe8859c5, 0x3e985542, 0x3dd2f72a, 0x3f5a26db, 0x3ea3ef4a, 0xbeaa0b52, 0x3f0476e0, 0xbf8b9a67, 0xbefe1f32}, 0x00000000, CHANNEL_STATE_NOT_STARTED, NULL},
    { 5, { 0xbe0c2cc7, 0x3dd01a78, 0xbe37a43d, 0x3c8671ca, 0x3edf2e49, 0xbdd3cd0e, 0x3d09f375, 0xbe5d925d, 0x3d748d0e}, 0x3f6b76b4, CHANNEL_STATE_NOT_STARTED, NULL},
    { 6, { 0xbda736a0, 0xbc766f8e, 0x3dff2095, 0x3f55fe8e, 0x3e73b265, 0xbed256af, 0x3f9f8d33, 0xbfac319d, 0xbf14ad7b}, 0x00000000, CHANNEL_STATE_NOT_STARTED, NULL},
    { 7, { 0xbe8859c5, 0x3e985542, 0x3dd2f72a, 0x3f5a26db, 0x3ea3ef4a, 0xbeaa0b52, 0x3f0476e0, 0xbf8b9a67, 0xbefe1f32}, 0x00000000, CHANNEL_STATE_NOT_STARTED, NULL},
    { 8, { 0xbe0c2cc7, 0x3dd01a78, 0xbe37a43d, 0x3c8671ca, 0x3edf2e49, 0xbdd3cd0e, 0x3d09f375, 0xbe5d925d, 0x3d748d0e}, 0x3f982656, CHANNEL_STATE_NOT_STARTED, NULL},
    { 9, { 0xbda736a0, 0xbc766f8e, 0x3dff2095, 0x3f55fe8e, 0x3e73b265, 0xbed256af, 0x3f9f8d33, 0xbfac319d, 0xbf14ad7b}, 0x00000000, CHANNEL_STATE_NOT_STARTED, NULL},
    { 10, { 0xbe8859c5, 0x3e985542, 0x3dd2f72a, 0x3f5a26db, 0x3ea3ef4a, 0xbeaa0b52, 0x3f0476e0, 0xbf8b9a67, 0xbefe1f32}, 0x00000000, CHANNEL_STATE_NOT_STARTED, NULL},
    { 11, { 0xbe0c2cc7, 0x3dd01a78, 0xbe37a43d, 0x3c8671ca, 0x3edf2e49, 0xbdd3cd0e, 0x3d09f375, 0xbe5d925d, 0x3d748d0e}, 0x3db1c7c7, CHANNEL_STATE_NOT_STARTED, NULL},
    { 12, { 0xbda736a0, 0xbc766f8e, 0x3dff2095, 0x3f55fe8e, 0x3e73b265, 0xbed256af, 0x3f9f8d33, 0xbfac319d, 0xbf14ad7b}, 0x00000000, CHANNEL_STATE_NOT_STARTED, NULL},
    { 13, { 0xbe8859c5, 0x3e985542, 0x3dd2f72a, 0x3f5a26db, 0x3ea3ef4a, 0xbeaa0b52, 0x3f0476e0, 0xbf8b9a67, 0xbefe1f32}, 0x00000000, CHANNEL_STATE_NOT_STARTED, NULL},
    { 14, { 0xbe0c2cc7, 0x3dd01a78, 0xbe37a43d, 0x3c8671ca, 0x3edf2e49, 0xbdd3cd0e, 0x3d09f375, 0xbe5d925d, 0x3d748d0e}, 0xbc9efe73, CHANNEL_STATE_NOT_STARTED, NULL},
    { 15, { 0xbda736a0, 0xbc766f8e, 0x3dff2095, 0x3f55fe8e, 0x3e73b265, 0xbed256af, 0x3f9f8d33, 0xbfac319d, 0xbf14ad7b}, 0x00000000, CHANNEL_STATE_NOT_STARTED, NULL},
    { 16, { 0xbe8859c5, 0x3e985542, 0x3dd2f72a, 0x3f5a26db, 0x3ea3ef4a, 0xbeaa0b52, 0x3f0476e0, 0xbf8b9a67, 0xbefe1f32}, 0x00000000, CHANNEL_STATE_NOT_STARTED, NULL},
    { 17, { 0xbe0c2cc7, 0x3dd01a78, 0xbe37a43d, 0x3c8671ca, 0x3edf2e49, 0xbdd3cd0e, 0x3d09f375, 0xbe5d925d, 0x3d748d0e}, 0xbd00db0e, CHANNEL_STATE_NOT_STARTED, NULL},
    { 18, { 0xbda736a0, 0xbc766f8e, 0x3dff2095, 0x3f55fe8e, 0x3e73b265, 0xbed256af, 0x3f9f8d33, 0xbfac319d, 0xbf14ad7b}, 0x00000000, CHANNEL_STATE_NOT_STARTED, NULL},
    { 19, { 0xbe8859c5, 0x3e985542, 0x3dd2f72a, 0x3f5a26db, 0x3ea3ef4a, 0xbeaa0b52, 0x3f0476e0, 0xbf8b9a67, 0xbefe1f32}, 0x00000000, CHANNEL_STATE_NOT_STARTED, NULL},
    { 20, { 0xbe0c2cc7, 0x3dd01a78, 0xbe37a43d, 0x3c8671ca, 0x3edf2e49, 0xbdd3cd0e, 0x3d09f375, 0xbe5d925d, 0x3d748d0e}, 0x3e078980, CHANNEL_STATE_NOT_STARTED, NULL},
    { 21, { 0xbda736a0, 0xbc766f8e, 0x3dff2095, 0x3f55fe8e, 0x3e73b265, 0xbed256af, 0x3f9f8d33, 0xbfac319d, 0xbf14ad7b}, 0x00000000, CHANNEL_STATE_NOT_STARTED, NULL},
    { 22, { 0xbe8859c5, 0x3e985542, 0x3dd2f72a, 0x3f5a26db, 0x3ea3ef4a, 0xbeaa0b52, 0x3f0476e0, 0xbf8b9a67, 0xbefe1f32}, 0x00000000, CHANNEL_STATE_NOT_STARTED, NULL},
    { 23, { 0xbe0c2cc7, 0x3dd01a78, 0xbe37a43d, 0x3c8671ca, 0x3edf2e49, 0xbdd3cd0e, 0x3d09f375, 0xbe5d925d, 0x3d748d0e}, 0xbd55d3c9, CHANNEL_STATE_NOT_STARTED, NULL},
    { 24, { 0xbda736a0, 0xbc766f8e, 0x3dff2095, 0x3f55fe8e, 0x3e73b265, 0xbed256af, 0x3f9f8d33, 0xbfac319d, 0xbf14ad7b}, 0x00000000, CHANNEL_STATE_NOT_STARTED, NULL},
    { 25, { 0xbe8859c5, 0x3e985542, 0x3dd2f72a, 0x3f5a26db, 0x3ea3ef4a, 0xbeaa0b52, 0x3f0476e0, 0xbf8b9a67, 0xbefe1f32}, 0x00000000, CHANNEL_STATE_NOT_STARTED, NULL},
    { 26, { 0xbe0c2cc7, 0x3dd01a78, 0xbe37a43d, 0x3c8671ca, 0x3edf2e49, 0xbdd3cd0e, 0x3d09f375, 0xbe5d925d, 0x3d748d0e}, 0x3bfabc05, CHANNEL_STATE_NOT_STARTED, NULL},
    { 27, { 0xbda736a0, 0xbc766f8e, 0x3dff2095, 0x3f55fe8e, 0x3e73b265, 0xbed256af, 0x3f9f8d33, 0xbfac319d, 0xbf14ad7b}, 0x00000000, CHANNEL_STATE_NOT_STARTED, NULL},
    { 28, { 0xbe8859c5, 0x3e985542, 0x3dd2f72a, 0x3f5a26db, 0x3ea3ef4a, 0xbeaa0b52, 0x3f0476e0, 0xbf8b9a67, 0xbefe1f32}, 0x00000000, CHANNEL_STATE_NOT_STARTED, NULL},
    { 29, { 0xbe0c2cc7, 0x3dd01a78, 0xbe37a43d, 0x3c8671ca, 0x3edf2e49, 0xbdd3cd0e, 0x3d09f375, 0xbe5d925d, 0x3d748d0e}, 0x3f2ad554, CHANNEL_STATE_NOT_STARTED, NULL},
};


static u32 PRelu_Layer_2_10_weights[10] ={
    0xbf201aa1, 0xbe58c2e1, 0x3f817ed8, 0x3ee1da8f, 0xbf8472ad, 
    0x3ea49d7d, 0xbe988525, 0x3e80f74f, 0xbf61fb00, 0xbfa39fe0
};

static Channel_Kernal_Data layer_4_f16_weights[] = {
    { 0, { 0xbdee983a, 0xbec46272, 0xbf141f45, 0x3ea34484, 0x3ceb9d7b, 0xbf00e498, 0xbeaec5ce, 0xbe953ee2, 0x3f5600ce}, 0x00000000, CHANNEL_STATE_NOT_STARTED, NULL},
    { 1, { 0xbcbfa468, 0x3e96cbe4, 0x3e761280, 0x3d1e09e8, 0x3e0ca33d, 0xbedc6ed3, 0xbe961b99, 0xbe1d6249, 0x3cdc4235}, 0x00000000, CHANNEL_STATE_NOT_STARTED, NULL},
    { 2, { 0xbdbbfc6b, 0x3e81307e, 0x3ed2e63a, 0x3e11a25f, 0xbd2054e7, 0xbeb6c6db, 0xbb982972, 0x3ea1ee2a, 0xbeedf44c}, 0x00000000, CHANNEL_STATE_NOT_STARTED, NULL},
    { 3, { 0x3ead5634, 0xbde23e22, 0x3e627d2a, 0xbf21a121, 0x3d8fc892, 0xbf1b7c8e, 0x3f1093cf, 0xbe9a72fd, 0x3f01b150}, 0x00000000, CHANNEL_STATE_NOT_STARTED, NULL},
    { 4, { 0x3ef64bb1, 0x3e34931d, 0x3d63ece3, 0xbc4f8cd2, 0xbe4bddbd, 0xbdf656c4, 0x3d140523, 0xbece7b85, 0xbece39ce}, 0x00000000, CHANNEL_STATE_NOT_STARTED, NULL},
    { 5, { 0xbe80381d, 0x3e4508d5, 0xbd072694, 0x3e3350be, 0x3edead88, 0xbb8565de, 0x3da56288, 0xbd0d3ea2, 0xbdf6f07f}, 0x00000000, CHANNEL_STATE_NOT_STARTED, NULL},
    { 6, { 0x3bbc191e, 0xbebb8e50, 0x3e831c9c, 0x3e61dbdf, 0x3f428481, 0xbe971a66, 0x3d44e0ac, 0xbe86d812, 0xbfe53e44}, 0x00000000, CHANNEL_STATE_NOT_STARTED, NULL},
    { 7, { 0x3c952752, 0x3d96a7fd, 0x3dd1ddd1, 0xbe212d9f, 0xbe61b597, 0xbe713c27, 0x3d7265a3, 0x3f02e6fe, 0x3e88f448}, 0x00000000, CHANNEL_STATE_NOT_STARTED, NULL},
    { 8, { 0xbd0dc310, 0x3eac68a5, 0x3ea12b66, 0x3e38eef7, 0x3d64da93, 0x3e8c3e43, 0xbe1fbe8d, 0xbf038a76, 0xbfaba3c8}, 0x00000000, CHANNEL_STATE_NOT_STARTED, NULL},
    { 9, { 0x39f5d982, 0x3e6a63e8, 0x3e7da0ea, 0x3d916d21, 0x3dc6904c, 0xbe8afde5, 0xbe78ccc7, 0x3dc30607, 0xbd441f4a}, 0x3f82a0f3, CHANNEL_STATE_NOT_STARTED, NULL},
    { 10, { 0xbdee983a, 0xbec46272, 0xbf141f45, 0x3ea34484, 0x3ceb9d7b, 0xbf00e498, 0xbeaec5ce, 0xbe953ee2, 0x3f5600ce}, 0x00000000, CHANNEL_STATE_NOT_STARTED, NULL},
    { 11, { 0xbcbfa468, 0x3e96cbe4, 0x3e761280, 0x3d1e09e8, 0x3e0ca33d, 0xbedc6ed3, 0xbe961b99, 0xbe1d6249, 0x3cdc4235}, 0x00000000, CHANNEL_STATE_NOT_STARTED, NULL},
    { 12, { 0xbdbbfc6b, 0x3e81307e, 0x3ed2e63a, 0x3e11a25f, 0xbd2054e7, 0xbeb6c6db, 0xbb982972, 0x3ea1ee2a, 0xbeedf44c}, 0x00000000, CHANNEL_STATE_NOT_STARTED, NULL},
    { 13, { 0x3ead5634, 0xbde23e22, 0x3e627d2a, 0xbf21a121, 0x3d8fc892, 0xbf1b7c8e, 0x3f1093cf, 0xbe9a72fd, 0x3f01b150}, 0x00000000, CHANNEL_STATE_NOT_STARTED, NULL},
    { 14, { 0x3ef64bb1, 0x3e34931d, 0x3d63ece3, 0xbc4f8cd2, 0xbe4bddbd, 0xbdf656c4, 0x3d140523, 0xbece7b85, 0xbece39ce}, 0x00000000, CHANNEL_STATE_NOT_STARTED, NULL},
    { 15, { 0xbe80381d, 0x3e4508d5, 0xbd072694, 0x3e3350be, 0x3edead88, 0xbb8565de, 0x3da56288, 0xbd0d3ea2, 0xbdf6f07f}, 0x00000000, CHANNEL_STATE_NOT_STARTED, NULL},
    { 16, { 0x3bbc191e, 0xbebb8e50, 0x3e831c9c, 0x3e61dbdf, 0x3f428481, 0xbe971a66, 0x3d44e0ac, 0xbe86d812, 0xbfe53e44}, 0x00000000, CHANNEL_STATE_NOT_STARTED, NULL},
    { 17, { 0x3c952752, 0x3d96a7fd, 0x3dd1ddd1, 0xbe212d9f, 0xbe61b597, 0xbe713c27, 0x3d7265a3, 0x3f02e6fe, 0x3e88f448}, 0x00000000, CHANNEL_STATE_NOT_STARTED, NULL},
    { 18, { 0xbd0dc310, 0x3eac68a5, 0x3ea12b66, 0x3e38eef7, 0x3d64da93, 0x3e8c3e43, 0xbe1fbe8d, 0xbf038a76, 0xbfaba3c8}, 0x00000000, CHANNEL_STATE_NOT_STARTED, NULL},
    { 19, { 0x39f5d982, 0x3e6a63e8, 0x3e7da0ea, 0x3d916d21, 0x3dc6904c, 0xbe8afde5, 0xbe78ccc7, 0x3dc30607, 0xbd441f4a}, 0x401f3492, CHANNEL_STATE_NOT_STARTED, NULL},
    { 20, { 0xbdee983a, 0xbec46272, 0xbf141f45, 0x3ea34484, 0x3ceb9d7b, 0xbf00e498, 0xbeaec5ce, 0xbe953ee2, 0x3f5600ce}, 0x00000000, CHANNEL_STATE_NOT_STARTED, NULL},
    { 21, { 0xbcbfa468, 0x3e96cbe4, 0x3e761280, 0x3d1e09e8, 0x3e0ca33d, 0xbedc6ed3, 0xbe961b99, 0xbe1d6249, 0x3cdc4235}, 0x00000000, CHANNEL_STATE_NOT_STARTED, NULL},
    { 22, { 0xbdbbfc6b, 0x3e81307e, 0x3ed2e63a, 0x3e11a25f, 0xbd2054e7, 0xbeb6c6db, 0xbb982972, 0x3ea1ee2a, 0xbeedf44c}, 0x00000000, CHANNEL_STATE_NOT_STARTED, NULL},
    { 23, { 0x3ead5634, 0xbde23e22, 0x3e627d2a, 0xbf21a121, 0x3d8fc892, 0xbf1b7c8e, 0x3f1093cf, 0xbe9a72fd, 0x3f01b150}, 0x00000000, CHANNEL_STATE_NOT_STARTED, NULL},
    { 24, { 0x3ef64bb1, 0x3e34931d, 0x3d63ece3, 0xbc4f8cd2, 0xbe4bddbd, 0xbdf656c4, 0x3d140523, 0xbece7b85, 0xbece39ce}, 0x00000000, CHANNEL_STATE_NOT_STARTED, NULL},
    { 25, { 0xbe80381d, 0x3e4508d5, 0xbd072694, 0x3e3350be, 0x3edead88, 0xbb8565de, 0x3da56288, 0xbd0d3ea2, 0xbdf6f07f}, 0x00000000, CHANNEL_STATE_NOT_STARTED, NULL},
    { 26, { 0x3bbc191e, 0xbebb8e50, 0x3e831c9c, 0x3e61dbdf, 0x3f428481, 0xbe971a66, 0x3d44e0ac, 0xbe86d812, 0xbfe53e44}, 0x00000000, CHANNEL_STATE_NOT_STARTED, NULL},
    { 27, { 0x3c952752, 0x3d96a7fd, 0x3dd1ddd1, 0xbe212d9f, 0xbe61b597, 0xbe713c27, 0x3d7265a3, 0x3f02e6fe, 0x3e88f448}, 0x00000000, CHANNEL_STATE_NOT_STARTED, NULL},
    { 28, { 0xbd0dc310, 0x3eac68a5, 0x3ea12b66, 0x3e38eef7, 0x3d64da93, 0x3e8c3e43, 0xbe1fbe8d, 0xbf038a76, 0xbfaba3c8}, 0x00000000, CHANNEL_STATE_NOT_STARTED, NULL},
    { 29, { 0x39f5d982, 0x3e6a63e8, 0x3e7da0ea, 0x3d916d21, 0x3dc6904c, 0xbe8afde5, 0xbe78ccc7, 0x3dc30607, 0xbd441f4a}, 0x40173498, CHANNEL_STATE_NOT_STARTED, NULL},
    { 30, { 0xbdee983a, 0xbec46272, 0xbf141f45, 0x3ea34484, 0x3ceb9d7b, 0xbf00e498, 0xbeaec5ce, 0xbe953ee2, 0x3f5600ce}, 0x00000000, CHANNEL_STATE_NOT_STARTED, NULL},
    { 31, { 0xbcbfa468, 0x3e96cbe4, 0x3e761280, 0x3d1e09e8, 0x3e0ca33d, 0xbedc6ed3, 0xbe961b99, 0xbe1d6249, 0x3cdc4235}, 0x00000000, CHANNEL_STATE_NOT_STARTED, NULL},
    { 32, { 0xbdbbfc6b, 0x3e81307e, 0x3ed2e63a, 0x3e11a25f, 0xbd2054e7, 0xbeb6c6db, 0xbb982972, 0x3ea1ee2a, 0xbeedf44c}, 0x00000000, CHANNEL_STATE_NOT_STARTED, NULL},
    { 33, { 0x3ead5634, 0xbde23e22, 0x3e627d2a, 0xbf21a121, 0x3d8fc892, 0xbf1b7c8e, 0x3f1093cf, 0xbe9a72fd, 0x3f01b150}, 0x00000000, CHANNEL_STATE_NOT_STARTED, NULL},
    { 34, { 0x3ef64bb1, 0x3e34931d, 0x3d63ece3, 0xbc4f8cd2, 0xbe4bddbd, 0xbdf656c4, 0x3d140523, 0xbece7b85, 0xbece39ce}, 0x00000000, CHANNEL_STATE_NOT_STARTED, NULL},
    { 35, { 0xbe80381d, 0x3e4508d5, 0xbd072694, 0x3e3350be, 0x3edead88, 0xbb8565de, 0x3da56288, 0xbd0d3ea2, 0xbdf6f07f}, 0x00000000, CHANNEL_STATE_NOT_STARTED, NULL},
    { 36, { 0x3bbc191e, 0xbebb8e50, 0x3e831c9c, 0x3e61dbdf, 0x3f428481, 0xbe971a66, 0x3d44e0ac, 0xbe86d812, 0xbfe53e44}, 0x00000000, CHANNEL_STATE_NOT_STARTED, NULL},
    { 37, { 0x3c952752, 0x3d96a7fd, 0x3dd1ddd1, 0xbe212d9f, 0xbe61b597, 0xbe713c27, 0x3d7265a3, 0x3f02e6fe, 0x3e88f448}, 0x00000000, CHANNEL_STATE_NOT_STARTED, NULL},
    { 38, { 0xbd0dc310, 0x3eac68a5, 0x3ea12b66, 0x3e38eef7, 0x3d64da93, 0x3e8c3e43, 0xbe1fbe8d, 0xbf038a76, 0xbfaba3c8}, 0x00000000, CHANNEL_STATE_NOT_STARTED, NULL},
    { 39, { 0x39f5d982, 0x3e6a63e8, 0x3e7da0ea, 0x3d916d21, 0x3dc6904c, 0xbe8afde5, 0xbe78ccc7, 0x3dc30607, 0xbd441f4a}, 0x3ed79a58, CHANNEL_STATE_NOT_STARTED, NULL},
    { 40, { 0xbdee983a, 0xbec46272, 0xbf141f45, 0x3ea34484, 0x3ceb9d7b, 0xbf00e498, 0xbeaec5ce, 0xbe953ee2, 0x3f5600ce}, 0x00000000, CHANNEL_STATE_NOT_STARTED, NULL},
    { 41, { 0xbcbfa468, 0x3e96cbe4, 0x3e761280, 0x3d1e09e8, 0x3e0ca33d, 0xbedc6ed3, 0xbe961b99, 0xbe1d6249, 0x3cdc4235}, 0x00000000, CHANNEL_STATE_NOT_STARTED, NULL},
    { 42, { 0xbdbbfc6b, 0x3e81307e, 0x3ed2e63a, 0x3e11a25f, 0xbd2054e7, 0xbeb6c6db, 0xbb982972, 0x3ea1ee2a, 0xbeedf44c}, 0x00000000, CHANNEL_STATE_NOT_STARTED, NULL},
    { 43, { 0x3ead5634, 0xbde23e22, 0x3e627d2a, 0xbf21a121, 0x3d8fc892, 0xbf1b7c8e, 0x3f1093cf, 0xbe9a72fd, 0x3f01b150}, 0x00000000, CHANNEL_STATE_NOT_STARTED, NULL},
    { 44, { 0x3ef64bb1, 0x3e34931d, 0x3d63ece3, 0xbc4f8cd2, 0xbe4bddbd, 0xbdf656c4, 0x3d140523, 0xbece7b85, 0xbece39ce}, 0x00000000, CHANNEL_STATE_NOT_STARTED, NULL},
    { 45, { 0xbe80381d, 0x3e4508d5, 0xbd072694, 0x3e3350be, 0x3edead88, 0xbb8565de, 0x3da56288, 0xbd0d3ea2, 0xbdf6f07f}, 0x00000000, CHANNEL_STATE_NOT_STARTED, NULL},
    { 46, { 0x3bbc191e, 0xbebb8e50, 0x3e831c9c, 0x3e61dbdf, 0x3f428481, 0xbe971a66, 0x3d44e0ac, 0xbe86d812, 0xbfe53e44}, 0x00000000, CHANNEL_STATE_NOT_STARTED, NULL},
    { 47, { 0x3c952752, 0x3d96a7fd, 0x3dd1ddd1, 0xbe212d9f, 0xbe61b597, 0xbe713c27, 0x3d7265a3, 0x3f02e6fe, 0x3e88f448}, 0x00000000, CHANNEL_STATE_NOT_STARTED, NULL},
    { 48, { 0xbd0dc310, 0x3eac68a5, 0x3ea12b66, 0x3e38eef7, 0x3d64da93, 0x3e8c3e43, 0xbe1fbe8d, 0xbf038a76, 0xbfaba3c8}, 0x00000000, CHANNEL_STATE_NOT_STARTED, NULL},
    { 49, { 0x39f5d982, 0x3e6a63e8, 0x3e7da0ea, 0x3d916d21, 0x3dc6904c, 0xbe8afde5, 0xbe78ccc7, 0x3dc30607, 0xbd441f4a}, 0x3f82ab80, CHANNEL_STATE_NOT_STARTED, NULL},
    { 50, { 0xbdee983a, 0xbec46272, 0xbf141f45, 0x3ea34484, 0x3ceb9d7b, 0xbf00e498, 0xbeaec5ce, 0xbe953ee2, 0x3f5600ce}, 0x00000000, CHANNEL_STATE_NOT_STARTED, NULL},
    { 51, { 0xbcbfa468, 0x3e96cbe4, 0x3e761280, 0x3d1e09e8, 0x3e0ca33d, 0xbedc6ed3, 0xbe961b99, 0xbe1d6249, 0x3cdc4235}, 0x00000000, CHANNEL_STATE_NOT_STARTED, NULL},
    { 52, { 0xbdbbfc6b, 0x3e81307e, 0x3ed2e63a, 0x3e11a25f, 0xbd2054e7, 0xbeb6c6db, 0xbb982972, 0x3ea1ee2a, 0xbeedf44c}, 0x00000000, CHANNEL_STATE_NOT_STARTED, NULL},
    { 53, { 0x3ead5634, 0xbde23e22, 0x3e627d2a, 0xbf21a121, 0x3d8fc892, 0xbf1b7c8e, 0x3f1093cf, 0xbe9a72fd, 0x3f01b150}, 0x00000000, CHANNEL_STATE_NOT_STARTED, NULL},
    { 54, { 0x3ef64bb1, 0x3e34931d, 0x3d63ece3, 0xbc4f8cd2, 0xbe4bddbd, 0xbdf656c4, 0x3d140523, 0xbece7b85, 0xbece39ce}, 0x00000000, CHANNEL_STATE_NOT_STARTED, NULL},
    { 55, { 0xbe80381d, 0x3e4508d5, 0xbd072694, 0x3e3350be, 0x3edead88, 0xbb8565de, 0x3da56288, 0xbd0d3ea2, 0xbdf6f07f}, 0x00000000, CHANNEL_STATE_NOT_STARTED, NULL},
    { 56, { 0x3bbc191e, 0xbebb8e50, 0x3e831c9c, 0x3e61dbdf, 0x3f428481, 0xbe971a66, 0x3d44e0ac, 0xbe86d812, 0xbfe53e44}, 0x00000000, CHANNEL_STATE_NOT_STARTED, NULL},
    { 57, { 0x3c952752, 0x3d96a7fd, 0x3dd1ddd1, 0xbe212d9f, 0xbe61b597, 0xbe713c27, 0x3d7265a3, 0x3f02e6fe, 0x3e88f448}, 0x00000000, CHANNEL_STATE_NOT_STARTED, NULL},
    { 58, { 0xbd0dc310, 0x3eac68a5, 0x3ea12b66, 0x3e38eef7, 0x3d64da93, 0x3e8c3e43, 0xbe1fbe8d, 0xbf038a76, 0xbfaba3c8}, 0x00000000, CHANNEL_STATE_NOT_STARTED, NULL},
    { 59, { 0x39f5d982, 0x3e6a63e8, 0x3e7da0ea, 0x3d916d21, 0x3dc6904c, 0xbe8afde5, 0xbe78ccc7, 0x3dc30607, 0xbd441f4a}, 0x3fc4422c, CHANNEL_STATE_NOT_STARTED, NULL},
    { 60, { 0xbdee983a, 0xbec46272, 0xbf141f45, 0x3ea34484, 0x3ceb9d7b, 0xbf00e498, 0xbeaec5ce, 0xbe953ee2, 0x3f5600ce}, 0x00000000, CHANNEL_STATE_NOT_STARTED, NULL},
    { 61, { 0xbcbfa468, 0x3e96cbe4, 0x3e761280, 0x3d1e09e8, 0x3e0ca33d, 0xbedc6ed3, 0xbe961b99, 0xbe1d6249, 0x3cdc4235}, 0x00000000, CHANNEL_STATE_NOT_STARTED, NULL},
    { 62, { 0xbdbbfc6b, 0x3e81307e, 0x3ed2e63a, 0x3e11a25f, 0xbd2054e7, 0xbeb6c6db, 0xbb982972, 0x3ea1ee2a, 0xbeedf44c}, 0x00000000, CHANNEL_STATE_NOT_STARTED, NULL},
    { 63, { 0x3ead5634, 0xbde23e22, 0x3e627d2a, 0xbf21a121, 0x3d8fc892, 0xbf1b7c8e, 0x3f1093cf, 0xbe9a72fd, 0x3f01b150}, 0x00000000, CHANNEL_STATE_NOT_STARTED, NULL},
    { 64, { 0x3ef64bb1, 0x3e34931d, 0x3d63ece3, 0xbc4f8cd2, 0xbe4bddbd, 0xbdf656c4, 0x3d140523, 0xbece7b85, 0xbece39ce}, 0x00000000, CHANNEL_STATE_NOT_STARTED, NULL},
    { 65, { 0xbe80381d, 0x3e4508d5, 0xbd072694, 0x3e3350be, 0x3edead88, 0xbb8565de, 0x3da56288, 0xbd0d3ea2, 0xbdf6f07f}, 0x00000000, CHANNEL_STATE_NOT_STARTED, NULL},
    { 66, { 0x3bbc191e, 0xbebb8e50, 0x3e831c9c, 0x3e61dbdf, 0x3f428481, 0xbe971a66, 0x3d44e0ac, 0xbe86d812, 0xbfe53e44}, 0x00000000, CHANNEL_STATE_NOT_STARTED, NULL},
    { 67, { 0x3c952752, 0x3d96a7fd, 0x3dd1ddd1, 0xbe212d9f, 0xbe61b597, 0xbe713c27, 0x3d7265a3, 0x3f02e6fe, 0x3e88f448}, 0x00000000, CHANNEL_STATE_NOT_STARTED, NULL},
    { 68, { 0xbd0dc310, 0x3eac68a5, 0x3ea12b66, 0x3e38eef7, 0x3d64da93, 0x3e8c3e43, 0xbe1fbe8d, 0xbf038a76, 0xbfaba3c8}, 0x00000000, CHANNEL_STATE_NOT_STARTED, NULL},
    { 69, { 0x39f5d982, 0x3e6a63e8, 0x3e7da0ea, 0x3d916d21, 0x3dc6904c, 0xbe8afde5, 0xbe78ccc7, 0x3dc30607, 0xbd441f4a}, 0x401a492b, CHANNEL_STATE_NOT_STARTED, NULL},
    { 70, { 0xbdee983a, 0xbec46272, 0xbf141f45, 0x3ea34484, 0x3ceb9d7b, 0xbf00e498, 0xbeaec5ce, 0xbe953ee2, 0x3f5600ce}, 0x00000000, CHANNEL_STATE_NOT_STARTED, NULL},
    { 71, { 0xbcbfa468, 0x3e96cbe4, 0x3e761280, 0x3d1e09e8, 0x3e0ca33d, 0xbedc6ed3, 0xbe961b99, 0xbe1d6249, 0x3cdc4235}, 0x00000000, CHANNEL_STATE_NOT_STARTED, NULL},
    { 72, { 0xbdbbfc6b, 0x3e81307e, 0x3ed2e63a, 0x3e11a25f, 0xbd2054e7, 0xbeb6c6db, 0xbb982972, 0x3ea1ee2a, 0xbeedf44c}, 0x00000000, CHANNEL_STATE_NOT_STARTED, NULL},
    { 73, { 0x3ead5634, 0xbde23e22, 0x3e627d2a, 0xbf21a121, 0x3d8fc892, 0xbf1b7c8e, 0x3f1093cf, 0xbe9a72fd, 0x3f01b150}, 0x00000000, CHANNEL_STATE_NOT_STARTED, NULL},
    { 74, { 0x3ef64bb1, 0x3e34931d, 0x3d63ece3, 0xbc4f8cd2, 0xbe4bddbd, 0xbdf656c4, 0x3d140523, 0xbece7b85, 0xbece39ce}, 0x00000000, CHANNEL_STATE_NOT_STARTED, NULL},
    { 75, { 0xbe80381d, 0x3e4508d5, 0xbd072694, 0x3e3350be, 0x3edead88, 0xbb8565de, 0x3da56288, 0xbd0d3ea2, 0xbdf6f07f}, 0x00000000, CHANNEL_STATE_NOT_STARTED, NULL},
    { 76, { 0x3bbc191e, 0xbebb8e50, 0x3e831c9c, 0x3e61dbdf, 0x3f428481, 0xbe971a66, 0x3d44e0ac, 0xbe86d812, 0xbfe53e44}, 0x00000000, CHANNEL_STATE_NOT_STARTED, NULL},
    { 77, { 0x3c952752, 0x3d96a7fd, 0x3dd1ddd1, 0xbe212d9f, 0xbe61b597, 0xbe713c27, 0x3d7265a3, 0x3f02e6fe, 0x3e88f448}, 0x00000000, CHANNEL_STATE_NOT_STARTED, NULL},
    { 78, { 0xbd0dc310, 0x3eac68a5, 0x3ea12b66, 0x3e38eef7, 0x3d64da93, 0x3e8c3e43, 0xbe1fbe8d, 0xbf038a76, 0xbfaba3c8}, 0x00000000, CHANNEL_STATE_NOT_STARTED, NULL},
    { 79, { 0x39f5d982, 0x3e6a63e8, 0x3e7da0ea, 0x3d916d21, 0x3dc6904c, 0xbe8afde5, 0xbe78ccc7, 0x3dc30607, 0xbd441f4a}, 0x401991b4, CHANNEL_STATE_NOT_STARTED, NULL},
    { 80, { 0xbdee983a, 0xbec46272, 0xbf141f45, 0x3ea34484, 0x3ceb9d7b, 0xbf00e498, 0xbeaec5ce, 0xbe953ee2, 0x3f5600ce}, 0x00000000, CHANNEL_STATE_NOT_STARTED, NULL},
    { 81, { 0xbcbfa468, 0x3e96cbe4, 0x3e761280, 0x3d1e09e8, 0x3e0ca33d, 0xbedc6ed3, 0xbe961b99, 0xbe1d6249, 0x3cdc4235}, 0x00000000, CHANNEL_STATE_NOT_STARTED, NULL},
    { 82, { 0xbdbbfc6b, 0x3e81307e, 0x3ed2e63a, 0x3e11a25f, 0xbd2054e7, 0xbeb6c6db, 0xbb982972, 0x3ea1ee2a, 0xbeedf44c}, 0x00000000, CHANNEL_STATE_NOT_STARTED, NULL},
    { 83, { 0x3ead5634, 0xbde23e22, 0x3e627d2a, 0xbf21a121, 0x3d8fc892, 0xbf1b7c8e, 0x3f1093cf, 0xbe9a72fd, 0x3f01b150}, 0x00000000, CHANNEL_STATE_NOT_STARTED, NULL},
    { 84, { 0x3ef64bb1, 0x3e34931d, 0x3d63ece3, 0xbc4f8cd2, 0xbe4bddbd, 0xbdf656c4, 0x3d140523, 0xbece7b85, 0xbece39ce}, 0x00000000, CHANNEL_STATE_NOT_STARTED, NULL},
    { 85, { 0xbe80381d, 0x3e4508d5, 0xbd072694, 0x3e3350be, 0x3edead88, 0xbb8565de, 0x3da56288, 0xbd0d3ea2, 0xbdf6f07f}, 0x00000000, CHANNEL_STATE_NOT_STARTED, NULL},
    { 86, { 0x3bbc191e, 0xbebb8e50, 0x3e831c9c, 0x3e61dbdf, 0x3f428481, 0xbe971a66, 0x3d44e0ac, 0xbe86d812, 0xbfe53e44}, 0x00000000, CHANNEL_STATE_NOT_STARTED, NULL},
    { 87, { 0x3c952752, 0x3d96a7fd, 0x3dd1ddd1, 0xbe212d9f, 0xbe61b597, 0xbe713c27, 0x3d7265a3, 0x3f02e6fe, 0x3e88f448}, 0x00000000, CHANNEL_STATE_NOT_STARTED, NULL},
    { 88, { 0xbd0dc310, 0x3eac68a5, 0x3ea12b66, 0x3e38eef7, 0x3d64da93, 0x3e8c3e43, 0xbe1fbe8d, 0xbf038a76, 0xbfaba3c8}, 0x00000000, CHANNEL_STATE_NOT_STARTED, NULL},
    { 89, { 0x39f5d982, 0x3e6a63e8, 0x3e7da0ea, 0x3d916d21, 0x3dc6904c, 0xbe8afde5, 0xbe78ccc7, 0x3dc30607, 0xbd441f4a}, 0x3f3cfa4c, CHANNEL_STATE_NOT_STARTED, NULL},
    { 90, { 0xbdee983a, 0xbec46272, 0xbf141f45, 0x3ea34484, 0x3ceb9d7b, 0xbf00e498, 0xbeaec5ce, 0xbe953ee2, 0x3f5600ce}, 0x00000000, CHANNEL_STATE_NOT_STARTED, NULL},
    { 91, { 0xbcbfa468, 0x3e96cbe4, 0x3e761280, 0x3d1e09e8, 0x3e0ca33d, 0xbedc6ed3, 0xbe961b99, 0xbe1d6249, 0x3cdc4235}, 0x00000000, CHANNEL_STATE_NOT_STARTED, NULL},
    { 92, { 0xbdbbfc6b, 0x3e81307e, 0x3ed2e63a, 0x3e11a25f, 0xbd2054e7, 0xbeb6c6db, 0xbb982972, 0x3ea1ee2a, 0xbeedf44c}, 0x00000000, CHANNEL_STATE_NOT_STARTED, NULL},
    { 93, { 0x3ead5634, 0xbde23e22, 0x3e627d2a, 0xbf21a121, 0x3d8fc892, 0xbf1b7c8e, 0x3f1093cf, 0xbe9a72fd, 0x3f01b150}, 0x00000000, CHANNEL_STATE_NOT_STARTED, NULL},
    { 94, { 0x3ef64bb1, 0x3e34931d, 0x3d63ece3, 0xbc4f8cd2, 0xbe4bddbd, 0xbdf656c4, 0x3d140523, 0xbece7b85, 0xbece39ce}, 0x00000000, CHANNEL_STATE_NOT_STARTED, NULL},
    { 95, { 0xbe80381d, 0x3e4508d5, 0xbd072694, 0x3e3350be, 0x3edead88, 0xbb8565de, 0x3da56288, 0xbd0d3ea2, 0xbdf6f07f}, 0x00000000, CHANNEL_STATE_NOT_STARTED, NULL},
    { 96, { 0x3bbc191e, 0xbebb8e50, 0x3e831c9c, 0x3e61dbdf, 0x3f428481, 0xbe971a66, 0x3d44e0ac, 0xbe86d812, 0xbfe53e44}, 0x00000000, CHANNEL_STATE_NOT_STARTED, NULL},
    { 97, { 0x3c952752, 0x3d96a7fd, 0x3dd1ddd1, 0xbe212d9f, 0xbe61b597, 0xbe713c27, 0x3d7265a3, 0x3f02e6fe, 0x3e88f448}, 0x00000000, CHANNEL_STATE_NOT_STARTED, NULL},
    { 98, { 0xbd0dc310, 0x3eac68a5, 0x3ea12b66, 0x3e38eef7, 0x3d64da93, 0x3e8c3e43, 0xbe1fbe8d, 0xbf038a76, 0xbfaba3c8}, 0x00000000, CHANNEL_STATE_NOT_STARTED, NULL},
    { 99, { 0x39f5d982, 0x3e6a63e8, 0x3e7da0ea, 0x3d916d21, 0x3dc6904c, 0xbe8afde5, 0xbe78ccc7, 0x3dc30607, 0xbd441f4a}, 0x3e428d3f, CHANNEL_STATE_NOT_STARTED, NULL},
    { 100, { 0xbdee983a, 0xbec46272, 0xbf141f45, 0x3ea34484, 0x3ceb9d7b, 0xbf00e498, 0xbeaec5ce, 0xbe953ee2, 0x3f5600ce}, 0x00000000, CHANNEL_STATE_NOT_STARTED, NULL},
    { 101, { 0xbcbfa468, 0x3e96cbe4, 0x3e761280, 0x3d1e09e8, 0x3e0ca33d, 0xbedc6ed3, 0xbe961b99, 0xbe1d6249, 0x3cdc4235}, 0x00000000, CHANNEL_STATE_NOT_STARTED, NULL},
    { 102, { 0xbdbbfc6b, 0x3e81307e, 0x3ed2e63a, 0x3e11a25f, 0xbd2054e7, 0xbeb6c6db, 0xbb982972, 0x3ea1ee2a, 0xbeedf44c}, 0x00000000, CHANNEL_STATE_NOT_STARTED, NULL},
    { 103, { 0x3ead5634, 0xbde23e22, 0x3e627d2a, 0xbf21a121, 0x3d8fc892, 0xbf1b7c8e, 0x3f1093cf, 0xbe9a72fd, 0x3f01b150}, 0x00000000, CHANNEL_STATE_NOT_STARTED, NULL},
    { 104, { 0x3ef64bb1, 0x3e34931d, 0x3d63ece3, 0xbc4f8cd2, 0xbe4bddbd, 0xbdf656c4, 0x3d140523, 0xbece7b85, 0xbece39ce}, 0x00000000, CHANNEL_STATE_NOT_STARTED, NULL},
    { 105, { 0xbe80381d, 0x3e4508d5, 0xbd072694, 0x3e3350be, 0x3edead88, 0xbb8565de, 0x3da56288, 0xbd0d3ea2, 0xbdf6f07f}, 0x00000000, CHANNEL_STATE_NOT_STARTED, NULL},
    { 106, { 0x3bbc191e, 0xbebb8e50, 0x3e831c9c, 0x3e61dbdf, 0x3f428481, 0xbe971a66, 0x3d44e0ac, 0xbe86d812, 0xbfe53e44}, 0x00000000, CHANNEL_STATE_NOT_STARTED, NULL},
    { 107, { 0x3c952752, 0x3d96a7fd, 0x3dd1ddd1, 0xbe212d9f, 0xbe61b597, 0xbe713c27, 0x3d7265a3, 0x3f02e6fe, 0x3e88f448}, 0x00000000, CHANNEL_STATE_NOT_STARTED, NULL},
    { 108, { 0xbd0dc310, 0x3eac68a5, 0x3ea12b66, 0x3e38eef7, 0x3d64da93, 0x3e8c3e43, 0xbe1fbe8d, 0xbf038a76, 0xbfaba3c8}, 0x00000000, CHANNEL_STATE_NOT_STARTED, NULL},
    { 109, { 0x39f5d982, 0x3e6a63e8, 0x3e7da0ea, 0x3d916d21, 0x3dc6904c, 0xbe8afde5, 0xbe78ccc7, 0x3dc30607, 0xbd441f4a}, 0x3ea33773, CHANNEL_STATE_NOT_STARTED, NULL},
    { 110, { 0xbdee983a, 0xbec46272, 0xbf141f45, 0x3ea34484, 0x3ceb9d7b, 0xbf00e498, 0xbeaec5ce, 0xbe953ee2, 0x3f5600ce}, 0x00000000, CHANNEL_STATE_NOT_STARTED, NULL},
    { 111, { 0xbcbfa468, 0x3e96cbe4, 0x3e761280, 0x3d1e09e8, 0x3e0ca33d, 0xbedc6ed3, 0xbe961b99, 0xbe1d6249, 0x3cdc4235}, 0x00000000, CHANNEL_STATE_NOT_STARTED, NULL},
    { 112, { 0xbdbbfc6b, 0x3e81307e, 0x3ed2e63a, 0x3e11a25f, 0xbd2054e7, 0xbeb6c6db, 0xbb982972, 0x3ea1ee2a, 0xbeedf44c}, 0x00000000, CHANNEL_STATE_NOT_STARTED, NULL},
    { 113, { 0x3ead5634, 0xbde23e22, 0x3e627d2a, 0xbf21a121, 0x3d8fc892, 0xbf1b7c8e, 0x3f1093cf, 0xbe9a72fd, 0x3f01b150}, 0x00000000, CHANNEL_STATE_NOT_STARTED, NULL},
    { 114, { 0x3ef64bb1, 0x3e34931d, 0x3d63ece3, 0xbc4f8cd2, 0xbe4bddbd, 0xbdf656c4, 0x3d140523, 0xbece7b85, 0xbece39ce}, 0x00000000, CHANNEL_STATE_NOT_STARTED, NULL},
    { 115, { 0xbe80381d, 0x3e4508d5, 0xbd072694, 0x3e3350be, 0x3edead88, 0xbb8565de, 0x3da56288, 0xbd0d3ea2, 0xbdf6f07f}, 0x00000000, CHANNEL_STATE_NOT_STARTED, NULL},
    { 116, { 0x3bbc191e, 0xbebb8e50, 0x3e831c9c, 0x3e61dbdf, 0x3f428481, 0xbe971a66, 0x3d44e0ac, 0xbe86d812, 0xbfe53e44}, 0x00000000, CHANNEL_STATE_NOT_STARTED, NULL},
    { 117, { 0x3c952752, 0x3d96a7fd, 0x3dd1ddd1, 0xbe212d9f, 0xbe61b597, 0xbe713c27, 0x3d7265a3, 0x3f02e6fe, 0x3e88f448}, 0x00000000, CHANNEL_STATE_NOT_STARTED, NULL},
    { 118, { 0xbd0dc310, 0x3eac68a5, 0x3ea12b66, 0x3e38eef7, 0x3d64da93, 0x3e8c3e43, 0xbe1fbe8d, 0xbf038a76, 0xbfaba3c8}, 0x00000000, CHANNEL_STATE_NOT_STARTED, NULL},
    { 119, { 0x39f5d982, 0x3e6a63e8, 0x3e7da0ea, 0x3d916d21, 0x3dc6904c, 0xbe8afde5, 0xbe78ccc7, 0x3dc30607, 0xbd441f4a}, 0x3eb8c5c1, CHANNEL_STATE_NOT_STARTED, NULL},
    { 120, { 0xbdee983a, 0xbec46272, 0xbf141f45, 0x3ea34484, 0x3ceb9d7b, 0xbf00e498, 0xbeaec5ce, 0xbe953ee2, 0x3f5600ce}, 0x00000000, CHANNEL_STATE_NOT_STARTED, NULL},
    { 121, { 0xbcbfa468, 0x3e96cbe4, 0x3e761280, 0x3d1e09e8, 0x3e0ca33d, 0xbedc6ed3, 0xbe961b99, 0xbe1d6249, 0x3cdc4235}, 0x00000000, CHANNEL_STATE_NOT_STARTED, NULL},
    { 122, { 0xbdbbfc6b, 0x3e81307e, 0x3ed2e63a, 0x3e11a25f, 0xbd2054e7, 0xbeb6c6db, 0xbb982972, 0x3ea1ee2a, 0xbeedf44c}, 0x00000000, CHANNEL_STATE_NOT_STARTED, NULL},
    { 123, { 0x3ead5634, 0xbde23e22, 0x3e627d2a, 0xbf21a121, 0x3d8fc892, 0xbf1b7c8e, 0x3f1093cf, 0xbe9a72fd, 0x3f01b150}, 0x00000000, CHANNEL_STATE_NOT_STARTED, NULL},
    { 124, { 0x3ef64bb1, 0x3e34931d, 0x3d63ece3, 0xbc4f8cd2, 0xbe4bddbd, 0xbdf656c4, 0x3d140523, 0xbece7b85, 0xbece39ce}, 0x00000000, CHANNEL_STATE_NOT_STARTED, NULL},
    { 125, { 0xbe80381d, 0x3e4508d5, 0xbd072694, 0x3e3350be, 0x3edead88, 0xbb8565de, 0x3da56288, 0xbd0d3ea2, 0xbdf6f07f}, 0x00000000, CHANNEL_STATE_NOT_STARTED, NULL},
    { 126, { 0x3bbc191e, 0xbebb8e50, 0x3e831c9c, 0x3e61dbdf, 0x3f428481, 0xbe971a66, 0x3d44e0ac, 0xbe86d812, 0xbfe53e44}, 0x00000000, CHANNEL_STATE_NOT_STARTED, NULL},
    { 127, { 0x3c952752, 0x3d96a7fd, 0x3dd1ddd1, 0xbe212d9f, 0xbe61b597, 0xbe713c27, 0x3d7265a3, 0x3f02e6fe, 0x3e88f448}, 0x00000000, CHANNEL_STATE_NOT_STARTED, NULL},
    { 128, { 0xbd0dc310, 0x3eac68a5, 0x3ea12b66, 0x3e38eef7, 0x3d64da93, 0x3e8c3e43, 0xbe1fbe8d, 0xbf038a76, 0xbfaba3c8}, 0x00000000, CHANNEL_STATE_NOT_STARTED, NULL},
    { 129, { 0x39f5d982, 0x3e6a63e8, 0x3e7da0ea, 0x3d916d21, 0x3dc6904c, 0xbe8afde5, 0xbe78ccc7, 0x3dc30607, 0xbd441f4a}, 0x3fdad372, CHANNEL_STATE_NOT_STARTED, NULL},
    { 130, { 0xbdee983a, 0xbec46272, 0xbf141f45, 0x3ea34484, 0x3ceb9d7b, 0xbf00e498, 0xbeaec5ce, 0xbe953ee2, 0x3f5600ce}, 0x00000000, CHANNEL_STATE_NOT_STARTED, NULL},
    { 131, { 0xbcbfa468, 0x3e96cbe4, 0x3e761280, 0x3d1e09e8, 0x3e0ca33d, 0xbedc6ed3, 0xbe961b99, 0xbe1d6249, 0x3cdc4235}, 0x00000000, CHANNEL_STATE_NOT_STARTED, NULL},
    { 132, { 0xbdbbfc6b, 0x3e81307e, 0x3ed2e63a, 0x3e11a25f, 0xbd2054e7, 0xbeb6c6db, 0xbb982972, 0x3ea1ee2a, 0xbeedf44c}, 0x00000000, CHANNEL_STATE_NOT_STARTED, NULL},
    { 133, { 0x3ead5634, 0xbde23e22, 0x3e627d2a, 0xbf21a121, 0x3d8fc892, 0xbf1b7c8e, 0x3f1093cf, 0xbe9a72fd, 0x3f01b150}, 0x00000000, CHANNEL_STATE_NOT_STARTED, NULL},
    { 134, { 0x3ef64bb1, 0x3e34931d, 0x3d63ece3, 0xbc4f8cd2, 0xbe4bddbd, 0xbdf656c4, 0x3d140523, 0xbece7b85, 0xbece39ce}, 0x00000000, CHANNEL_STATE_NOT_STARTED, NULL},
    { 135, { 0xbe80381d, 0x3e4508d5, 0xbd072694, 0x3e3350be, 0x3edead88, 0xbb8565de, 0x3da56288, 0xbd0d3ea2, 0xbdf6f07f}, 0x00000000, CHANNEL_STATE_NOT_STARTED, NULL},
    { 136, { 0x3bbc191e, 0xbebb8e50, 0x3e831c9c, 0x3e61dbdf, 0x3f428481, 0xbe971a66, 0x3d44e0ac, 0xbe86d812, 0xbfe53e44}, 0x00000000, CHANNEL_STATE_NOT_STARTED, NULL},
    { 137, { 0x3c952752, 0x3d96a7fd, 0x3dd1ddd1, 0xbe212d9f, 0xbe61b597, 0xbe713c27, 0x3d7265a3, 0x3f02e6fe, 0x3e88f448}, 0x00000000, CHANNEL_STATE_NOT_STARTED, NULL},
    { 138, { 0xbd0dc310, 0x3eac68a5, 0x3ea12b66, 0x3e38eef7, 0x3d64da93, 0x3e8c3e43, 0xbe1fbe8d, 0xbf038a76, 0xbfaba3c8}, 0x00000000, CHANNEL_STATE_NOT_STARTED, NULL},
    { 139, { 0x39f5d982, 0x3e6a63e8, 0x3e7da0ea, 0x3d916d21, 0x3dc6904c, 0xbe8afde5, 0xbe78ccc7, 0x3dc30607, 0xbd441f4a}, 0xbdf63c63, CHANNEL_STATE_NOT_STARTED, NULL},
    { 140, { 0xbdee983a, 0xbec46272, 0xbf141f45, 0x3ea34484, 0x3ceb9d7b, 0xbf00e498, 0xbeaec5ce, 0xbe953ee2, 0x3f5600ce}, 0x00000000, CHANNEL_STATE_NOT_STARTED, NULL},
    { 141, { 0xbcbfa468, 0x3e96cbe4, 0x3e761280, 0x3d1e09e8, 0x3e0ca33d, 0xbedc6ed3, 0xbe961b99, 0xbe1d6249, 0x3cdc4235}, 0x00000000, CHANNEL_STATE_NOT_STARTED, NULL},
    { 142, { 0xbdbbfc6b, 0x3e81307e, 0x3ed2e63a, 0x3e11a25f, 0xbd2054e7, 0xbeb6c6db, 0xbb982972, 0x3ea1ee2a, 0xbeedf44c}, 0x00000000, CHANNEL_STATE_NOT_STARTED, NULL},
    { 143, { 0x3ead5634, 0xbde23e22, 0x3e627d2a, 0xbf21a121, 0x3d8fc892, 0xbf1b7c8e, 0x3f1093cf, 0xbe9a72fd, 0x3f01b150}, 0x00000000, CHANNEL_STATE_NOT_STARTED, NULL},
    { 144, { 0x3ef64bb1, 0x3e34931d, 0x3d63ece3, 0xbc4f8cd2, 0xbe4bddbd, 0xbdf656c4, 0x3d140523, 0xbece7b85, 0xbece39ce}, 0x00000000, CHANNEL_STATE_NOT_STARTED, NULL},
    { 145, { 0xbe80381d, 0x3e4508d5, 0xbd072694, 0x3e3350be, 0x3edead88, 0xbb8565de, 0x3da56288, 0xbd0d3ea2, 0xbdf6f07f}, 0x00000000, CHANNEL_STATE_NOT_STARTED, NULL},
    { 146, { 0x3bbc191e, 0xbebb8e50, 0x3e831c9c, 0x3e61dbdf, 0x3f428481, 0xbe971a66, 0x3d44e0ac, 0xbe86d812, 0xbfe53e44}, 0x00000000, CHANNEL_STATE_NOT_STARTED, NULL},
    { 147, { 0x3c952752, 0x3d96a7fd, 0x3dd1ddd1, 0xbe212d9f, 0xbe61b597, 0xbe713c27, 0x3d7265a3, 0x3f02e6fe, 0x3e88f448}, 0x00000000, CHANNEL_STATE_NOT_STARTED, NULL},
    { 148, { 0xbd0dc310, 0x3eac68a5, 0x3ea12b66, 0x3e38eef7, 0x3d64da93, 0x3e8c3e43, 0xbe1fbe8d, 0xbf038a76, 0xbfaba3c8}, 0x00000000, CHANNEL_STATE_NOT_STARTED, NULL},
    { 149, { 0x39f5d982, 0x3e6a63e8, 0x3e7da0ea, 0x3d916d21, 0x3dc6904c, 0xbe8afde5, 0xbe78ccc7, 0x3dc30607, 0xbd441f4a}, 0x3f197690, CHANNEL_STATE_NOT_STARTED, NULL},
    { 150, { 0xbdee983a, 0xbec46272, 0xbf141f45, 0x3ea34484, 0x3ceb9d7b, 0xbf00e498, 0xbeaec5ce, 0xbe953ee2, 0x3f5600ce}, 0x00000000, CHANNEL_STATE_NOT_STARTED, NULL},
    { 151, { 0xbcbfa468, 0x3e96cbe4, 0x3e761280, 0x3d1e09e8, 0x3e0ca33d, 0xbedc6ed3, 0xbe961b99, 0xbe1d6249, 0x3cdc4235}, 0x00000000, CHANNEL_STATE_NOT_STARTED, NULL},
    { 152, { 0xbdbbfc6b, 0x3e81307e, 0x3ed2e63a, 0x3e11a25f, 0xbd2054e7, 0xbeb6c6db, 0xbb982972, 0x3ea1ee2a, 0xbeedf44c}, 0x00000000, CHANNEL_STATE_NOT_STARTED, NULL},
    { 153, { 0x3ead5634, 0xbde23e22, 0x3e627d2a, 0xbf21a121, 0x3d8fc892, 0xbf1b7c8e, 0x3f1093cf, 0xbe9a72fd, 0x3f01b150}, 0x00000000, CHANNEL_STATE_NOT_STARTED, NULL},
    { 154, { 0x3ef64bb1, 0x3e34931d, 0x3d63ece3, 0xbc4f8cd2, 0xbe4bddbd, 0xbdf656c4, 0x3d140523, 0xbece7b85, 0xbece39ce}, 0x00000000, CHANNEL_STATE_NOT_STARTED, NULL},
    { 155, { 0xbe80381d, 0x3e4508d5, 0xbd072694, 0x3e3350be, 0x3edead88, 0xbb8565de, 0x3da56288, 0xbd0d3ea2, 0xbdf6f07f}, 0x00000000, CHANNEL_STATE_NOT_STARTED, NULL},
    { 156, { 0x3bbc191e, 0xbebb8e50, 0x3e831c9c, 0x3e61dbdf, 0x3f428481, 0xbe971a66, 0x3d44e0ac, 0xbe86d812, 0xbfe53e44}, 0x00000000, CHANNEL_STATE_NOT_STARTED, NULL},
    { 157, { 0x3c952752, 0x3d96a7fd, 0x3dd1ddd1, 0xbe212d9f, 0xbe61b597, 0xbe713c27, 0x3d7265a3, 0x3f02e6fe, 0x3e88f448}, 0x00000000, CHANNEL_STATE_NOT_STARTED, NULL},
    { 158, { 0xbd0dc310, 0x3eac68a5, 0x3ea12b66, 0x3e38eef7, 0x3d64da93, 0x3e8c3e43, 0xbe1fbe8d, 0xbf038a76, 0xbfaba3c8}, 0x00000000, CHANNEL_STATE_NOT_STARTED, NULL},
    { 159, { 0x39f5d982, 0x3e6a63e8, 0x3e7da0ea, 0x3d916d21, 0x3dc6904c, 0xbe8afde5, 0xbe78ccc7, 0x3dc30607, 0xbd441f4a}, 0x402dea26, CHANNEL_STATE_NOT_STARTED, NULL},
};

static u32 PRelu_Layer_5_16_weights[16] ={
    0x3d89388d, 0x3e519c80, 0x3e8118e2, 0x3d29916c, 0x3e472e27,
    0x3e9a019d, 0x3ed995fb, 0x3ede166a, 0x3e339bb7, 0xbf06a620,
    0x3e04f1ee, 0x3e42777b, 0xba87f9b4, 0xbe21bc1d, 0xbe590820,
    0xbd6f02b0
};

static Channel_Kernal_Data layer_6_f32_weights[512] = {
    {   0, {0x3d87367d, 0x3e09555c, 0xbdff7eb4, 0x3eeb9fe3, 0x3ebb768a, 0x3e4d1413, 0x3ec7e28a, 0x3e81c2c5, 0x3eb16f1c}, 0x00000000, CHANNEL_STATE_NOT_STARTED, NULL },
    {   1, {0x3e0cab32, 0x3bcd13e1, 0x3e6a936c, 0xbd55265c, 0x3d48704b, 0x3dd34e3a, 0xbe415e17, 0xbdb7290f, 0xbd97b873}, 0x00000000, CHANNEL_STATE_NOT_STARTED, NULL },
    {   2, {0xbedba85d, 0xbe0a197f, 0xbf128fad, 0xbeab7ca0, 0xbdbbf7a5, 0xbd56572b, 0xbe6c5795, 0xbd8814c7, 0x3d2b5b0b}, 0x00000000, CHANNEL_STATE_NOT_STARTED, NULL },
    {   3, {0x3d5f1f5d, 0x3a8fbb5d, 0x3d9ebdf6, 0xbdf9f564, 0xbe126fc0, 0xbd5b6737, 0x3d0abad3, 0xbc6dd75d, 0xbd90e855}, 0x00000000, CHANNEL_STATE_NOT_STARTED, NULL },
    {   4, {0x3cda0a1c, 0x3d863030, 0xbe2ece66, 0x3e621039, 0x3e208c4f, 0x3e7097e2, 0x3e8657df, 0x3d5df804, 0x3db0a98e}, 0x00000000, CHANNEL_STATE_NOT_STARTED, NULL },
    {   5, {0x3dda6953, 0xbe4de08a, 0x3e0c0834, 0x3e3b4772, 0xbd05ddac, 0xbe1d3028, 0x3db5314f, 0x3d938437, 0xbe1dc323}, 0x00000000, CHANNEL_STATE_NOT_STARTED, NULL },
    {   6, {0x3d8c3f36, 0x3e006d6d, 0x3d783f85, 0x3e365f2c, 0xbe2a2823, 0xbd7b3d84, 0x3e7f9a62, 0xbe11d6d3, 0x3d1b45de}, 0x00000000, CHANNEL_STATE_NOT_STARTED, NULL },
    {   7, {0x3ecdbc9c, 0x3e26df3d, 0x3e180254, 0xbcc5be94, 0x3dc0eb4e, 0x3d8f9e03, 0xbd7b31e5, 0xbd2f5391, 0xbd4c0645}, 0x00000000, CHANNEL_STATE_NOT_STARTED, NULL },
    {   8, {0x3d8690a3, 0x3c2af793, 0x3dd35970, 0xbe052a47, 0xbe1310ce, 0xbdf575f6, 0xbdfb0c95, 0x3e13eace, 0xbe6fefae}, 0x00000000, CHANNEL_STATE_NOT_STARTED, NULL },
    {   9, {0xbdc867a2, 0xbd9c92c2, 0x3c82f754, 0xbd732408, 0xbdbdad2f, 0x3d9193f4, 0xbd8e28f7, 0x3d5a63b2, 0x3d8b83cc}, 0x00000000, CHANNEL_STATE_NOT_STARTED, NULL },
    {  10, {0x3c7773bb, 0xbe55e031, 0xbdec7153, 0x3dc73f43, 0x3d7f59ae, 0xbdc06e18, 0xbcf31d72, 0x3c1ae9c8, 0x3e335768}, 0x00000000, CHANNEL_STATE_NOT_STARTED, NULL },
    {  11, {0x3c21f40c, 0xbdddecf6, 0x3c911994, 0xbe197c5c, 0xbd4af2b7, 0xbd77ec1d, 0x3dc5c328, 0x3d937aec, 0x3da0cb90}, 0x00000000, CHANNEL_STATE_NOT_STARTED, NULL },
    {  12, {0x3e1adaeb, 0xbd6ada96, 0xbc167854, 0x3d3d0dcd, 0xbe357926, 0xbe022089, 0xbc66ed18, 0xbe50ce30, 0x3dc411dc}, 0x00000000, CHANNEL_STATE_NOT_STARTED, NULL },
    {  13, {0x3de38b83, 0x3ce45a1d, 0x3dcfc421, 0x3e1ed264, 0x3e153820, 0x3e1dd798, 0x3d9d61c9, 0x3d6ecd99, 0x3e00ce7d}, 0x00000000, CHANNEL_STATE_NOT_STARTED, NULL },
    {  14, {0x3ce13b55, 0xbc165065, 0x3ce10f44, 0x3d82c0a5, 0x3d7b577d, 0x3d18b33f, 0x3e83b0c9, 0x3e1302a5, 0x3db80b46}, 0x00000000, CHANNEL_STATE_NOT_STARTED, NULL },
    {  15, {0x3e54127c, 0x3e56c171, 0x3e8d34da, 0xbdaec82d, 0xbe257a2e, 0xbc967f12, 0xbde01275, 0xbd9361b3, 0xbe7c5385}, 0xbdb7ca1c, CHANNEL_STATE_NOT_STARTED, NULL },
    {  16, {0x3d87367d, 0x3e09555c, 0xbdff7eb4, 0x3eeb9fe3, 0x3ebb768a, 0x3e4d1413, 0x3ec7e28a, 0x3e81c2c5, 0x3eb16f1c}, 0x00000000, CHANNEL_STATE_NOT_STARTED, NULL },
    {  17, {0x3e0cab32, 0x3bcd13e1, 0x3e6a936c, 0xbd55265c, 0x3d48704b, 0x3dd34e3a, 0xbe415e17, 0xbdb7290f, 0xbd97b873}, 0x00000000, CHANNEL_STATE_NOT_STARTED, NULL },
    {  18, {0xbedba85d, 0xbe0a197f, 0xbf128fad, 0xbeab7ca0, 0xbdbbf7a5, 0xbd56572b, 0xbe6c5795, 0xbd8814c7, 0x3d2b5b0b}, 0x00000000, CHANNEL_STATE_NOT_STARTED, NULL },
    {  19, {0x3d5f1f5d, 0x3a8fbb5d, 0x3d9ebdf6, 0xbdf9f564, 0xbe126fc0, 0xbd5b6737, 0x3d0abad3, 0xbc6dd75d, 0xbd90e855}, 0x00000000, CHANNEL_STATE_NOT_STARTED, NULL },
    {  20, {0x3cda0a1c, 0x3d863030, 0xbe2ece66, 0x3e621039, 0x3e208c4f, 0x3e7097e2, 0x3e8657df, 0x3d5df804, 0x3db0a98e}, 0x00000000, CHANNEL_STATE_NOT_STARTED, NULL },
    {  21, {0x3dda6953, 0xbe4de08a, 0x3e0c0834, 0x3e3b4772, 0xbd05ddac, 0xbe1d3028, 0x3db5314f, 0x3d938437, 0xbe1dc323}, 0x00000000, CHANNEL_STATE_NOT_STARTED, NULL },
    {  22, {0x3d8c3f36, 0x3e006d6d, 0x3d783f85, 0x3e365f2c, 0xbe2a2823, 0xbd7b3d84, 0x3e7f9a62, 0xbe11d6d3, 0x3d1b45de}, 0x00000000, CHANNEL_STATE_NOT_STARTED, NULL },
    {  23, {0x3ecdbc9c, 0x3e26df3d, 0x3e180254, 0xbcc5be94, 0x3dc0eb4e, 0x3d8f9e03, 0xbd7b31e5, 0xbd2f5391, 0xbd4c0645}, 0x00000000, CHANNEL_STATE_NOT_STARTED, NULL },
    {  24, {0x3d8690a3, 0x3c2af793, 0x3dd35970, 0xbe052a47, 0xbe1310ce, 0xbdf575f6, 0xbdfb0c95, 0x3e13eace, 0xbe6fefae}, 0x00000000, CHANNEL_STATE_NOT_STARTED, NULL },
    {  25, {0xbdc867a2, 0xbd9c92c2, 0x3c82f754, 0xbd732408, 0xbdbdad2f, 0x3d9193f4, 0xbd8e28f7, 0x3d5a63b2, 0x3d8b83cc}, 0x00000000, CHANNEL_STATE_NOT_STARTED, NULL },
    {  26, {0x3c7773bb, 0xbe55e031, 0xbdec7153, 0x3dc73f43, 0x3d7f59ae, 0xbdc06e18, 0xbcf31d72, 0x3c1ae9c8, 0x3e335768}, 0x00000000, CHANNEL_STATE_NOT_STARTED, NULL },
    {  27, {0x3c21f40c, 0xbdddecf6, 0x3c911994, 0xbe197c5c, 0xbd4af2b7, 0xbd77ec1d, 0x3dc5c328, 0x3d937aec, 0x3da0cb90}, 0x00000000, CHANNEL_STATE_NOT_STARTED, NULL },
    {  28, {0x3e1adaeb, 0xbd6ada96, 0xbc167854, 0x3d3d0dcd, 0xbe357926, 0xbe022089, 0xbc66ed18, 0xbe50ce30, 0x3dc411dc}, 0x00000000, CHANNEL_STATE_NOT_STARTED, NULL },
    {  29, {0x3de38b83, 0x3ce45a1d, 0x3dcfc421, 0x3e1ed264, 0x3e153820, 0x3e1dd798, 0x3d9d61c9, 0x3d6ecd99, 0x3e00ce7d}, 0x00000000, CHANNEL_STATE_NOT_STARTED, NULL },
    {  30, {0x3ce13b55, 0xbc165065, 0x3ce10f44, 0x3d82c0a5, 0x3d7b577d, 0x3d18b33f, 0x3e83b0c9, 0x3e1302a5, 0x3db80b46}, 0x00000000, CHANNEL_STATE_NOT_STARTED, NULL },
    {  31, {0x3e54127c, 0x3e56c171, 0x3e8d34da, 0xbdaec82d, 0xbe257a2e, 0xbc967f12, 0xbde01275, 0xbd9361b3, 0xbe7c5385}, 0x3fdda20b, CHANNEL_STATE_NOT_STARTED, NULL },
    {  32, {0x3d87367d, 0x3e09555c, 0xbdff7eb4, 0x3eeb9fe3, 0x3ebb768a, 0x3e4d1413, 0x3ec7e28a, 0x3e81c2c5, 0x3eb16f1c}, 0x00000000, CHANNEL_STATE_NOT_STARTED, NULL },
    {  33, {0x3e0cab32, 0x3bcd13e1, 0x3e6a936c, 0xbd55265c, 0x3d48704b, 0x3dd34e3a, 0xbe415e17, 0xbdb7290f, 0xbd97b873}, 0x00000000, CHANNEL_STATE_NOT_STARTED, NULL },
    {  34, {0xbedba85d, 0xbe0a197f, 0xbf128fad, 0xbeab7ca0, 0xbdbbf7a5, 0xbd56572b, 0xbe6c5795, 0xbd8814c7, 0x3d2b5b0b}, 0x00000000, CHANNEL_STATE_NOT_STARTED, NULL },
    {  35, {0x3d5f1f5d, 0x3a8fbb5d, 0x3d9ebdf6, 0xbdf9f564, 0xbe126fc0, 0xbd5b6737, 0x3d0abad3, 0xbc6dd75d, 0xbd90e855}, 0x00000000, CHANNEL_STATE_NOT_STARTED, NULL },
    {  36, {0x3cda0a1c, 0x3d863030, 0xbe2ece66, 0x3e621039, 0x3e208c4f, 0x3e7097e2, 0x3e8657df, 0x3d5df804, 0x3db0a98e}, 0x00000000, CHANNEL_STATE_NOT_STARTED, NULL },
    {  37, {0x3dda6953, 0xbe4de08a, 0x3e0c0834, 0x3e3b4772, 0xbd05ddac, 0xbe1d3028, 0x3db5314f, 0x3d938437, 0xbe1dc323}, 0x00000000, CHANNEL_STATE_NOT_STARTED, NULL },
    {  38, {0x3d8c3f36, 0x3e006d6d, 0x3d783f85, 0x3e365f2c, 0xbe2a2823, 0xbd7b3d84, 0x3e7f9a62, 0xbe11d6d3, 0x3d1b45de}, 0x00000000, CHANNEL_STATE_NOT_STARTED, NULL },
    {  39, {0x3ecdbc9c, 0x3e26df3d, 0x3e180254, 0xbcc5be94, 0x3dc0eb4e, 0x3d8f9e03, 0xbd7b31e5, 0xbd2f5391, 0xbd4c0645}, 0x00000000, CHANNEL_STATE_NOT_STARTED, NULL },
    {  40, {0x3d8690a3, 0x3c2af793, 0x3dd35970, 0xbe052a47, 0xbe1310ce, 0xbdf575f6, 0xbdfb0c95, 0x3e13eace, 0xbe6fefae}, 0x00000000, CHANNEL_STATE_NOT_STARTED, NULL },
    {  41, {0xbdc867a2, 0xbd9c92c2, 0x3c82f754, 0xbd732408, 0xbdbdad2f, 0x3d9193f4, 0xbd8e28f7, 0x3d5a63b2, 0x3d8b83cc}, 0x00000000, CHANNEL_STATE_NOT_STARTED, NULL },
    {  42, {0x3c7773bb, 0xbe55e031, 0xbdec7153, 0x3dc73f43, 0x3d7f59ae, 0xbdc06e18, 0xbcf31d72, 0x3c1ae9c8, 0x3e335768}, 0x00000000, CHANNEL_STATE_NOT_STARTED, NULL },
    {  43, {0x3c21f40c, 0xbdddecf6, 0x3c911994, 0xbe197c5c, 0xbd4af2b7, 0xbd77ec1d, 0x3dc5c328, 0x3d937aec, 0x3da0cb90}, 0x00000000, CHANNEL_STATE_NOT_STARTED, NULL },
    {  44, {0x3e1adaeb, 0xbd6ada96, 0xbc167854, 0x3d3d0dcd, 0xbe357926, 0xbe022089, 0xbc66ed18, 0xbe50ce30, 0x3dc411dc}, 0x00000000, CHANNEL_STATE_NOT_STARTED, NULL },
    {  45, {0x3de38b83, 0x3ce45a1d, 0x3dcfc421, 0x3e1ed264, 0x3e153820, 0x3e1dd798, 0x3d9d61c9, 0x3d6ecd99, 0x3e00ce7d}, 0x00000000, CHANNEL_STATE_NOT_STARTED, NULL },
    {  46, {0x3ce13b55, 0xbc165065, 0x3ce10f44, 0x3d82c0a5, 0x3d7b577d, 0x3d18b33f, 0x3e83b0c9, 0x3e1302a5, 0x3db80b46}, 0x00000000, CHANNEL_STATE_NOT_STARTED, NULL },
    {  47, {0x3e54127c, 0x3e56c171, 0x3e8d34da, 0xbdaec82d, 0xbe257a2e, 0xbc967f12, 0xbde01275, 0xbd9361b3, 0xbe7c5385}, 0x3fa5a9c6, CHANNEL_STATE_NOT_STARTED, NULL },
    {  48, {0x3d87367d, 0x3e09555c, 0xbdff7eb4, 0x3eeb9fe3, 0x3ebb768a, 0x3e4d1413, 0x3ec7e28a, 0x3e81c2c5, 0x3eb16f1c}, 0x00000000, CHANNEL_STATE_NOT_STARTED, NULL },
    {  49, {0x3e0cab32, 0x3bcd13e1, 0x3e6a936c, 0xbd55265c, 0x3d48704b, 0x3dd34e3a, 0xbe415e17, 0xbdb7290f, 0xbd97b873}, 0x00000000, CHANNEL_STATE_NOT_STARTED, NULL },
    {  50, {0xbedba85d, 0xbe0a197f, 0xbf128fad, 0xbeab7ca0, 0xbdbbf7a5, 0xbd56572b, 0xbe6c5795, 0xbd8814c7, 0x3d2b5b0b}, 0x00000000, CHANNEL_STATE_NOT_STARTED, NULL },
    {  51, {0x3d5f1f5d, 0x3a8fbb5d, 0x3d9ebdf6, 0xbdf9f564, 0xbe126fc0, 0xbd5b6737, 0x3d0abad3, 0xbc6dd75d, 0xbd90e855}, 0x00000000, CHANNEL_STATE_NOT_STARTED, NULL },
    {  52, {0x3cda0a1c, 0x3d863030, 0xbe2ece66, 0x3e621039, 0x3e208c4f, 0x3e7097e2, 0x3e8657df, 0x3d5df804, 0x3db0a98e}, 0x00000000, CHANNEL_STATE_NOT_STARTED, NULL },
    {  53, {0x3dda6953, 0xbe4de08a, 0x3e0c0834, 0x3e3b4772, 0xbd05ddac, 0xbe1d3028, 0x3db5314f, 0x3d938437, 0xbe1dc323}, 0x00000000, CHANNEL_STATE_NOT_STARTED, NULL },
    {  54, {0x3d8c3f36, 0x3e006d6d, 0x3d783f85, 0x3e365f2c, 0xbe2a2823, 0xbd7b3d84, 0x3e7f9a62, 0xbe11d6d3, 0x3d1b45de}, 0x00000000, CHANNEL_STATE_NOT_STARTED, NULL },
    {  55, {0x3ecdbc9c, 0x3e26df3d, 0x3e180254, 0xbcc5be94, 0x3dc0eb4e, 0x3d8f9e03, 0xbd7b31e5, 0xbd2f5391, 0xbd4c0645}, 0x00000000, CHANNEL_STATE_NOT_STARTED, NULL },
    {  56, {0x3d8690a3, 0x3c2af793, 0x3dd35970, 0xbe052a47, 0xbe1310ce, 0xbdf575f6, 0xbdfb0c95, 0x3e13eace, 0xbe6fefae}, 0x00000000, CHANNEL_STATE_NOT_STARTED, NULL },
    {  57, {0xbdc867a2, 0xbd9c92c2, 0x3c82f754, 0xbd732408, 0xbdbdad2f, 0x3d9193f4, 0xbd8e28f7, 0x3d5a63b2, 0x3d8b83cc}, 0x00000000, CHANNEL_STATE_NOT_STARTED, NULL },
    {  58, {0x3c7773bb, 0xbe55e031, 0xbdec7153, 0x3dc73f43, 0x3d7f59ae, 0xbdc06e18, 0xbcf31d72, 0x3c1ae9c8, 0x3e335768}, 0x00000000, CHANNEL_STATE_NOT_STARTED, NULL },
    {  59, {0x3c21f40c, 0xbdddecf6, 0x3c911994, 0xbe197c5c, 0xbd4af2b7, 0xbd77ec1d, 0x3dc5c328, 0x3d937aec, 0x3da0cb90}, 0x00000000, CHANNEL_STATE_NOT_STARTED, NULL },
    {  60, {0x3e1adaeb, 0xbd6ada96, 0xbc167854, 0x3d3d0dcd, 0xbe357926, 0xbe022089, 0xbc66ed18, 0xbe50ce30, 0x3dc411dc}, 0x00000000, CHANNEL_STATE_NOT_STARTED, NULL },
    {  61, {0x3de38b83, 0x3ce45a1d, 0x3dcfc421, 0x3e1ed264, 0x3e153820, 0x3e1dd798, 0x3d9d61c9, 0x3d6ecd99, 0x3e00ce7d}, 0x00000000, CHANNEL_STATE_NOT_STARTED, NULL },
    {  62, {0x3ce13b55, 0xbc165065, 0x3ce10f44, 0x3d82c0a5, 0x3d7b577d, 0x3d18b33f, 0x3e83b0c9, 0x3e1302a5, 0x3db80b46}, 0x00000000, CHANNEL_STATE_NOT_STARTED, NULL },
    {  63, {0x3e54127c, 0x3e56c171, 0x3e8d34da, 0xbdaec82d, 0xbe257a2e, 0xbc967f12, 0xbde01275, 0xbd9361b3, 0xbe7c5385}, 0xbfe37b4f, CHANNEL_STATE_NOT_STARTED, NULL },
    {  64, {0x3d87367d, 0x3e09555c, 0xbdff7eb4, 0x3eeb9fe3, 0x3ebb768a, 0x3e4d1413, 0x3ec7e28a, 0x3e81c2c5, 0x3eb16f1c}, 0x00000000, CHANNEL_STATE_NOT_STARTED, NULL },
    {  65, {0x3e0cab32, 0x3bcd13e1, 0x3e6a936c, 0xbd55265c, 0x3d48704b, 0x3dd34e3a, 0xbe415e17, 0xbdb7290f, 0xbd97b873}, 0x00000000, CHANNEL_STATE_NOT_STARTED, NULL },
    {  66, {0xbedba85d, 0xbe0a197f, 0xbf128fad, 0xbeab7ca0, 0xbdbbf7a5, 0xbd56572b, 0xbe6c5795, 0xbd8814c7, 0x3d2b5b0b}, 0x00000000, CHANNEL_STATE_NOT_STARTED, NULL },
    {  67, {0x3d5f1f5d, 0x3a8fbb5d, 0x3d9ebdf6, 0xbdf9f564, 0xbe126fc0, 0xbd5b6737, 0x3d0abad3, 0xbc6dd75d, 0xbd90e855}, 0x00000000, CHANNEL_STATE_NOT_STARTED, NULL },
    {  68, {0x3cda0a1c, 0x3d863030, 0xbe2ece66, 0x3e621039, 0x3e208c4f, 0x3e7097e2, 0x3e8657df, 0x3d5df804, 0x3db0a98e}, 0x00000000, CHANNEL_STATE_NOT_STARTED, NULL },
    {  69, {0x3dda6953, 0xbe4de08a, 0x3e0c0834, 0x3e3b4772, 0xbd05ddac, 0xbe1d3028, 0x3db5314f, 0x3d938437, 0xbe1dc323}, 0x00000000, CHANNEL_STATE_NOT_STARTED, NULL },
    {  70, {0x3d8c3f36, 0x3e006d6d, 0x3d783f85, 0x3e365f2c, 0xbe2a2823, 0xbd7b3d84, 0x3e7f9a62, 0xbe11d6d3, 0x3d1b45de}, 0x00000000, CHANNEL_STATE_NOT_STARTED, NULL },
    {  71, {0x3ecdbc9c, 0x3e26df3d, 0x3e180254, 0xbcc5be94, 0x3dc0eb4e, 0x3d8f9e03, 0xbd7b31e5, 0xbd2f5391, 0xbd4c0645}, 0x00000000, CHANNEL_STATE_NOT_STARTED, NULL },
    {  72, {0x3d8690a3, 0x3c2af793, 0x3dd35970, 0xbe052a47, 0xbe1310ce, 0xbdf575f6, 0xbdfb0c95, 0x3e13eace, 0xbe6fefae}, 0x00000000, CHANNEL_STATE_NOT_STARTED, NULL },
    {  73, {0xbdc867a2, 0xbd9c92c2, 0x3c82f754, 0xbd732408, 0xbdbdad2f, 0x3d9193f4, 0xbd8e28f7, 0x3d5a63b2, 0x3d8b83cc}, 0x00000000, CHANNEL_STATE_NOT_STARTED, NULL },
    {  74, {0x3c7773bb, 0xbe55e031, 0xbdec7153, 0x3dc73f43, 0x3d7f59ae, 0xbdc06e18, 0xbcf31d72, 0x3c1ae9c8, 0x3e335768}, 0x00000000, CHANNEL_STATE_NOT_STARTED, NULL },
    {  75, {0x3c21f40c, 0xbdddecf6, 0x3c911994, 0xbe197c5c, 0xbd4af2b7, 0xbd77ec1d, 0x3dc5c328, 0x3d937aec, 0x3da0cb90}, 0x00000000, CHANNEL_STATE_NOT_STARTED, NULL },
    {  76, {0x3e1adaeb, 0xbd6ada96, 0xbc167854, 0x3d3d0dcd, 0xbe357926, 0xbe022089, 0xbc66ed18, 0xbe50ce30, 0x3dc411dc}, 0x00000000, CHANNEL_STATE_NOT_STARTED, NULL },
    {  77, {0x3de38b83, 0x3ce45a1d, 0x3dcfc421, 0x3e1ed264, 0x3e153820, 0x3e1dd798, 0x3d9d61c9, 0x3d6ecd99, 0x3e00ce7d}, 0x00000000, CHANNEL_STATE_NOT_STARTED, NULL },
    {  78, {0x3ce13b55, 0xbc165065, 0x3ce10f44, 0x3d82c0a5, 0x3d7b577d, 0x3d18b33f, 0x3e83b0c9, 0x3e1302a5, 0x3db80b46}, 0x00000000, CHANNEL_STATE_NOT_STARTED, NULL },
    {  79, {0x3e54127c, 0x3e56c171, 0x3e8d34da, 0xbdaec82d, 0xbe257a2e, 0xbc967f12, 0xbde01275, 0xbd9361b3, 0xbe7c5385}, 0x3ecb0eec, CHANNEL_STATE_NOT_STARTED, NULL },
    {  80, {0x3d87367d, 0x3e09555c, 0xbdff7eb4, 0x3eeb9fe3, 0x3ebb768a, 0x3e4d1413, 0x3ec7e28a, 0x3e81c2c5, 0x3eb16f1c}, 0x00000000, CHANNEL_STATE_NOT_STARTED, NULL },
    {  81, {0x3e0cab32, 0x3bcd13e1, 0x3e6a936c, 0xbd55265c, 0x3d48704b, 0x3dd34e3a, 0xbe415e17, 0xbdb7290f, 0xbd97b873}, 0x00000000, CHANNEL_STATE_NOT_STARTED, NULL },
    {  82, {0xbedba85d, 0xbe0a197f, 0xbf128fad, 0xbeab7ca0, 0xbdbbf7a5, 0xbd56572b, 0xbe6c5795, 0xbd8814c7, 0x3d2b5b0b}, 0x00000000, CHANNEL_STATE_NOT_STARTED, NULL },
    {  83, {0x3d5f1f5d, 0x3a8fbb5d, 0x3d9ebdf6, 0xbdf9f564, 0xbe126fc0, 0xbd5b6737, 0x3d0abad3, 0xbc6dd75d, 0xbd90e855}, 0x00000000, CHANNEL_STATE_NOT_STARTED, NULL },
    {  84, {0x3cda0a1c, 0x3d863030, 0xbe2ece66, 0x3e621039, 0x3e208c4f, 0x3e7097e2, 0x3e8657df, 0x3d5df804, 0x3db0a98e}, 0x00000000, CHANNEL_STATE_NOT_STARTED, NULL },
    {  85, {0x3dda6953, 0xbe4de08a, 0x3e0c0834, 0x3e3b4772, 0xbd05ddac, 0xbe1d3028, 0x3db5314f, 0x3d938437, 0xbe1dc323}, 0x00000000, CHANNEL_STATE_NOT_STARTED, NULL },
    {  86, {0x3d8c3f36, 0x3e006d6d, 0x3d783f85, 0x3e365f2c, 0xbe2a2823, 0xbd7b3d84, 0x3e7f9a62, 0xbe11d6d3, 0x3d1b45de}, 0x00000000, CHANNEL_STATE_NOT_STARTED, NULL },
    {  87, {0x3ecdbc9c, 0x3e26df3d, 0x3e180254, 0xbcc5be94, 0x3dc0eb4e, 0x3d8f9e03, 0xbd7b31e5, 0xbd2f5391, 0xbd4c0645}, 0x00000000, CHANNEL_STATE_NOT_STARTED, NULL },
    {  88, {0x3d8690a3, 0x3c2af793, 0x3dd35970, 0xbe052a47, 0xbe1310ce, 0xbdf575f6, 0xbdfb0c95, 0x3e13eace, 0xbe6fefae}, 0x00000000, CHANNEL_STATE_NOT_STARTED, NULL },
    {  89, {0xbdc867a2, 0xbd9c92c2, 0x3c82f754, 0xbd732408, 0xbdbdad2f, 0x3d9193f4, 0xbd8e28f7, 0x3d5a63b2, 0x3d8b83cc}, 0x00000000, CHANNEL_STATE_NOT_STARTED, NULL },
    {  90, {0x3c7773bb, 0xbe55e031, 0xbdec7153, 0x3dc73f43, 0x3d7f59ae, 0xbdc06e18, 0xbcf31d72, 0x3c1ae9c8, 0x3e335768}, 0x00000000, CHANNEL_STATE_NOT_STARTED, NULL },
    {  91, {0x3c21f40c, 0xbdddecf6, 0x3c911994, 0xbe197c5c, 0xbd4af2b7, 0xbd77ec1d, 0x3dc5c328, 0x3d937aec, 0x3da0cb90}, 0x00000000, CHANNEL_STATE_NOT_STARTED, NULL },
    {  92, {0x3e1adaeb, 0xbd6ada96, 0xbc167854, 0x3d3d0dcd, 0xbe357926, 0xbe022089, 0xbc66ed18, 0xbe50ce30, 0x3dc411dc}, 0x00000000, CHANNEL_STATE_NOT_STARTED, NULL },
    {  93, {0x3de38b83, 0x3ce45a1d, 0x3dcfc421, 0x3e1ed264, 0x3e153820, 0x3e1dd798, 0x3d9d61c9, 0x3d6ecd99, 0x3e00ce7d}, 0x00000000, CHANNEL_STATE_NOT_STARTED, NULL },
    {  94, {0x3ce13b55, 0xbc165065, 0x3ce10f44, 0x3d82c0a5, 0x3d7b577d, 0x3d18b33f, 0x3e83b0c9, 0x3e1302a5, 0x3db80b46}, 0x00000000, CHANNEL_STATE_NOT_STARTED, NULL },
    {  95, {0x3e54127c, 0x3e56c171, 0x3e8d34da, 0xbdaec82d, 0xbe257a2e, 0xbc967f12, 0xbde01275, 0xbd9361b3, 0xbe7c5385}, 0x3f08c3ff, CHANNEL_STATE_NOT_STARTED, NULL },
    {  96, {0x3d87367d, 0x3e09555c, 0xbdff7eb4, 0x3eeb9fe3, 0x3ebb768a, 0x3e4d1413, 0x3ec7e28a, 0x3e81c2c5, 0x3eb16f1c}, 0x00000000, CHANNEL_STATE_NOT_STARTED, NULL },
    {  97, {0x3e0cab32, 0x3bcd13e1, 0x3e6a936c, 0xbd55265c, 0x3d48704b, 0x3dd34e3a, 0xbe415e17, 0xbdb7290f, 0xbd97b873}, 0x00000000, CHANNEL_STATE_NOT_STARTED, NULL },
    {  98, {0xbedba85d, 0xbe0a197f, 0xbf128fad, 0xbeab7ca0, 0xbdbbf7a5, 0xbd56572b, 0xbe6c5795, 0xbd8814c7, 0x3d2b5b0b}, 0x00000000, CHANNEL_STATE_NOT_STARTED, NULL },
    {  99, {0x3d5f1f5d, 0x3a8fbb5d, 0x3d9ebdf6, 0xbdf9f564, 0xbe126fc0, 0xbd5b6737, 0x3d0abad3, 0xbc6dd75d, 0xbd90e855}, 0x00000000, CHANNEL_STATE_NOT_STARTED, NULL },
    { 100, {0x3cda0a1c, 0x3d863030, 0xbe2ece66, 0x3e621039, 0x3e208c4f, 0x3e7097e2, 0x3e8657df, 0x3d5df804, 0x3db0a98e}, 0x00000000, CHANNEL_STATE_NOT_STARTED, NULL },
    { 101, {0x3dda6953, 0xbe4de08a, 0x3e0c0834, 0x3e3b4772, 0xbd05ddac, 0xbe1d3028, 0x3db5314f, 0x3d938437, 0xbe1dc323}, 0x00000000, CHANNEL_STATE_NOT_STARTED, NULL },
    { 102, {0x3d8c3f36, 0x3e006d6d, 0x3d783f85, 0x3e365f2c, 0xbe2a2823, 0xbd7b3d84, 0x3e7f9a62, 0xbe11d6d3, 0x3d1b45de}, 0x00000000, CHANNEL_STATE_NOT_STARTED, NULL },
    { 103, {0x3ecdbc9c, 0x3e26df3d, 0x3e180254, 0xbcc5be94, 0x3dc0eb4e, 0x3d8f9e03, 0xbd7b31e5, 0xbd2f5391, 0xbd4c0645}, 0x00000000, CHANNEL_STATE_NOT_STARTED, NULL },
    { 104, {0x3d8690a3, 0x3c2af793, 0x3dd35970, 0xbe052a47, 0xbe1310ce, 0xbdf575f6, 0xbdfb0c95, 0x3e13eace, 0xbe6fefae}, 0x00000000, CHANNEL_STATE_NOT_STARTED, NULL },
    { 105, {0xbdc867a2, 0xbd9c92c2, 0x3c82f754, 0xbd732408, 0xbdbdad2f, 0x3d9193f4, 0xbd8e28f7, 0x3d5a63b2, 0x3d8b83cc}, 0x00000000, CHANNEL_STATE_NOT_STARTED, NULL },
    { 106, {0x3c7773bb, 0xbe55e031, 0xbdec7153, 0x3dc73f43, 0x3d7f59ae, 0xbdc06e18, 0xbcf31d72, 0x3c1ae9c8, 0x3e335768}, 0x00000000, CHANNEL_STATE_NOT_STARTED, NULL },
    { 107, {0x3c21f40c, 0xbdddecf6, 0x3c911994, 0xbe197c5c, 0xbd4af2b7, 0xbd77ec1d, 0x3dc5c328, 0x3d937aec, 0x3da0cb90}, 0x00000000, CHANNEL_STATE_NOT_STARTED, NULL },
    { 108, {0x3e1adaeb, 0xbd6ada96, 0xbc167854, 0x3d3d0dcd, 0xbe357926, 0xbe022089, 0xbc66ed18, 0xbe50ce30, 0x3dc411dc}, 0x00000000, CHANNEL_STATE_NOT_STARTED, NULL },
    { 109, {0x3de38b83, 0x3ce45a1d, 0x3dcfc421, 0x3e1ed264, 0x3e153820, 0x3e1dd798, 0x3d9d61c9, 0x3d6ecd99, 0x3e00ce7d}, 0x00000000, CHANNEL_STATE_NOT_STARTED, NULL },
    { 110, {0x3ce13b55, 0xbc165065, 0x3ce10f44, 0x3d82c0a5, 0x3d7b577d, 0x3d18b33f, 0x3e83b0c9, 0x3e1302a5, 0x3db80b46}, 0x00000000, CHANNEL_STATE_NOT_STARTED, NULL },
    { 111, {0x3e54127c, 0x3e56c171, 0x3e8d34da, 0xbdaec82d, 0xbe257a2e, 0xbc967f12, 0xbde01275, 0xbd9361b3, 0xbe7c5385}, 0x3fac3302, CHANNEL_STATE_NOT_STARTED, NULL },
    { 112, {0x3d87367d, 0x3e09555c, 0xbdff7eb4, 0x3eeb9fe3, 0x3ebb768a, 0x3e4d1413, 0x3ec7e28a, 0x3e81c2c5, 0x3eb16f1c}, 0x00000000, CHANNEL_STATE_NOT_STARTED, NULL },
    { 113, {0x3e0cab32, 0x3bcd13e1, 0x3e6a936c, 0xbd55265c, 0x3d48704b, 0x3dd34e3a, 0xbe415e17, 0xbdb7290f, 0xbd97b873}, 0x00000000, CHANNEL_STATE_NOT_STARTED, NULL },
    { 114, {0xbedba85d, 0xbe0a197f, 0xbf128fad, 0xbeab7ca0, 0xbdbbf7a5, 0xbd56572b, 0xbe6c5795, 0xbd8814c7, 0x3d2b5b0b}, 0x00000000, CHANNEL_STATE_NOT_STARTED, NULL },
    { 115, {0x3d5f1f5d, 0x3a8fbb5d, 0x3d9ebdf6, 0xbdf9f564, 0xbe126fc0, 0xbd5b6737, 0x3d0abad3, 0xbc6dd75d, 0xbd90e855}, 0x00000000, CHANNEL_STATE_NOT_STARTED, NULL },
    { 116, {0x3cda0a1c, 0x3d863030, 0xbe2ece66, 0x3e621039, 0x3e208c4f, 0x3e7097e2, 0x3e8657df, 0x3d5df804, 0x3db0a98e}, 0x00000000, CHANNEL_STATE_NOT_STARTED, NULL },
    { 117, {0x3dda6953, 0xbe4de08a, 0x3e0c0834, 0x3e3b4772, 0xbd05ddac, 0xbe1d3028, 0x3db5314f, 0x3d938437, 0xbe1dc323}, 0x00000000, CHANNEL_STATE_NOT_STARTED, NULL },
    { 118, {0x3d8c3f36, 0x3e006d6d, 0x3d783f85, 0x3e365f2c, 0xbe2a2823, 0xbd7b3d84, 0x3e7f9a62, 0xbe11d6d3, 0x3d1b45de}, 0x00000000, CHANNEL_STATE_NOT_STARTED, NULL },
    { 119, {0x3ecdbc9c, 0x3e26df3d, 0x3e180254, 0xbcc5be94, 0x3dc0eb4e, 0x3d8f9e03, 0xbd7b31e5, 0xbd2f5391, 0xbd4c0645}, 0x00000000, CHANNEL_STATE_NOT_STARTED, NULL },
    { 120, {0x3d8690a3, 0x3c2af793, 0x3dd35970, 0xbe052a47, 0xbe1310ce, 0xbdf575f6, 0xbdfb0c95, 0x3e13eace, 0xbe6fefae}, 0x00000000, CHANNEL_STATE_NOT_STARTED, NULL },
    { 121, {0xbdc867a2, 0xbd9c92c2, 0x3c82f754, 0xbd732408, 0xbdbdad2f, 0x3d9193f4, 0xbd8e28f7, 0x3d5a63b2, 0x3d8b83cc}, 0x00000000, CHANNEL_STATE_NOT_STARTED, NULL },
    { 122, {0x3c7773bb, 0xbe55e031, 0xbdec7153, 0x3dc73f43, 0x3d7f59ae, 0xbdc06e18, 0xbcf31d72, 0x3c1ae9c8, 0x3e335768}, 0x00000000, CHANNEL_STATE_NOT_STARTED, NULL },
    { 123, {0x3c21f40c, 0xbdddecf6, 0x3c911994, 0xbe197c5c, 0xbd4af2b7, 0xbd77ec1d, 0x3dc5c328, 0x3d937aec, 0x3da0cb90}, 0x00000000, CHANNEL_STATE_NOT_STARTED, NULL },
    { 124, {0x3e1adaeb, 0xbd6ada96, 0xbc167854, 0x3d3d0dcd, 0xbe357926, 0xbe022089, 0xbc66ed18, 0xbe50ce30, 0x3dc411dc}, 0x00000000, CHANNEL_STATE_NOT_STARTED, NULL },
    { 125, {0x3de38b83, 0x3ce45a1d, 0x3dcfc421, 0x3e1ed264, 0x3e153820, 0x3e1dd798, 0x3d9d61c9, 0x3d6ecd99, 0x3e00ce7d}, 0x00000000, CHANNEL_STATE_NOT_STARTED, NULL },
    { 126, {0x3ce13b55, 0xbc165065, 0x3ce10f44, 0x3d82c0a5, 0x3d7b577d, 0x3d18b33f, 0x3e83b0c9, 0x3e1302a5, 0x3db80b46}, 0x00000000, CHANNEL_STATE_NOT_STARTED, NULL },
    { 127, {0x3e54127c, 0x3e56c171, 0x3e8d34da, 0xbdaec82d, 0xbe257a2e, 0xbc967f12, 0xbde01275, 0xbd9361b3, 0xbe7c5385}, 0x3f4599b2, CHANNEL_STATE_NOT_STARTED, NULL },
    { 128, {0x3d87367d, 0x3e09555c, 0xbdff7eb4, 0x3eeb9fe3, 0x3ebb768a, 0x3e4d1413, 0x3ec7e28a, 0x3e81c2c5, 0x3eb16f1c}, 0x00000000, CHANNEL_STATE_NOT_STARTED, NULL },
    { 129, {0x3e0cab32, 0x3bcd13e1, 0x3e6a936c, 0xbd55265c, 0x3d48704b, 0x3dd34e3a, 0xbe415e17, 0xbdb7290f, 0xbd97b873}, 0x00000000, CHANNEL_STATE_NOT_STARTED, NULL },
    { 130, {0xbedba85d, 0xbe0a197f, 0xbf128fad, 0xbeab7ca0, 0xbdbbf7a5, 0xbd56572b, 0xbe6c5795, 0xbd8814c7, 0x3d2b5b0b}, 0x00000000, CHANNEL_STATE_NOT_STARTED, NULL },
    { 131, {0x3d5f1f5d, 0x3a8fbb5d, 0x3d9ebdf6, 0xbdf9f564, 0xbe126fc0, 0xbd5b6737, 0x3d0abad3, 0xbc6dd75d, 0xbd90e855}, 0x00000000, CHANNEL_STATE_NOT_STARTED, NULL },
    { 132, {0x3cda0a1c, 0x3d863030, 0xbe2ece66, 0x3e621039, 0x3e208c4f, 0x3e7097e2, 0x3e8657df, 0x3d5df804, 0x3db0a98e}, 0x00000000, CHANNEL_STATE_NOT_STARTED, NULL },
    { 133, {0x3dda6953, 0xbe4de08a, 0x3e0c0834, 0x3e3b4772, 0xbd05ddac, 0xbe1d3028, 0x3db5314f, 0x3d938437, 0xbe1dc323}, 0x00000000, CHANNEL_STATE_NOT_STARTED, NULL },
    { 134, {0x3d8c3f36, 0x3e006d6d, 0x3d783f85, 0x3e365f2c, 0xbe2a2823, 0xbd7b3d84, 0x3e7f9a62, 0xbe11d6d3, 0x3d1b45de}, 0x00000000, CHANNEL_STATE_NOT_STARTED, NULL },
    { 135, {0x3ecdbc9c, 0x3e26df3d, 0x3e180254, 0xbcc5be94, 0x3dc0eb4e, 0x3d8f9e03, 0xbd7b31e5, 0xbd2f5391, 0xbd4c0645}, 0x00000000, CHANNEL_STATE_NOT_STARTED, NULL },
    { 136, {0x3d8690a3, 0x3c2af793, 0x3dd35970, 0xbe052a47, 0xbe1310ce, 0xbdf575f6, 0xbdfb0c95, 0x3e13eace, 0xbe6fefae}, 0x00000000, CHANNEL_STATE_NOT_STARTED, NULL },
    { 137, {0xbdc867a2, 0xbd9c92c2, 0x3c82f754, 0xbd732408, 0xbdbdad2f, 0x3d9193f4, 0xbd8e28f7, 0x3d5a63b2, 0x3d8b83cc}, 0x00000000, CHANNEL_STATE_NOT_STARTED, NULL },
    { 138, {0x3c7773bb, 0xbe55e031, 0xbdec7153, 0x3dc73f43, 0x3d7f59ae, 0xbdc06e18, 0xbcf31d72, 0x3c1ae9c8, 0x3e335768}, 0x00000000, CHANNEL_STATE_NOT_STARTED, NULL },
    { 139, {0x3c21f40c, 0xbdddecf6, 0x3c911994, 0xbe197c5c, 0xbd4af2b7, 0xbd77ec1d, 0x3dc5c328, 0x3d937aec, 0x3da0cb90}, 0x00000000, CHANNEL_STATE_NOT_STARTED, NULL },
    { 140, {0x3e1adaeb, 0xbd6ada96, 0xbc167854, 0x3d3d0dcd, 0xbe357926, 0xbe022089, 0xbc66ed18, 0xbe50ce30, 0x3dc411dc}, 0x00000000, CHANNEL_STATE_NOT_STARTED, NULL },
    { 141, {0x3de38b83, 0x3ce45a1d, 0x3dcfc421, 0x3e1ed264, 0x3e153820, 0x3e1dd798, 0x3d9d61c9, 0x3d6ecd99, 0x3e00ce7d}, 0x00000000, CHANNEL_STATE_NOT_STARTED, NULL },
    { 142, {0x3ce13b55, 0xbc165065, 0x3ce10f44, 0x3d82c0a5, 0x3d7b577d, 0x3d18b33f, 0x3e83b0c9, 0x3e1302a5, 0x3db80b46}, 0x00000000, CHANNEL_STATE_NOT_STARTED, NULL },
    { 143, {0x3e54127c, 0x3e56c171, 0x3e8d34da, 0xbdaec82d, 0xbe257a2e, 0xbc967f12, 0xbde01275, 0xbd9361b3, 0xbe7c5385}, 0x3f49a978, CHANNEL_STATE_NOT_STARTED, NULL },
    { 144, {0x3d87367d, 0x3e09555c, 0xbdff7eb4, 0x3eeb9fe3, 0x3ebb768a, 0x3e4d1413, 0x3ec7e28a, 0x3e81c2c5, 0x3eb16f1c}, 0x00000000, CHANNEL_STATE_NOT_STARTED, NULL },
    { 145, {0x3e0cab32, 0x3bcd13e1, 0x3e6a936c, 0xbd55265c, 0x3d48704b, 0x3dd34e3a, 0xbe415e17, 0xbdb7290f, 0xbd97b873}, 0x00000000, CHANNEL_STATE_NOT_STARTED, NULL },
    { 146, {0xbedba85d, 0xbe0a197f, 0xbf128fad, 0xbeab7ca0, 0xbdbbf7a5, 0xbd56572b, 0xbe6c5795, 0xbd8814c7, 0x3d2b5b0b}, 0x00000000, CHANNEL_STATE_NOT_STARTED, NULL },
    { 147, {0x3d5f1f5d, 0x3a8fbb5d, 0x3d9ebdf6, 0xbdf9f564, 0xbe126fc0, 0xbd5b6737, 0x3d0abad3, 0xbc6dd75d, 0xbd90e855}, 0x00000000, CHANNEL_STATE_NOT_STARTED, NULL },
    { 148, {0x3cda0a1c, 0x3d863030, 0xbe2ece66, 0x3e621039, 0x3e208c4f, 0x3e7097e2, 0x3e8657df, 0x3d5df804, 0x3db0a98e}, 0x00000000, CHANNEL_STATE_NOT_STARTED, NULL },
    { 149, {0x3dda6953, 0xbe4de08a, 0x3e0c0834, 0x3e3b4772, 0xbd05ddac, 0xbe1d3028, 0x3db5314f, 0x3d938437, 0xbe1dc323}, 0x00000000, CHANNEL_STATE_NOT_STARTED, NULL },
    { 150, {0x3d8c3f36, 0x3e006d6d, 0x3d783f85, 0x3e365f2c, 0xbe2a2823, 0xbd7b3d84, 0x3e7f9a62, 0xbe11d6d3, 0x3d1b45de}, 0x00000000, CHANNEL_STATE_NOT_STARTED, NULL },
    { 151, {0x3ecdbc9c, 0x3e26df3d, 0x3e180254, 0xbcc5be94, 0x3dc0eb4e, 0x3d8f9e03, 0xbd7b31e5, 0xbd2f5391, 0xbd4c0645}, 0x00000000, CHANNEL_STATE_NOT_STARTED, NULL },
    { 152, {0x3d8690a3, 0x3c2af793, 0x3dd35970, 0xbe052a47, 0xbe1310ce, 0xbdf575f6, 0xbdfb0c95, 0x3e13eace, 0xbe6fefae}, 0x00000000, CHANNEL_STATE_NOT_STARTED, NULL },
    { 153, {0xbdc867a2, 0xbd9c92c2, 0x3c82f754, 0xbd732408, 0xbdbdad2f, 0x3d9193f4, 0xbd8e28f7, 0x3d5a63b2, 0x3d8b83cc}, 0x00000000, CHANNEL_STATE_NOT_STARTED, NULL },
    { 154, {0x3c7773bb, 0xbe55e031, 0xbdec7153, 0x3dc73f43, 0x3d7f59ae, 0xbdc06e18, 0xbcf31d72, 0x3c1ae9c8, 0x3e335768}, 0x00000000, CHANNEL_STATE_NOT_STARTED, NULL },
    { 155, {0x3c21f40c, 0xbdddecf6, 0x3c911994, 0xbe197c5c, 0xbd4af2b7, 0xbd77ec1d, 0x3dc5c328, 0x3d937aec, 0x3da0cb90}, 0x00000000, CHANNEL_STATE_NOT_STARTED, NULL },
    { 156, {0x3e1adaeb, 0xbd6ada96, 0xbc167854, 0x3d3d0dcd, 0xbe357926, 0xbe022089, 0xbc66ed18, 0xbe50ce30, 0x3dc411dc}, 0x00000000, CHANNEL_STATE_NOT_STARTED, NULL },
    { 157, {0x3de38b83, 0x3ce45a1d, 0x3dcfc421, 0x3e1ed264, 0x3e153820, 0x3e1dd798, 0x3d9d61c9, 0x3d6ecd99, 0x3e00ce7d}, 0x00000000, CHANNEL_STATE_NOT_STARTED, NULL },
    { 158, {0x3ce13b55, 0xbc165065, 0x3ce10f44, 0x3d82c0a5, 0x3d7b577d, 0x3d18b33f, 0x3e83b0c9, 0x3e1302a5, 0x3db80b46}, 0x00000000, CHANNEL_STATE_NOT_STARTED, NULL },
    { 159, {0x3e54127c, 0x3e56c171, 0x3e8d34da, 0xbdaec82d, 0xbe257a2e, 0xbc967f12, 0xbde01275, 0xbd9361b3, 0xbe7c5385}, 0x3e9ff2a6, CHANNEL_STATE_NOT_STARTED, NULL },
    { 160, {0x3d87367d, 0x3e09555c, 0xbdff7eb4, 0x3eeb9fe3, 0x3ebb768a, 0x3e4d1413, 0x3ec7e28a, 0x3e81c2c5, 0x3eb16f1c}, 0x00000000, CHANNEL_STATE_NOT_STARTED, NULL },
    { 161, {0x3e0cab32, 0x3bcd13e1, 0x3e6a936c, 0xbd55265c, 0x3d48704b, 0x3dd34e3a, 0xbe415e17, 0xbdb7290f, 0xbd97b873}, 0x00000000, CHANNEL_STATE_NOT_STARTED, NULL },
    { 162, {0xbedba85d, 0xbe0a197f, 0xbf128fad, 0xbeab7ca0, 0xbdbbf7a5, 0xbd56572b, 0xbe6c5795, 0xbd8814c7, 0x3d2b5b0b}, 0x00000000, CHANNEL_STATE_NOT_STARTED, NULL },
    { 163, {0x3d5f1f5d, 0x3a8fbb5d, 0x3d9ebdf6, 0xbdf9f564, 0xbe126fc0, 0xbd5b6737, 0x3d0abad3, 0xbc6dd75d, 0xbd90e855}, 0x00000000, CHANNEL_STATE_NOT_STARTED, NULL },
    { 164, {0x3cda0a1c, 0x3d863030, 0xbe2ece66, 0x3e621039, 0x3e208c4f, 0x3e7097e2, 0x3e8657df, 0x3d5df804, 0x3db0a98e}, 0x00000000, CHANNEL_STATE_NOT_STARTED, NULL },
    { 165, {0x3dda6953, 0xbe4de08a, 0x3e0c0834, 0x3e3b4772, 0xbd05ddac, 0xbe1d3028, 0x3db5314f, 0x3d938437, 0xbe1dc323}, 0x00000000, CHANNEL_STATE_NOT_STARTED, NULL },
    { 166, {0x3d8c3f36, 0x3e006d6d, 0x3d783f85, 0x3e365f2c, 0xbe2a2823, 0xbd7b3d84, 0x3e7f9a62, 0xbe11d6d3, 0x3d1b45de}, 0x00000000, CHANNEL_STATE_NOT_STARTED, NULL },
    { 167, {0x3ecdbc9c, 0x3e26df3d, 0x3e180254, 0xbcc5be94, 0x3dc0eb4e, 0x3d8f9e03, 0xbd7b31e5, 0xbd2f5391, 0xbd4c0645}, 0x00000000, CHANNEL_STATE_NOT_STARTED, NULL },
    { 168, {0x3d8690a3, 0x3c2af793, 0x3dd35970, 0xbe052a47, 0xbe1310ce, 0xbdf575f6, 0xbdfb0c95, 0x3e13eace, 0xbe6fefae}, 0x00000000, CHANNEL_STATE_NOT_STARTED, NULL },
    { 169, {0xbdc867a2, 0xbd9c92c2, 0x3c82f754, 0xbd732408, 0xbdbdad2f, 0x3d9193f4, 0xbd8e28f7, 0x3d5a63b2, 0x3d8b83cc}, 0x00000000, CHANNEL_STATE_NOT_STARTED, NULL },
    { 170, {0x3c7773bb, 0xbe55e031, 0xbdec7153, 0x3dc73f43, 0x3d7f59ae, 0xbdc06e18, 0xbcf31d72, 0x3c1ae9c8, 0x3e335768}, 0x00000000, CHANNEL_STATE_NOT_STARTED, NULL },
    { 171, {0x3c21f40c, 0xbdddecf6, 0x3c911994, 0xbe197c5c, 0xbd4af2b7, 0xbd77ec1d, 0x3dc5c328, 0x3d937aec, 0x3da0cb90}, 0x00000000, CHANNEL_STATE_NOT_STARTED, NULL },
    { 172, {0x3e1adaeb, 0xbd6ada96, 0xbc167854, 0x3d3d0dcd, 0xbe357926, 0xbe022089, 0xbc66ed18, 0xbe50ce30, 0x3dc411dc}, 0x00000000, CHANNEL_STATE_NOT_STARTED, NULL },
    { 173, {0x3de38b83, 0x3ce45a1d, 0x3dcfc421, 0x3e1ed264, 0x3e153820, 0x3e1dd798, 0x3d9d61c9, 0x3d6ecd99, 0x3e00ce7d}, 0x00000000, CHANNEL_STATE_NOT_STARTED, NULL },
    { 174, {0x3ce13b55, 0xbc165065, 0x3ce10f44, 0x3d82c0a5, 0x3d7b577d, 0x3d18b33f, 0x3e83b0c9, 0x3e1302a5, 0x3db80b46}, 0x00000000, CHANNEL_STATE_NOT_STARTED, NULL },
    { 175, {0x3e54127c, 0x3e56c171, 0x3e8d34da, 0xbdaec82d, 0xbe257a2e, 0xbc967f12, 0xbde01275, 0xbd9361b3, 0xbe7c5385}, 0xbec22ddb, CHANNEL_STATE_NOT_STARTED, NULL },
    { 176, {0x3d87367d, 0x3e09555c, 0xbdff7eb4, 0x3eeb9fe3, 0x3ebb768a, 0x3e4d1413, 0x3ec7e28a, 0x3e81c2c5, 0x3eb16f1c}, 0x00000000, CHANNEL_STATE_NOT_STARTED, NULL },
    { 177, {0x3e0cab32, 0x3bcd13e1, 0x3e6a936c, 0xbd55265c, 0x3d48704b, 0x3dd34e3a, 0xbe415e17, 0xbdb7290f, 0xbd97b873}, 0x00000000, CHANNEL_STATE_NOT_STARTED, NULL },
    { 178, {0xbedba85d, 0xbe0a197f, 0xbf128fad, 0xbeab7ca0, 0xbdbbf7a5, 0xbd56572b, 0xbe6c5795, 0xbd8814c7, 0x3d2b5b0b}, 0x00000000, CHANNEL_STATE_NOT_STARTED, NULL },
    { 179, {0x3d5f1f5d, 0x3a8fbb5d, 0x3d9ebdf6, 0xbdf9f564, 0xbe126fc0, 0xbd5b6737, 0x3d0abad3, 0xbc6dd75d, 0xbd90e855}, 0x00000000, CHANNEL_STATE_NOT_STARTED, NULL },
    { 180, {0x3cda0a1c, 0x3d863030, 0xbe2ece66, 0x3e621039, 0x3e208c4f, 0x3e7097e2, 0x3e8657df, 0x3d5df804, 0x3db0a98e}, 0x00000000, CHANNEL_STATE_NOT_STARTED, NULL },
    { 181, {0x3dda6953, 0xbe4de08a, 0x3e0c0834, 0x3e3b4772, 0xbd05ddac, 0xbe1d3028, 0x3db5314f, 0x3d938437, 0xbe1dc323}, 0x00000000, CHANNEL_STATE_NOT_STARTED, NULL },
    { 182, {0x3d8c3f36, 0x3e006d6d, 0x3d783f85, 0x3e365f2c, 0xbe2a2823, 0xbd7b3d84, 0x3e7f9a62, 0xbe11d6d3, 0x3d1b45de}, 0x00000000, CHANNEL_STATE_NOT_STARTED, NULL },
    { 183, {0x3ecdbc9c, 0x3e26df3d, 0x3e180254, 0xbcc5be94, 0x3dc0eb4e, 0x3d8f9e03, 0xbd7b31e5, 0xbd2f5391, 0xbd4c0645}, 0x00000000, CHANNEL_STATE_NOT_STARTED, NULL },
    { 184, {0x3d8690a3, 0x3c2af793, 0x3dd35970, 0xbe052a47, 0xbe1310ce, 0xbdf575f6, 0xbdfb0c95, 0x3e13eace, 0xbe6fefae}, 0x00000000, CHANNEL_STATE_NOT_STARTED, NULL },
    { 185, {0xbdc867a2, 0xbd9c92c2, 0x3c82f754, 0xbd732408, 0xbdbdad2f, 0x3d9193f4, 0xbd8e28f7, 0x3d5a63b2, 0x3d8b83cc}, 0x00000000, CHANNEL_STATE_NOT_STARTED, NULL },
    { 186, {0x3c7773bb, 0xbe55e031, 0xbdec7153, 0x3dc73f43, 0x3d7f59ae, 0xbdc06e18, 0xbcf31d72, 0x3c1ae9c8, 0x3e335768}, 0x00000000, CHANNEL_STATE_NOT_STARTED, NULL },
    { 187, {0x3c21f40c, 0xbdddecf6, 0x3c911994, 0xbe197c5c, 0xbd4af2b7, 0xbd77ec1d, 0x3dc5c328, 0x3d937aec, 0x3da0cb90}, 0x00000000, CHANNEL_STATE_NOT_STARTED, NULL },
    { 188, {0x3e1adaeb, 0xbd6ada96, 0xbc167854, 0x3d3d0dcd, 0xbe357926, 0xbe022089, 0xbc66ed18, 0xbe50ce30, 0x3dc411dc}, 0x00000000, CHANNEL_STATE_NOT_STARTED, NULL },
    { 189, {0x3de38b83, 0x3ce45a1d, 0x3dcfc421, 0x3e1ed264, 0x3e153820, 0x3e1dd798, 0x3d9d61c9, 0x3d6ecd99, 0x3e00ce7d}, 0x00000000, CHANNEL_STATE_NOT_STARTED, NULL },
    { 190, {0x3ce13b55, 0xbc165065, 0x3ce10f44, 0x3d82c0a5, 0x3d7b577d, 0x3d18b33f, 0x3e83b0c9, 0x3e1302a5, 0x3db80b46}, 0x00000000, CHANNEL_STATE_NOT_STARTED, NULL },
    { 191, {0x3e54127c, 0x3e56c171, 0x3e8d34da, 0xbdaec82d, 0xbe257a2e, 0xbc967f12, 0xbde01275, 0xbd9361b3, 0xbe7c5385}, 0xbe97037e, CHANNEL_STATE_NOT_STARTED, NULL },
    { 192, {0x3d87367d, 0x3e09555c, 0xbdff7eb4, 0x3eeb9fe3, 0x3ebb768a, 0x3e4d1413, 0x3ec7e28a, 0x3e81c2c5, 0x3eb16f1c}, 0x00000000, CHANNEL_STATE_NOT_STARTED, NULL },
    { 193, {0x3e0cab32, 0x3bcd13e1, 0x3e6a936c, 0xbd55265c, 0x3d48704b, 0x3dd34e3a, 0xbe415e17, 0xbdb7290f, 0xbd97b873}, 0x00000000, CHANNEL_STATE_NOT_STARTED, NULL },
    { 194, {0xbedba85d, 0xbe0a197f, 0xbf128fad, 0xbeab7ca0, 0xbdbbf7a5, 0xbd56572b, 0xbe6c5795, 0xbd8814c7, 0x3d2b5b0b}, 0x00000000, CHANNEL_STATE_NOT_STARTED, NULL },
    { 195, {0x3d5f1f5d, 0x3a8fbb5d, 0x3d9ebdf6, 0xbdf9f564, 0xbe126fc0, 0xbd5b6737, 0x3d0abad3, 0xbc6dd75d, 0xbd90e855}, 0x00000000, CHANNEL_STATE_NOT_STARTED, NULL },
    { 196, {0x3cda0a1c, 0x3d863030, 0xbe2ece66, 0x3e621039, 0x3e208c4f, 0x3e7097e2, 0x3e8657df, 0x3d5df804, 0x3db0a98e}, 0x00000000, CHANNEL_STATE_NOT_STARTED, NULL },
    { 197, {0x3dda6953, 0xbe4de08a, 0x3e0c0834, 0x3e3b4772, 0xbd05ddac, 0xbe1d3028, 0x3db5314f, 0x3d938437, 0xbe1dc323}, 0x00000000, CHANNEL_STATE_NOT_STARTED, NULL },
    { 198, {0x3d8c3f36, 0x3e006d6d, 0x3d783f85, 0x3e365f2c, 0xbe2a2823, 0xbd7b3d84, 0x3e7f9a62, 0xbe11d6d3, 0x3d1b45de}, 0x00000000, CHANNEL_STATE_NOT_STARTED, NULL },
    { 199, {0x3ecdbc9c, 0x3e26df3d, 0x3e180254, 0xbcc5be94, 0x3dc0eb4e, 0x3d8f9e03, 0xbd7b31e5, 0xbd2f5391, 0xbd4c0645}, 0x00000000, CHANNEL_STATE_NOT_STARTED, NULL },
    { 200, {0x3d8690a3, 0x3c2af793, 0x3dd35970, 0xbe052a47, 0xbe1310ce, 0xbdf575f6, 0xbdfb0c95, 0x3e13eace, 0xbe6fefae}, 0x00000000, CHANNEL_STATE_NOT_STARTED, NULL },
    { 201, {0xbdc867a2, 0xbd9c92c2, 0x3c82f754, 0xbd732408, 0xbdbdad2f, 0x3d9193f4, 0xbd8e28f7, 0x3d5a63b2, 0x3d8b83cc}, 0x00000000, CHANNEL_STATE_NOT_STARTED, NULL },
    { 202, {0x3c7773bb, 0xbe55e031, 0xbdec7153, 0x3dc73f43, 0x3d7f59ae, 0xbdc06e18, 0xbcf31d72, 0x3c1ae9c8, 0x3e335768}, 0x00000000, CHANNEL_STATE_NOT_STARTED, NULL },
    { 203, {0x3c21f40c, 0xbdddecf6, 0x3c911994, 0xbe197c5c, 0xbd4af2b7, 0xbd77ec1d, 0x3dc5c328, 0x3d937aec, 0x3da0cb90}, 0x00000000, CHANNEL_STATE_NOT_STARTED, NULL },
    { 204, {0x3e1adaeb, 0xbd6ada96, 0xbc167854, 0x3d3d0dcd, 0xbe357926, 0xbe022089, 0xbc66ed18, 0xbe50ce30, 0x3dc411dc}, 0x00000000, CHANNEL_STATE_NOT_STARTED, NULL },
    { 205, {0x3de38b83, 0x3ce45a1d, 0x3dcfc421, 0x3e1ed264, 0x3e153820, 0x3e1dd798, 0x3d9d61c9, 0x3d6ecd99, 0x3e00ce7d}, 0x00000000, CHANNEL_STATE_NOT_STARTED, NULL },
    { 206, {0x3ce13b55, 0xbc165065, 0x3ce10f44, 0x3d82c0a5, 0x3d7b577d, 0x3d18b33f, 0x3e83b0c9, 0x3e1302a5, 0x3db80b46}, 0x00000000, CHANNEL_STATE_NOT_STARTED, NULL },
    { 207, {0x3e54127c, 0x3e56c171, 0x3e8d34da, 0xbdaec82d, 0xbe257a2e, 0xbc967f12, 0xbde01275, 0xbd9361b3, 0xbe7c5385}, 0x3fee837c, CHANNEL_STATE_NOT_STARTED, NULL },
    { 208, {0x3d87367d, 0x3e09555c, 0xbdff7eb4, 0x3eeb9fe3, 0x3ebb768a, 0x3e4d1413, 0x3ec7e28a, 0x3e81c2c5, 0x3eb16f1c}, 0x00000000, CHANNEL_STATE_NOT_STARTED, NULL },
    { 209, {0x3e0cab32, 0x3bcd13e1, 0x3e6a936c, 0xbd55265c, 0x3d48704b, 0x3dd34e3a, 0xbe415e17, 0xbdb7290f, 0xbd97b873}, 0x00000000, CHANNEL_STATE_NOT_STARTED, NULL },
    { 210, {0xbedba85d, 0xbe0a197f, 0xbf128fad, 0xbeab7ca0, 0xbdbbf7a5, 0xbd56572b, 0xbe6c5795, 0xbd8814c7, 0x3d2b5b0b}, 0x00000000, CHANNEL_STATE_NOT_STARTED, NULL },
    { 211, {0x3d5f1f5d, 0x3a8fbb5d, 0x3d9ebdf6, 0xbdf9f564, 0xbe126fc0, 0xbd5b6737, 0x3d0abad3, 0xbc6dd75d, 0xbd90e855}, 0x00000000, CHANNEL_STATE_NOT_STARTED, NULL },
    { 212, {0x3cda0a1c, 0x3d863030, 0xbe2ece66, 0x3e621039, 0x3e208c4f, 0x3e7097e2, 0x3e8657df, 0x3d5df804, 0x3db0a98e}, 0x00000000, CHANNEL_STATE_NOT_STARTED, NULL },
    { 213, {0x3dda6953, 0xbe4de08a, 0x3e0c0834, 0x3e3b4772, 0xbd05ddac, 0xbe1d3028, 0x3db5314f, 0x3d938437, 0xbe1dc323}, 0x00000000, CHANNEL_STATE_NOT_STARTED, NULL },
    { 214, {0x3d8c3f36, 0x3e006d6d, 0x3d783f85, 0x3e365f2c, 0xbe2a2823, 0xbd7b3d84, 0x3e7f9a62, 0xbe11d6d3, 0x3d1b45de}, 0x00000000, CHANNEL_STATE_NOT_STARTED, NULL },
    { 215, {0x3ecdbc9c, 0x3e26df3d, 0x3e180254, 0xbcc5be94, 0x3dc0eb4e, 0x3d8f9e03, 0xbd7b31e5, 0xbd2f5391, 0xbd4c0645}, 0x00000000, CHANNEL_STATE_NOT_STARTED, NULL },
    { 216, {0x3d8690a3, 0x3c2af793, 0x3dd35970, 0xbe052a47, 0xbe1310ce, 0xbdf575f6, 0xbdfb0c95, 0x3e13eace, 0xbe6fefae}, 0x00000000, CHANNEL_STATE_NOT_STARTED, NULL },
    { 217, {0xbdc867a2, 0xbd9c92c2, 0x3c82f754, 0xbd732408, 0xbdbdad2f, 0x3d9193f4, 0xbd8e28f7, 0x3d5a63b2, 0x3d8b83cc}, 0x00000000, CHANNEL_STATE_NOT_STARTED, NULL },
    { 218, {0x3c7773bb, 0xbe55e031, 0xbdec7153, 0x3dc73f43, 0x3d7f59ae, 0xbdc06e18, 0xbcf31d72, 0x3c1ae9c8, 0x3e335768}, 0x00000000, CHANNEL_STATE_NOT_STARTED, NULL },
    { 219, {0x3c21f40c, 0xbdddecf6, 0x3c911994, 0xbe197c5c, 0xbd4af2b7, 0xbd77ec1d, 0x3dc5c328, 0x3d937aec, 0x3da0cb90}, 0x00000000, CHANNEL_STATE_NOT_STARTED, NULL },
    { 220, {0x3e1adaeb, 0xbd6ada96, 0xbc167854, 0x3d3d0dcd, 0xbe357926, 0xbe022089, 0xbc66ed18, 0xbe50ce30, 0x3dc411dc}, 0x00000000, CHANNEL_STATE_NOT_STARTED, NULL },
    { 221, {0x3de38b83, 0x3ce45a1d, 0x3dcfc421, 0x3e1ed264, 0x3e153820, 0x3e1dd798, 0x3d9d61c9, 0x3d6ecd99, 0x3e00ce7d}, 0x00000000, CHANNEL_STATE_NOT_STARTED, NULL },
    { 222, {0x3ce13b55, 0xbc165065, 0x3ce10f44, 0x3d82c0a5, 0x3d7b577d, 0x3d18b33f, 0x3e83b0c9, 0x3e1302a5, 0x3db80b46}, 0x00000000, CHANNEL_STATE_NOT_STARTED, NULL },
    { 223, {0x3e54127c, 0x3e56c171, 0x3e8d34da, 0xbdaec82d, 0xbe257a2e, 0xbc967f12, 0xbde01275, 0xbd9361b3, 0xbe7c5385}, 0x3f509d19, CHANNEL_STATE_NOT_STARTED, NULL },
    { 224, {0x3d87367d, 0x3e09555c, 0xbdff7eb4, 0x3eeb9fe3, 0x3ebb768a, 0x3e4d1413, 0x3ec7e28a, 0x3e81c2c5, 0x3eb16f1c}, 0x00000000, CHANNEL_STATE_NOT_STARTED, NULL },
    { 225, {0x3e0cab32, 0x3bcd13e1, 0x3e6a936c, 0xbd55265c, 0x3d48704b, 0x3dd34e3a, 0xbe415e17, 0xbdb7290f, 0xbd97b873}, 0x00000000, CHANNEL_STATE_NOT_STARTED, NULL },
    { 226, {0xbedba85d, 0xbe0a197f, 0xbf128fad, 0xbeab7ca0, 0xbdbbf7a5, 0xbd56572b, 0xbe6c5795, 0xbd8814c7, 0x3d2b5b0b}, 0x00000000, CHANNEL_STATE_NOT_STARTED, NULL },
    { 227, {0x3d5f1f5d, 0x3a8fbb5d, 0x3d9ebdf6, 0xbdf9f564, 0xbe126fc0, 0xbd5b6737, 0x3d0abad3, 0xbc6dd75d, 0xbd90e855}, 0x00000000, CHANNEL_STATE_NOT_STARTED, NULL },
    { 228, {0x3cda0a1c, 0x3d863030, 0xbe2ece66, 0x3e621039, 0x3e208c4f, 0x3e7097e2, 0x3e8657df, 0x3d5df804, 0x3db0a98e}, 0x00000000, CHANNEL_STATE_NOT_STARTED, NULL },
    { 229, {0x3dda6953, 0xbe4de08a, 0x3e0c0834, 0x3e3b4772, 0xbd05ddac, 0xbe1d3028, 0x3db5314f, 0x3d938437, 0xbe1dc323}, 0x00000000, CHANNEL_STATE_NOT_STARTED, NULL },
    { 230, {0x3d8c3f36, 0x3e006d6d, 0x3d783f85, 0x3e365f2c, 0xbe2a2823, 0xbd7b3d84, 0x3e7f9a62, 0xbe11d6d3, 0x3d1b45de}, 0x00000000, CHANNEL_STATE_NOT_STARTED, NULL },
    { 231, {0x3ecdbc9c, 0x3e26df3d, 0x3e180254, 0xbcc5be94, 0x3dc0eb4e, 0x3d8f9e03, 0xbd7b31e5, 0xbd2f5391, 0xbd4c0645}, 0x00000000, CHANNEL_STATE_NOT_STARTED, NULL },
    { 232, {0x3d8690a3, 0x3c2af793, 0x3dd35970, 0xbe052a47, 0xbe1310ce, 0xbdf575f6, 0xbdfb0c95, 0x3e13eace, 0xbe6fefae}, 0x00000000, CHANNEL_STATE_NOT_STARTED, NULL },
    { 233, {0xbdc867a2, 0xbd9c92c2, 0x3c82f754, 0xbd732408, 0xbdbdad2f, 0x3d9193f4, 0xbd8e28f7, 0x3d5a63b2, 0x3d8b83cc}, 0x00000000, CHANNEL_STATE_NOT_STARTED, NULL },
    { 234, {0x3c7773bb, 0xbe55e031, 0xbdec7153, 0x3dc73f43, 0x3d7f59ae, 0xbdc06e18, 0xbcf31d72, 0x3c1ae9c8, 0x3e335768}, 0x00000000, CHANNEL_STATE_NOT_STARTED, NULL },
    { 235, {0x3c21f40c, 0xbdddecf6, 0x3c911994, 0xbe197c5c, 0xbd4af2b7, 0xbd77ec1d, 0x3dc5c328, 0x3d937aec, 0x3da0cb90}, 0x00000000, CHANNEL_STATE_NOT_STARTED, NULL },
    { 236, {0x3e1adaeb, 0xbd6ada96, 0xbc167854, 0x3d3d0dcd, 0xbe357926, 0xbe022089, 0xbc66ed18, 0xbe50ce30, 0x3dc411dc}, 0x00000000, CHANNEL_STATE_NOT_STARTED, NULL },
    { 237, {0x3de38b83, 0x3ce45a1d, 0x3dcfc421, 0x3e1ed264, 0x3e153820, 0x3e1dd798, 0x3d9d61c9, 0x3d6ecd99, 0x3e00ce7d}, 0x00000000, CHANNEL_STATE_NOT_STARTED, NULL },
    { 238, {0x3ce13b55, 0xbc165065, 0x3ce10f44, 0x3d82c0a5, 0x3d7b577d, 0x3d18b33f, 0x3e83b0c9, 0x3e1302a5, 0x3db80b46}, 0x00000000, CHANNEL_STATE_NOT_STARTED, NULL },
    { 239, {0x3e54127c, 0x3e56c171, 0x3e8d34da, 0xbdaec82d, 0xbe257a2e, 0xbc967f12, 0xbde01275, 0xbd9361b3, 0xbe7c5385}, 0x3fc00089, CHANNEL_STATE_NOT_STARTED, NULL },
    { 240, {0x3d87367d, 0x3e09555c, 0xbdff7eb4, 0x3eeb9fe3, 0x3ebb768a, 0x3e4d1413, 0x3ec7e28a, 0x3e81c2c5, 0x3eb16f1c}, 0x00000000, CHANNEL_STATE_NOT_STARTED, NULL },
    { 241, {0x3e0cab32, 0x3bcd13e1, 0x3e6a936c, 0xbd55265c, 0x3d48704b, 0x3dd34e3a, 0xbe415e17, 0xbdb7290f, 0xbd97b873}, 0x00000000, CHANNEL_STATE_NOT_STARTED, NULL },
    { 242, {0xbedba85d, 0xbe0a197f, 0xbf128fad, 0xbeab7ca0, 0xbdbbf7a5, 0xbd56572b, 0xbe6c5795, 0xbd8814c7, 0x3d2b5b0b}, 0x00000000, CHANNEL_STATE_NOT_STARTED, NULL },
    { 243, {0x3d5f1f5d, 0x3a8fbb5d, 0x3d9ebdf6, 0xbdf9f564, 0xbe126fc0, 0xbd5b6737, 0x3d0abad3, 0xbc6dd75d, 0xbd90e855}, 0x00000000, CHANNEL_STATE_NOT_STARTED, NULL },
    { 244, {0x3cda0a1c, 0x3d863030, 0xbe2ece66, 0x3e621039, 0x3e208c4f, 0x3e7097e2, 0x3e8657df, 0x3d5df804, 0x3db0a98e}, 0x00000000, CHANNEL_STATE_NOT_STARTED, NULL },
    { 245, {0x3dda6953, 0xbe4de08a, 0x3e0c0834, 0x3e3b4772, 0xbd05ddac, 0xbe1d3028, 0x3db5314f, 0x3d938437, 0xbe1dc323}, 0x00000000, CHANNEL_STATE_NOT_STARTED, NULL },
    { 246, {0x3d8c3f36, 0x3e006d6d, 0x3d783f85, 0x3e365f2c, 0xbe2a2823, 0xbd7b3d84, 0x3e7f9a62, 0xbe11d6d3, 0x3d1b45de}, 0x00000000, CHANNEL_STATE_NOT_STARTED, NULL },
    { 247, {0x3ecdbc9c, 0x3e26df3d, 0x3e180254, 0xbcc5be94, 0x3dc0eb4e, 0x3d8f9e03, 0xbd7b31e5, 0xbd2f5391, 0xbd4c0645}, 0x00000000, CHANNEL_STATE_NOT_STARTED, NULL },
    { 248, {0x3d8690a3, 0x3c2af793, 0x3dd35970, 0xbe052a47, 0xbe1310ce, 0xbdf575f6, 0xbdfb0c95, 0x3e13eace, 0xbe6fefae}, 0x00000000, CHANNEL_STATE_NOT_STARTED, NULL },
    { 249, {0xbdc867a2, 0xbd9c92c2, 0x3c82f754, 0xbd732408, 0xbdbdad2f, 0x3d9193f4, 0xbd8e28f7, 0x3d5a63b2, 0x3d8b83cc}, 0x00000000, CHANNEL_STATE_NOT_STARTED, NULL },
    { 250, {0x3c7773bb, 0xbe55e031, 0xbdec7153, 0x3dc73f43, 0x3d7f59ae, 0xbdc06e18, 0xbcf31d72, 0x3c1ae9c8, 0x3e335768}, 0x00000000, CHANNEL_STATE_NOT_STARTED, NULL },
    { 251, {0x3c21f40c, 0xbdddecf6, 0x3c911994, 0xbe197c5c, 0xbd4af2b7, 0xbd77ec1d, 0x3dc5c328, 0x3d937aec, 0x3da0cb90}, 0x00000000, CHANNEL_STATE_NOT_STARTED, NULL },
    { 252, {0x3e1adaeb, 0xbd6ada96, 0xbc167854, 0x3d3d0dcd, 0xbe357926, 0xbe022089, 0xbc66ed18, 0xbe50ce30, 0x3dc411dc}, 0x00000000, CHANNEL_STATE_NOT_STARTED, NULL },
    { 253, {0x3de38b83, 0x3ce45a1d, 0x3dcfc421, 0x3e1ed264, 0x3e153820, 0x3e1dd798, 0x3d9d61c9, 0x3d6ecd99, 0x3e00ce7d}, 0x00000000, CHANNEL_STATE_NOT_STARTED, NULL },
    { 254, {0x3ce13b55, 0xbc165065, 0x3ce10f44, 0x3d82c0a5, 0x3d7b577d, 0x3d18b33f, 0x3e83b0c9, 0x3e1302a5, 0x3db80b46}, 0x00000000, CHANNEL_STATE_NOT_STARTED, NULL },
    { 255, {0x3e54127c, 0x3e56c171, 0x3e8d34da, 0xbdaec82d, 0xbe257a2e, 0xbc967f12, 0xbde01275, 0xbd9361b3, 0xbe7c5385}, 0xbfc1fb46, CHANNEL_STATE_NOT_STARTED, NULL },
    { 256, {0x3d87367d, 0x3e09555c, 0xbdff7eb4, 0x3eeb9fe3, 0x3ebb768a, 0x3e4d1413, 0x3ec7e28a, 0x3e81c2c5, 0x3eb16f1c}, 0x00000000, CHANNEL_STATE_NOT_STARTED, NULL },
    { 257, {0x3e0cab32, 0x3bcd13e1, 0x3e6a936c, 0xbd55265c, 0x3d48704b, 0x3dd34e3a, 0xbe415e17, 0xbdb7290f, 0xbd97b873}, 0x00000000, CHANNEL_STATE_NOT_STARTED, NULL },
    { 258, {0xbedba85d, 0xbe0a197f, 0xbf128fad, 0xbeab7ca0, 0xbdbbf7a5, 0xbd56572b, 0xbe6c5795, 0xbd8814c7, 0x3d2b5b0b}, 0x00000000, CHANNEL_STATE_NOT_STARTED, NULL },
    { 259, {0x3d5f1f5d, 0x3a8fbb5d, 0x3d9ebdf6, 0xbdf9f564, 0xbe126fc0, 0xbd5b6737, 0x3d0abad3, 0xbc6dd75d, 0xbd90e855}, 0x00000000, CHANNEL_STATE_NOT_STARTED, NULL },
    { 260, {0x3cda0a1c, 0x3d863030, 0xbe2ece66, 0x3e621039, 0x3e208c4f, 0x3e7097e2, 0x3e8657df, 0x3d5df804, 0x3db0a98e}, 0x00000000, CHANNEL_STATE_NOT_STARTED, NULL },
    { 261, {0x3dda6953, 0xbe4de08a, 0x3e0c0834, 0x3e3b4772, 0xbd05ddac, 0xbe1d3028, 0x3db5314f, 0x3d938437, 0xbe1dc323}, 0x00000000, CHANNEL_STATE_NOT_STARTED, NULL },
    { 262, {0x3d8c3f36, 0x3e006d6d, 0x3d783f85, 0x3e365f2c, 0xbe2a2823, 0xbd7b3d84, 0x3e7f9a62, 0xbe11d6d3, 0x3d1b45de}, 0x00000000, CHANNEL_STATE_NOT_STARTED, NULL },
    { 263, {0x3ecdbc9c, 0x3e26df3d, 0x3e180254, 0xbcc5be94, 0x3dc0eb4e, 0x3d8f9e03, 0xbd7b31e5, 0xbd2f5391, 0xbd4c0645}, 0x00000000, CHANNEL_STATE_NOT_STARTED, NULL },
    { 264, {0x3d8690a3, 0x3c2af793, 0x3dd35970, 0xbe052a47, 0xbe1310ce, 0xbdf575f6, 0xbdfb0c95, 0x3e13eace, 0xbe6fefae}, 0x00000000, CHANNEL_STATE_NOT_STARTED, NULL },
    { 265, {0xbdc867a2, 0xbd9c92c2, 0x3c82f754, 0xbd732408, 0xbdbdad2f, 0x3d9193f4, 0xbd8e28f7, 0x3d5a63b2, 0x3d8b83cc}, 0x00000000, CHANNEL_STATE_NOT_STARTED, NULL },
    { 266, {0x3c7773bb, 0xbe55e031, 0xbdec7153, 0x3dc73f43, 0x3d7f59ae, 0xbdc06e18, 0xbcf31d72, 0x3c1ae9c8, 0x3e335768}, 0x00000000, CHANNEL_STATE_NOT_STARTED, NULL },
    { 267, {0x3c21f40c, 0xbdddecf6, 0x3c911994, 0xbe197c5c, 0xbd4af2b7, 0xbd77ec1d, 0x3dc5c328, 0x3d937aec, 0x3da0cb90}, 0x00000000, CHANNEL_STATE_NOT_STARTED, NULL },
    { 268, {0x3e1adaeb, 0xbd6ada96, 0xbc167854, 0x3d3d0dcd, 0xbe357926, 0xbe022089, 0xbc66ed18, 0xbe50ce30, 0x3dc411dc}, 0x00000000, CHANNEL_STATE_NOT_STARTED, NULL },
    { 269, {0x3de38b83, 0x3ce45a1d, 0x3dcfc421, 0x3e1ed264, 0x3e153820, 0x3e1dd798, 0x3d9d61c9, 0x3d6ecd99, 0x3e00ce7d}, 0x00000000, CHANNEL_STATE_NOT_STARTED, NULL },
    { 270, {0x3ce13b55, 0xbc165065, 0x3ce10f44, 0x3d82c0a5, 0x3d7b577d, 0x3d18b33f, 0x3e83b0c9, 0x3e1302a5, 0x3db80b46}, 0x00000000, CHANNEL_STATE_NOT_STARTED, NULL },
    { 271, {0x3e54127c, 0x3e56c171, 0x3e8d34da, 0xbdaec82d, 0xbe257a2e, 0xbc967f12, 0xbde01275, 0xbd9361b3, 0xbe7c5385}, 0xbf37304a, CHANNEL_STATE_NOT_STARTED, NULL },
    { 272, {0x3d87367d, 0x3e09555c, 0xbdff7eb4, 0x3eeb9fe3, 0x3ebb768a, 0x3e4d1413, 0x3ec7e28a, 0x3e81c2c5, 0x3eb16f1c}, 0x00000000, CHANNEL_STATE_NOT_STARTED, NULL },
    { 273, {0x3e0cab32, 0x3bcd13e1, 0x3e6a936c, 0xbd55265c, 0x3d48704b, 0x3dd34e3a, 0xbe415e17, 0xbdb7290f, 0xbd97b873}, 0x00000000, CHANNEL_STATE_NOT_STARTED, NULL },
    { 274, {0xbedba85d, 0xbe0a197f, 0xbf128fad, 0xbeab7ca0, 0xbdbbf7a5, 0xbd56572b, 0xbe6c5795, 0xbd8814c7, 0x3d2b5b0b}, 0x00000000, CHANNEL_STATE_NOT_STARTED, NULL },
    { 275, {0x3d5f1f5d, 0x3a8fbb5d, 0x3d9ebdf6, 0xbdf9f564, 0xbe126fc0, 0xbd5b6737, 0x3d0abad3, 0xbc6dd75d, 0xbd90e855}, 0x00000000, CHANNEL_STATE_NOT_STARTED, NULL },
    { 276, {0x3cda0a1c, 0x3d863030, 0xbe2ece66, 0x3e621039, 0x3e208c4f, 0x3e7097e2, 0x3e8657df, 0x3d5df804, 0x3db0a98e}, 0x00000000, CHANNEL_STATE_NOT_STARTED, NULL },
    { 277, {0x3dda6953, 0xbe4de08a, 0x3e0c0834, 0x3e3b4772, 0xbd05ddac, 0xbe1d3028, 0x3db5314f, 0x3d938437, 0xbe1dc323}, 0x00000000, CHANNEL_STATE_NOT_STARTED, NULL },
    { 278, {0x3d8c3f36, 0x3e006d6d, 0x3d783f85, 0x3e365f2c, 0xbe2a2823, 0xbd7b3d84, 0x3e7f9a62, 0xbe11d6d3, 0x3d1b45de}, 0x00000000, CHANNEL_STATE_NOT_STARTED, NULL },
    { 279, {0x3ecdbc9c, 0x3e26df3d, 0x3e180254, 0xbcc5be94, 0x3dc0eb4e, 0x3d8f9e03, 0xbd7b31e5, 0xbd2f5391, 0xbd4c0645}, 0x00000000, CHANNEL_STATE_NOT_STARTED, NULL },
    { 280, {0x3d8690a3, 0x3c2af793, 0x3dd35970, 0xbe052a47, 0xbe1310ce, 0xbdf575f6, 0xbdfb0c95, 0x3e13eace, 0xbe6fefae}, 0x00000000, CHANNEL_STATE_NOT_STARTED, NULL },
    { 281, {0xbdc867a2, 0xbd9c92c2, 0x3c82f754, 0xbd732408, 0xbdbdad2f, 0x3d9193f4, 0xbd8e28f7, 0x3d5a63b2, 0x3d8b83cc}, 0x00000000, CHANNEL_STATE_NOT_STARTED, NULL },
    { 282, {0x3c7773bb, 0xbe55e031, 0xbdec7153, 0x3dc73f43, 0x3d7f59ae, 0xbdc06e18, 0xbcf31d72, 0x3c1ae9c8, 0x3e335768}, 0x00000000, CHANNEL_STATE_NOT_STARTED, NULL },
    { 283, {0x3c21f40c, 0xbdddecf6, 0x3c911994, 0xbe197c5c, 0xbd4af2b7, 0xbd77ec1d, 0x3dc5c328, 0x3d937aec, 0x3da0cb90}, 0x00000000, CHANNEL_STATE_NOT_STARTED, NULL },
    { 284, {0x3e1adaeb, 0xbd6ada96, 0xbc167854, 0x3d3d0dcd, 0xbe357926, 0xbe022089, 0xbc66ed18, 0xbe50ce30, 0x3dc411dc}, 0x00000000, CHANNEL_STATE_NOT_STARTED, NULL },
    { 285, {0x3de38b83, 0x3ce45a1d, 0x3dcfc421, 0x3e1ed264, 0x3e153820, 0x3e1dd798, 0x3d9d61c9, 0x3d6ecd99, 0x3e00ce7d}, 0x00000000, CHANNEL_STATE_NOT_STARTED, NULL },
    { 286, {0x3ce13b55, 0xbc165065, 0x3ce10f44, 0x3d82c0a5, 0x3d7b577d, 0x3d18b33f, 0x3e83b0c9, 0x3e1302a5, 0x3db80b46}, 0x00000000, CHANNEL_STATE_NOT_STARTED, NULL },
    { 287, {0x3e54127c, 0x3e56c171, 0x3e8d34da, 0xbdaec82d, 0xbe257a2e, 0xbc967f12, 0xbde01275, 0xbd9361b3, 0xbe7c5385}, 0xbef7e1d8, CHANNEL_STATE_NOT_STARTED, NULL },
    { 288, {0x3d87367d, 0x3e09555c, 0xbdff7eb4, 0x3eeb9fe3, 0x3ebb768a, 0x3e4d1413, 0x3ec7e28a, 0x3e81c2c5, 0x3eb16f1c}, 0x00000000, CHANNEL_STATE_NOT_STARTED, NULL },
    { 289, {0x3e0cab32, 0x3bcd13e1, 0x3e6a936c, 0xbd55265c, 0x3d48704b, 0x3dd34e3a, 0xbe415e17, 0xbdb7290f, 0xbd97b873}, 0x00000000, CHANNEL_STATE_NOT_STARTED, NULL },
    { 290, {0xbedba85d, 0xbe0a197f, 0xbf128fad, 0xbeab7ca0, 0xbdbbf7a5, 0xbd56572b, 0xbe6c5795, 0xbd8814c7, 0x3d2b5b0b}, 0x00000000, CHANNEL_STATE_NOT_STARTED, NULL },
    { 291, {0x3d5f1f5d, 0x3a8fbb5d, 0x3d9ebdf6, 0xbdf9f564, 0xbe126fc0, 0xbd5b6737, 0x3d0abad3, 0xbc6dd75d, 0xbd90e855}, 0x00000000, CHANNEL_STATE_NOT_STARTED, NULL },
    { 292, {0x3cda0a1c, 0x3d863030, 0xbe2ece66, 0x3e621039, 0x3e208c4f, 0x3e7097e2, 0x3e8657df, 0x3d5df804, 0x3db0a98e}, 0x00000000, CHANNEL_STATE_NOT_STARTED, NULL },
    { 293, {0x3dda6953, 0xbe4de08a, 0x3e0c0834, 0x3e3b4772, 0xbd05ddac, 0xbe1d3028, 0x3db5314f, 0x3d938437, 0xbe1dc323}, 0x00000000, CHANNEL_STATE_NOT_STARTED, NULL },
    { 294, {0x3d8c3f36, 0x3e006d6d, 0x3d783f85, 0x3e365f2c, 0xbe2a2823, 0xbd7b3d84, 0x3e7f9a62, 0xbe11d6d3, 0x3d1b45de}, 0x00000000, CHANNEL_STATE_NOT_STARTED, NULL },
    { 295, {0x3ecdbc9c, 0x3e26df3d, 0x3e180254, 0xbcc5be94, 0x3dc0eb4e, 0x3d8f9e03, 0xbd7b31e5, 0xbd2f5391, 0xbd4c0645}, 0x00000000, CHANNEL_STATE_NOT_STARTED, NULL },
    { 296, {0x3d8690a3, 0x3c2af793, 0x3dd35970, 0xbe052a47, 0xbe1310ce, 0xbdf575f6, 0xbdfb0c95, 0x3e13eace, 0xbe6fefae}, 0x00000000, CHANNEL_STATE_NOT_STARTED, NULL },
    { 297, {0xbdc867a2, 0xbd9c92c2, 0x3c82f754, 0xbd732408, 0xbdbdad2f, 0x3d9193f4, 0xbd8e28f7, 0x3d5a63b2, 0x3d8b83cc}, 0x00000000, CHANNEL_STATE_NOT_STARTED, NULL },
    { 298, {0x3c7773bb, 0xbe55e031, 0xbdec7153, 0x3dc73f43, 0x3d7f59ae, 0xbdc06e18, 0xbcf31d72, 0x3c1ae9c8, 0x3e335768}, 0x00000000, CHANNEL_STATE_NOT_STARTED, NULL },
    { 299, {0x3c21f40c, 0xbdddecf6, 0x3c911994, 0xbe197c5c, 0xbd4af2b7, 0xbd77ec1d, 0x3dc5c328, 0x3d937aec, 0x3da0cb90}, 0x00000000, CHANNEL_STATE_NOT_STARTED, NULL },
    { 300, {0x3e1adaeb, 0xbd6ada96, 0xbc167854, 0x3d3d0dcd, 0xbe357926, 0xbe022089, 0xbc66ed18, 0xbe50ce30, 0x3dc411dc}, 0x00000000, CHANNEL_STATE_NOT_STARTED, NULL },
    { 301, {0x3de38b83, 0x3ce45a1d, 0x3dcfc421, 0x3e1ed264, 0x3e153820, 0x3e1dd798, 0x3d9d61c9, 0x3d6ecd99, 0x3e00ce7d}, 0x00000000, CHANNEL_STATE_NOT_STARTED, NULL },
    { 302, {0x3ce13b55, 0xbc165065, 0x3ce10f44, 0x3d82c0a5, 0x3d7b577d, 0x3d18b33f, 0x3e83b0c9, 0x3e1302a5, 0x3db80b46}, 0x00000000, CHANNEL_STATE_NOT_STARTED, NULL },
    { 303, {0x3e54127c, 0x3e56c171, 0x3e8d34da, 0xbdaec82d, 0xbe257a2e, 0xbc967f12, 0xbde01275, 0xbd9361b3, 0xbe7c5385}, 0xbf1d286b, CHANNEL_STATE_NOT_STARTED, NULL },
    { 304, {0x3d87367d, 0x3e09555c, 0xbdff7eb4, 0x3eeb9fe3, 0x3ebb768a, 0x3e4d1413, 0x3ec7e28a, 0x3e81c2c5, 0x3eb16f1c}, 0x00000000, CHANNEL_STATE_NOT_STARTED, NULL },
    { 305, {0x3e0cab32, 0x3bcd13e1, 0x3e6a936c, 0xbd55265c, 0x3d48704b, 0x3dd34e3a, 0xbe415e17, 0xbdb7290f, 0xbd97b873}, 0x00000000, CHANNEL_STATE_NOT_STARTED, NULL },
    { 306, {0xbedba85d, 0xbe0a197f, 0xbf128fad, 0xbeab7ca0, 0xbdbbf7a5, 0xbd56572b, 0xbe6c5795, 0xbd8814c7, 0x3d2b5b0b}, 0x00000000, CHANNEL_STATE_NOT_STARTED, NULL },
    { 307, {0x3d5f1f5d, 0x3a8fbb5d, 0x3d9ebdf6, 0xbdf9f564, 0xbe126fc0, 0xbd5b6737, 0x3d0abad3, 0xbc6dd75d, 0xbd90e855}, 0x00000000, CHANNEL_STATE_NOT_STARTED, NULL },
    { 308, {0x3cda0a1c, 0x3d863030, 0xbe2ece66, 0x3e621039, 0x3e208c4f, 0x3e7097e2, 0x3e8657df, 0x3d5df804, 0x3db0a98e}, 0x00000000, CHANNEL_STATE_NOT_STARTED, NULL },
    { 309, {0x3dda6953, 0xbe4de08a, 0x3e0c0834, 0x3e3b4772, 0xbd05ddac, 0xbe1d3028, 0x3db5314f, 0x3d938437, 0xbe1dc323}, 0x00000000, CHANNEL_STATE_NOT_STARTED, NULL },
    { 310, {0x3d8c3f36, 0x3e006d6d, 0x3d783f85, 0x3e365f2c, 0xbe2a2823, 0xbd7b3d84, 0x3e7f9a62, 0xbe11d6d3, 0x3d1b45de}, 0x00000000, CHANNEL_STATE_NOT_STARTED, NULL },
    { 311, {0x3ecdbc9c, 0x3e26df3d, 0x3e180254, 0xbcc5be94, 0x3dc0eb4e, 0x3d8f9e03, 0xbd7b31e5, 0xbd2f5391, 0xbd4c0645}, 0x00000000, CHANNEL_STATE_NOT_STARTED, NULL },
    { 312, {0x3d8690a3, 0x3c2af793, 0x3dd35970, 0xbe052a47, 0xbe1310ce, 0xbdf575f6, 0xbdfb0c95, 0x3e13eace, 0xbe6fefae}, 0x00000000, CHANNEL_STATE_NOT_STARTED, NULL },
    { 313, {0xbdc867a2, 0xbd9c92c2, 0x3c82f754, 0xbd732408, 0xbdbdad2f, 0x3d9193f4, 0xbd8e28f7, 0x3d5a63b2, 0x3d8b83cc}, 0x00000000, CHANNEL_STATE_NOT_STARTED, NULL },
    { 314, {0x3c7773bb, 0xbe55e031, 0xbdec7153, 0x3dc73f43, 0x3d7f59ae, 0xbdc06e18, 0xbcf31d72, 0x3c1ae9c8, 0x3e335768}, 0x00000000, CHANNEL_STATE_NOT_STARTED, NULL },
    { 315, {0x3c21f40c, 0xbdddecf6, 0x3c911994, 0xbe197c5c, 0xbd4af2b7, 0xbd77ec1d, 0x3dc5c328, 0x3d937aec, 0x3da0cb90}, 0x00000000, CHANNEL_STATE_NOT_STARTED, NULL },
    { 316, {0x3e1adaeb, 0xbd6ada96, 0xbc167854, 0x3d3d0dcd, 0xbe357926, 0xbe022089, 0xbc66ed18, 0xbe50ce30, 0x3dc411dc}, 0x00000000, CHANNEL_STATE_NOT_STARTED, NULL },
    { 317, {0x3de38b83, 0x3ce45a1d, 0x3dcfc421, 0x3e1ed264, 0x3e153820, 0x3e1dd798, 0x3d9d61c9, 0x3d6ecd99, 0x3e00ce7d}, 0x00000000, CHANNEL_STATE_NOT_STARTED, NULL },
    { 318, {0x3ce13b55, 0xbc165065, 0x3ce10f44, 0x3d82c0a5, 0x3d7b577d, 0x3d18b33f, 0x3e83b0c9, 0x3e1302a5, 0x3db80b46}, 0x00000000, CHANNEL_STATE_NOT_STARTED, NULL },
    { 319, {0x3e54127c, 0x3e56c171, 0x3e8d34da, 0xbdaec82d, 0xbe257a2e, 0xbc967f12, 0xbde01275, 0xbd9361b3, 0xbe7c5385}, 0x3fbc27cb, CHANNEL_STATE_NOT_STARTED, NULL },
    { 320, {0x3d87367d, 0x3e09555c, 0xbdff7eb4, 0x3eeb9fe3, 0x3ebb768a, 0x3e4d1413, 0x3ec7e28a, 0x3e81c2c5, 0x3eb16f1c}, 0x00000000, CHANNEL_STATE_NOT_STARTED, NULL },
    { 321, {0x3e0cab32, 0x3bcd13e1, 0x3e6a936c, 0xbd55265c, 0x3d48704b, 0x3dd34e3a, 0xbe415e17, 0xbdb7290f, 0xbd97b873}, 0x00000000, CHANNEL_STATE_NOT_STARTED, NULL },
    { 322, {0xbedba85d, 0xbe0a197f, 0xbf128fad, 0xbeab7ca0, 0xbdbbf7a5, 0xbd56572b, 0xbe6c5795, 0xbd8814c7, 0x3d2b5b0b}, 0x00000000, CHANNEL_STATE_NOT_STARTED, NULL },
    { 323, {0x3d5f1f5d, 0x3a8fbb5d, 0x3d9ebdf6, 0xbdf9f564, 0xbe126fc0, 0xbd5b6737, 0x3d0abad3, 0xbc6dd75d, 0xbd90e855}, 0x00000000, CHANNEL_STATE_NOT_STARTED, NULL },
    { 324, {0x3cda0a1c, 0x3d863030, 0xbe2ece66, 0x3e621039, 0x3e208c4f, 0x3e7097e2, 0x3e8657df, 0x3d5df804, 0x3db0a98e}, 0x00000000, CHANNEL_STATE_NOT_STARTED, NULL },
    { 325, {0x3dda6953, 0xbe4de08a, 0x3e0c0834, 0x3e3b4772, 0xbd05ddac, 0xbe1d3028, 0x3db5314f, 0x3d938437, 0xbe1dc323}, 0x00000000, CHANNEL_STATE_NOT_STARTED, NULL },
    { 326, {0x3d8c3f36, 0x3e006d6d, 0x3d783f85, 0x3e365f2c, 0xbe2a2823, 0xbd7b3d84, 0x3e7f9a62, 0xbe11d6d3, 0x3d1b45de}, 0x00000000, CHANNEL_STATE_NOT_STARTED, NULL },
    { 327, {0x3ecdbc9c, 0x3e26df3d, 0x3e180254, 0xbcc5be94, 0x3dc0eb4e, 0x3d8f9e03, 0xbd7b31e5, 0xbd2f5391, 0xbd4c0645}, 0x00000000, CHANNEL_STATE_NOT_STARTED, NULL },
    { 328, {0x3d8690a3, 0x3c2af793, 0x3dd35970, 0xbe052a47, 0xbe1310ce, 0xbdf575f6, 0xbdfb0c95, 0x3e13eace, 0xbe6fefae}, 0x00000000, CHANNEL_STATE_NOT_STARTED, NULL },
    { 329, {0xbdc867a2, 0xbd9c92c2, 0x3c82f754, 0xbd732408, 0xbdbdad2f, 0x3d9193f4, 0xbd8e28f7, 0x3d5a63b2, 0x3d8b83cc}, 0x00000000, CHANNEL_STATE_NOT_STARTED, NULL },
    { 330, {0x3c7773bb, 0xbe55e031, 0xbdec7153, 0x3dc73f43, 0x3d7f59ae, 0xbdc06e18, 0xbcf31d72, 0x3c1ae9c8, 0x3e335768}, 0x00000000, CHANNEL_STATE_NOT_STARTED, NULL },
    { 331, {0x3c21f40c, 0xbdddecf6, 0x3c911994, 0xbe197c5c, 0xbd4af2b7, 0xbd77ec1d, 0x3dc5c328, 0x3d937aec, 0x3da0cb90}, 0x00000000, CHANNEL_STATE_NOT_STARTED, NULL },
    { 332, {0x3e1adaeb, 0xbd6ada96, 0xbc167854, 0x3d3d0dcd, 0xbe357926, 0xbe022089, 0xbc66ed18, 0xbe50ce30, 0x3dc411dc}, 0x00000000, CHANNEL_STATE_NOT_STARTED, NULL },
    { 333, {0x3de38b83, 0x3ce45a1d, 0x3dcfc421, 0x3e1ed264, 0x3e153820, 0x3e1dd798, 0x3d9d61c9, 0x3d6ecd99, 0x3e00ce7d}, 0x00000000, CHANNEL_STATE_NOT_STARTED, NULL },
    { 334, {0x3ce13b55, 0xbc165065, 0x3ce10f44, 0x3d82c0a5, 0x3d7b577d, 0x3d18b33f, 0x3e83b0c9, 0x3e1302a5, 0x3db80b46}, 0x00000000, CHANNEL_STATE_NOT_STARTED, NULL },
    { 335, {0x3e54127c, 0x3e56c171, 0x3e8d34da, 0xbdaec82d, 0xbe257a2e, 0xbc967f12, 0xbde01275, 0xbd9361b3, 0xbe7c5385}, 0x3faf9a58, CHANNEL_STATE_NOT_STARTED, NULL },
    { 336, {0x3d87367d, 0x3e09555c, 0xbdff7eb4, 0x3eeb9fe3, 0x3ebb768a, 0x3e4d1413, 0x3ec7e28a, 0x3e81c2c5, 0x3eb16f1c}, 0x00000000, CHANNEL_STATE_NOT_STARTED, NULL },
    { 337, {0x3e0cab32, 0x3bcd13e1, 0x3e6a936c, 0xbd55265c, 0x3d48704b, 0x3dd34e3a, 0xbe415e17, 0xbdb7290f, 0xbd97b873}, 0x00000000, CHANNEL_STATE_NOT_STARTED, NULL },
    { 338, {0xbedba85d, 0xbe0a197f, 0xbf128fad, 0xbeab7ca0, 0xbdbbf7a5, 0xbd56572b, 0xbe6c5795, 0xbd8814c7, 0x3d2b5b0b}, 0x00000000, CHANNEL_STATE_NOT_STARTED, NULL },
    { 339, {0x3d5f1f5d, 0x3a8fbb5d, 0x3d9ebdf6, 0xbdf9f564, 0xbe126fc0, 0xbd5b6737, 0x3d0abad3, 0xbc6dd75d, 0xbd90e855}, 0x00000000, CHANNEL_STATE_NOT_STARTED, NULL },
    { 340, {0x3cda0a1c, 0x3d863030, 0xbe2ece66, 0x3e621039, 0x3e208c4f, 0x3e7097e2, 0x3e8657df, 0x3d5df804, 0x3db0a98e}, 0x00000000, CHANNEL_STATE_NOT_STARTED, NULL },
    { 341, {0x3dda6953, 0xbe4de08a, 0x3e0c0834, 0x3e3b4772, 0xbd05ddac, 0xbe1d3028, 0x3db5314f, 0x3d938437, 0xbe1dc323}, 0x00000000, CHANNEL_STATE_NOT_STARTED, NULL },
    { 342, {0x3d8c3f36, 0x3e006d6d, 0x3d783f85, 0x3e365f2c, 0xbe2a2823, 0xbd7b3d84, 0x3e7f9a62, 0xbe11d6d3, 0x3d1b45de}, 0x00000000, CHANNEL_STATE_NOT_STARTED, NULL },
    { 343, {0x3ecdbc9c, 0x3e26df3d, 0x3e180254, 0xbcc5be94, 0x3dc0eb4e, 0x3d8f9e03, 0xbd7b31e5, 0xbd2f5391, 0xbd4c0645}, 0x00000000, CHANNEL_STATE_NOT_STARTED, NULL },
    { 344, {0x3d8690a3, 0x3c2af793, 0x3dd35970, 0xbe052a47, 0xbe1310ce, 0xbdf575f6, 0xbdfb0c95, 0x3e13eace, 0xbe6fefae}, 0x00000000, CHANNEL_STATE_NOT_STARTED, NULL },
    { 345, {0xbdc867a2, 0xbd9c92c2, 0x3c82f754, 0xbd732408, 0xbdbdad2f, 0x3d9193f4, 0xbd8e28f7, 0x3d5a63b2, 0x3d8b83cc}, 0x00000000, CHANNEL_STATE_NOT_STARTED, NULL },
    { 346, {0x3c7773bb, 0xbe55e031, 0xbdec7153, 0x3dc73f43, 0x3d7f59ae, 0xbdc06e18, 0xbcf31d72, 0x3c1ae9c8, 0x3e335768}, 0x00000000, CHANNEL_STATE_NOT_STARTED, NULL },
    { 347, {0x3c21f40c, 0xbdddecf6, 0x3c911994, 0xbe197c5c, 0xbd4af2b7, 0xbd77ec1d, 0x3dc5c328, 0x3d937aec, 0x3da0cb90}, 0x00000000, CHANNEL_STATE_NOT_STARTED, NULL },
    { 348, {0x3e1adaeb, 0xbd6ada96, 0xbc167854, 0x3d3d0dcd, 0xbe357926, 0xbe022089, 0xbc66ed18, 0xbe50ce30, 0x3dc411dc}, 0x00000000, CHANNEL_STATE_NOT_STARTED, NULL },
    { 349, {0x3de38b83, 0x3ce45a1d, 0x3dcfc421, 0x3e1ed264, 0x3e153820, 0x3e1dd798, 0x3d9d61c9, 0x3d6ecd99, 0x3e00ce7d}, 0x00000000, CHANNEL_STATE_NOT_STARTED, NULL },
    { 350, {0x3ce13b55, 0xbc165065, 0x3ce10f44, 0x3d82c0a5, 0x3d7b577d, 0x3d18b33f, 0x3e83b0c9, 0x3e1302a5, 0x3db80b46}, 0x00000000, CHANNEL_STATE_NOT_STARTED, NULL },
    { 351, {0x3e54127c, 0x3e56c171, 0x3e8d34da, 0xbdaec82d, 0xbe257a2e, 0xbc967f12, 0xbde01275, 0xbd9361b3, 0xbe7c5385}, 0x3f4c8e81, CHANNEL_STATE_NOT_STARTED, NULL },
    { 352, {0x3d87367d, 0x3e09555c, 0xbdff7eb4, 0x3eeb9fe3, 0x3ebb768a, 0x3e4d1413, 0x3ec7e28a, 0x3e81c2c5, 0x3eb16f1c}, 0x00000000, CHANNEL_STATE_NOT_STARTED, NULL },
    { 353, {0x3e0cab32, 0x3bcd13e1, 0x3e6a936c, 0xbd55265c, 0x3d48704b, 0x3dd34e3a, 0xbe415e17, 0xbdb7290f, 0xbd97b873}, 0x00000000, CHANNEL_STATE_NOT_STARTED, NULL },
    { 354, {0xbedba85d, 0xbe0a197f, 0xbf128fad, 0xbeab7ca0, 0xbdbbf7a5, 0xbd56572b, 0xbe6c5795, 0xbd8814c7, 0x3d2b5b0b}, 0x00000000, CHANNEL_STATE_NOT_STARTED, NULL },
    { 355, {0x3d5f1f5d, 0x3a8fbb5d, 0x3d9ebdf6, 0xbdf9f564, 0xbe126fc0, 0xbd5b6737, 0x3d0abad3, 0xbc6dd75d, 0xbd90e855}, 0x00000000, CHANNEL_STATE_NOT_STARTED, NULL },
    { 356, {0x3cda0a1c, 0x3d863030, 0xbe2ece66, 0x3e621039, 0x3e208c4f, 0x3e7097e2, 0x3e8657df, 0x3d5df804, 0x3db0a98e}, 0x00000000, CHANNEL_STATE_NOT_STARTED, NULL },
    { 357, {0x3dda6953, 0xbe4de08a, 0x3e0c0834, 0x3e3b4772, 0xbd05ddac, 0xbe1d3028, 0x3db5314f, 0x3d938437, 0xbe1dc323}, 0x00000000, CHANNEL_STATE_NOT_STARTED, NULL },
    { 358, {0x3d8c3f36, 0x3e006d6d, 0x3d783f85, 0x3e365f2c, 0xbe2a2823, 0xbd7b3d84, 0x3e7f9a62, 0xbe11d6d3, 0x3d1b45de}, 0x00000000, CHANNEL_STATE_NOT_STARTED, NULL },
    { 359, {0x3ecdbc9c, 0x3e26df3d, 0x3e180254, 0xbcc5be94, 0x3dc0eb4e, 0x3d8f9e03, 0xbd7b31e5, 0xbd2f5391, 0xbd4c0645}, 0x00000000, CHANNEL_STATE_NOT_STARTED, NULL },
    { 360, {0x3d8690a3, 0x3c2af793, 0x3dd35970, 0xbe052a47, 0xbe1310ce, 0xbdf575f6, 0xbdfb0c95, 0x3e13eace, 0xbe6fefae}, 0x00000000, CHANNEL_STATE_NOT_STARTED, NULL },
    { 361, {0xbdc867a2, 0xbd9c92c2, 0x3c82f754, 0xbd732408, 0xbdbdad2f, 0x3d9193f4, 0xbd8e28f7, 0x3d5a63b2, 0x3d8b83cc}, 0x00000000, CHANNEL_STATE_NOT_STARTED, NULL },
    { 362, {0x3c7773bb, 0xbe55e031, 0xbdec7153, 0x3dc73f43, 0x3d7f59ae, 0xbdc06e18, 0xbcf31d72, 0x3c1ae9c8, 0x3e335768}, 0x00000000, CHANNEL_STATE_NOT_STARTED, NULL },
    { 363, {0x3c21f40c, 0xbdddecf6, 0x3c911994, 0xbe197c5c, 0xbd4af2b7, 0xbd77ec1d, 0x3dc5c328, 0x3d937aec, 0x3da0cb90}, 0x00000000, CHANNEL_STATE_NOT_STARTED, NULL },
    { 364, {0x3e1adaeb, 0xbd6ada96, 0xbc167854, 0x3d3d0dcd, 0xbe357926, 0xbe022089, 0xbc66ed18, 0xbe50ce30, 0x3dc411dc}, 0x00000000, CHANNEL_STATE_NOT_STARTED, NULL },
    { 365, {0x3de38b83, 0x3ce45a1d, 0x3dcfc421, 0x3e1ed264, 0x3e153820, 0x3e1dd798, 0x3d9d61c9, 0x3d6ecd99, 0x3e00ce7d}, 0x00000000, CHANNEL_STATE_NOT_STARTED, NULL },
    { 366, {0x3ce13b55, 0xbc165065, 0x3ce10f44, 0x3d82c0a5, 0x3d7b577d, 0x3d18b33f, 0x3e83b0c9, 0x3e1302a5, 0x3db80b46}, 0x00000000, CHANNEL_STATE_NOT_STARTED, NULL },
    { 367, {0x3e54127c, 0x3e56c171, 0x3e8d34da, 0xbdaec82d, 0xbe257a2e, 0xbc967f12, 0xbde01275, 0xbd9361b3, 0xbe7c5385}, 0x3f6b5e6c, CHANNEL_STATE_NOT_STARTED, NULL },
    { 368, {0x3d87367d, 0x3e09555c, 0xbdff7eb4, 0x3eeb9fe3, 0x3ebb768a, 0x3e4d1413, 0x3ec7e28a, 0x3e81c2c5, 0x3eb16f1c}, 0x00000000, CHANNEL_STATE_NOT_STARTED, NULL },
    { 369, {0x3e0cab32, 0x3bcd13e1, 0x3e6a936c, 0xbd55265c, 0x3d48704b, 0x3dd34e3a, 0xbe415e17, 0xbdb7290f, 0xbd97b873}, 0x00000000, CHANNEL_STATE_NOT_STARTED, NULL },
    { 370, {0xbedba85d, 0xbe0a197f, 0xbf128fad, 0xbeab7ca0, 0xbdbbf7a5, 0xbd56572b, 0xbe6c5795, 0xbd8814c7, 0x3d2b5b0b}, 0x00000000, CHANNEL_STATE_NOT_STARTED, NULL },
    { 371, {0x3d5f1f5d, 0x3a8fbb5d, 0x3d9ebdf6, 0xbdf9f564, 0xbe126fc0, 0xbd5b6737, 0x3d0abad3, 0xbc6dd75d, 0xbd90e855}, 0x00000000, CHANNEL_STATE_NOT_STARTED, NULL },
    { 372, {0x3cda0a1c, 0x3d863030, 0xbe2ece66, 0x3e621039, 0x3e208c4f, 0x3e7097e2, 0x3e8657df, 0x3d5df804, 0x3db0a98e}, 0x00000000, CHANNEL_STATE_NOT_STARTED, NULL },
    { 373, {0x3dda6953, 0xbe4de08a, 0x3e0c0834, 0x3e3b4772, 0xbd05ddac, 0xbe1d3028, 0x3db5314f, 0x3d938437, 0xbe1dc323}, 0x00000000, CHANNEL_STATE_NOT_STARTED, NULL },
    { 374, {0x3d8c3f36, 0x3e006d6d, 0x3d783f85, 0x3e365f2c, 0xbe2a2823, 0xbd7b3d84, 0x3e7f9a62, 0xbe11d6d3, 0x3d1b45de}, 0x00000000, CHANNEL_STATE_NOT_STARTED, NULL },
    { 375, {0x3ecdbc9c, 0x3e26df3d, 0x3e180254, 0xbcc5be94, 0x3dc0eb4e, 0x3d8f9e03, 0xbd7b31e5, 0xbd2f5391, 0xbd4c0645}, 0x00000000, CHANNEL_STATE_NOT_STARTED, NULL },
    { 376, {0x3d8690a3, 0x3c2af793, 0x3dd35970, 0xbe052a47, 0xbe1310ce, 0xbdf575f6, 0xbdfb0c95, 0x3e13eace, 0xbe6fefae}, 0x00000000, CHANNEL_STATE_NOT_STARTED, NULL },
    { 377, {0xbdc867a2, 0xbd9c92c2, 0x3c82f754, 0xbd732408, 0xbdbdad2f, 0x3d9193f4, 0xbd8e28f7, 0x3d5a63b2, 0x3d8b83cc}, 0x00000000, CHANNEL_STATE_NOT_STARTED, NULL },
    { 378, {0x3c7773bb, 0xbe55e031, 0xbdec7153, 0x3dc73f43, 0x3d7f59ae, 0xbdc06e18, 0xbcf31d72, 0x3c1ae9c8, 0x3e335768}, 0x00000000, CHANNEL_STATE_NOT_STARTED, NULL },
    { 379, {0x3c21f40c, 0xbdddecf6, 0x3c911994, 0xbe197c5c, 0xbd4af2b7, 0xbd77ec1d, 0x3dc5c328, 0x3d937aec, 0x3da0cb90}, 0x00000000, CHANNEL_STATE_NOT_STARTED, NULL },
    { 380, {0x3e1adaeb, 0xbd6ada96, 0xbc167854, 0x3d3d0dcd, 0xbe357926, 0xbe022089, 0xbc66ed18, 0xbe50ce30, 0x3dc411dc}, 0x00000000, CHANNEL_STATE_NOT_STARTED, NULL },
    { 381, {0x3de38b83, 0x3ce45a1d, 0x3dcfc421, 0x3e1ed264, 0x3e153820, 0x3e1dd798, 0x3d9d61c9, 0x3d6ecd99, 0x3e00ce7d}, 0x00000000, CHANNEL_STATE_NOT_STARTED, NULL },
    { 382, {0x3ce13b55, 0xbc165065, 0x3ce10f44, 0x3d82c0a5, 0x3d7b577d, 0x3d18b33f, 0x3e83b0c9, 0x3e1302a5, 0x3db80b46}, 0x00000000, CHANNEL_STATE_NOT_STARTED, NULL },
    { 383, {0x3e54127c, 0x3e56c171, 0x3e8d34da, 0xbdaec82d, 0xbe257a2e, 0xbc967f12, 0xbde01275, 0xbd9361b3, 0xbe7c5385}, 0x3f624b78, CHANNEL_STATE_NOT_STARTED, NULL },
    { 384, {0x3d87367d, 0x3e09555c, 0xbdff7eb4, 0x3eeb9fe3, 0x3ebb768a, 0x3e4d1413, 0x3ec7e28a, 0x3e81c2c5, 0x3eb16f1c}, 0x00000000, CHANNEL_STATE_NOT_STARTED, NULL },
    { 385, {0x3e0cab32, 0x3bcd13e1, 0x3e6a936c, 0xbd55265c, 0x3d48704b, 0x3dd34e3a, 0xbe415e17, 0xbdb7290f, 0xbd97b873}, 0x00000000, CHANNEL_STATE_NOT_STARTED, NULL },
    { 386, {0xbedba85d, 0xbe0a197f, 0xbf128fad, 0xbeab7ca0, 0xbdbbf7a5, 0xbd56572b, 0xbe6c5795, 0xbd8814c7, 0x3d2b5b0b}, 0x00000000, CHANNEL_STATE_NOT_STARTED, NULL },
    { 387, {0x3d5f1f5d, 0x3a8fbb5d, 0x3d9ebdf6, 0xbdf9f564, 0xbe126fc0, 0xbd5b6737, 0x3d0abad3, 0xbc6dd75d, 0xbd90e855}, 0x00000000, CHANNEL_STATE_NOT_STARTED, NULL },
    { 388, {0x3cda0a1c, 0x3d863030, 0xbe2ece66, 0x3e621039, 0x3e208c4f, 0x3e7097e2, 0x3e8657df, 0x3d5df804, 0x3db0a98e}, 0x00000000, CHANNEL_STATE_NOT_STARTED, NULL },
    { 389, {0x3dda6953, 0xbe4de08a, 0x3e0c0834, 0x3e3b4772, 0xbd05ddac, 0xbe1d3028, 0x3db5314f, 0x3d938437, 0xbe1dc323}, 0x00000000, CHANNEL_STATE_NOT_STARTED, NULL },
    { 390, {0x3d8c3f36, 0x3e006d6d, 0x3d783f85, 0x3e365f2c, 0xbe2a2823, 0xbd7b3d84, 0x3e7f9a62, 0xbe11d6d3, 0x3d1b45de}, 0x00000000, CHANNEL_STATE_NOT_STARTED, NULL },
    { 391, {0x3ecdbc9c, 0x3e26df3d, 0x3e180254, 0xbcc5be94, 0x3dc0eb4e, 0x3d8f9e03, 0xbd7b31e5, 0xbd2f5391, 0xbd4c0645}, 0x00000000, CHANNEL_STATE_NOT_STARTED, NULL },
    { 392, {0x3d8690a3, 0x3c2af793, 0x3dd35970, 0xbe052a47, 0xbe1310ce, 0xbdf575f6, 0xbdfb0c95, 0x3e13eace, 0xbe6fefae}, 0x00000000, CHANNEL_STATE_NOT_STARTED, NULL },
    { 393, {0xbdc867a2, 0xbd9c92c2, 0x3c82f754, 0xbd732408, 0xbdbdad2f, 0x3d9193f4, 0xbd8e28f7, 0x3d5a63b2, 0x3d8b83cc}, 0x00000000, CHANNEL_STATE_NOT_STARTED, NULL },
    { 394, {0x3c7773bb, 0xbe55e031, 0xbdec7153, 0x3dc73f43, 0x3d7f59ae, 0xbdc06e18, 0xbcf31d72, 0x3c1ae9c8, 0x3e335768}, 0x00000000, CHANNEL_STATE_NOT_STARTED, NULL },
    { 395, {0x3c21f40c, 0xbdddecf6, 0x3c911994, 0xbe197c5c, 0xbd4af2b7, 0xbd77ec1d, 0x3dc5c328, 0x3d937aec, 0x3da0cb90}, 0x00000000, CHANNEL_STATE_NOT_STARTED, NULL },
    { 396, {0x3e1adaeb, 0xbd6ada96, 0xbc167854, 0x3d3d0dcd, 0xbe357926, 0xbe022089, 0xbc66ed18, 0xbe50ce30, 0x3dc411dc}, 0x00000000, CHANNEL_STATE_NOT_STARTED, NULL },
    { 397, {0x3de38b83, 0x3ce45a1d, 0x3dcfc421, 0x3e1ed264, 0x3e153820, 0x3e1dd798, 0x3d9d61c9, 0x3d6ecd99, 0x3e00ce7d}, 0x00000000, CHANNEL_STATE_NOT_STARTED, NULL },
    { 398, {0x3ce13b55, 0xbc165065, 0x3ce10f44, 0x3d82c0a5, 0x3d7b577d, 0x3d18b33f, 0x3e83b0c9, 0x3e1302a5, 0x3db80b46}, 0x00000000, CHANNEL_STATE_NOT_STARTED, NULL },
    { 399, {0x3e54127c, 0x3e56c171, 0x3e8d34da, 0xbdaec82d, 0xbe257a2e, 0xbc967f12, 0xbde01275, 0xbd9361b3, 0xbe7c5385}, 0x3f59ea21, CHANNEL_STATE_NOT_STARTED, NULL },
    { 400, {0x3d87367d, 0x3e09555c, 0xbdff7eb4, 0x3eeb9fe3, 0x3ebb768a, 0x3e4d1413, 0x3ec7e28a, 0x3e81c2c5, 0x3eb16f1c}, 0x00000000, CHANNEL_STATE_NOT_STARTED, NULL },
