#ifndef CNN_LAYER_H
#define CNN_LAYER_H

#include "net_engine_type.h"
#include "channels.h"

static Channel_Kernal_Data layer_1_f10_weights[] = { 
    { 0, { 0xbda736a0, 0xbc766f8e, 0x3dff2095, 0x3f55fe8e, 0x3e73b265, 0xbed256af, 0x3f9f8d33, 0xbfac319d, 0xbf14ad7b}, 0x00000000, CHANNEL_STATE_NOT_STARTED},
    { 1, { 0xbe8859c5, 0x3e985542, 0x3dd2f72a, 0x3f5a26db, 0x3ea3ef4a, 0xbeaa0b52, 0x3f0476e0, 0xbf8b9a67, 0xbefe1f32}, 0x00000000, CHANNEL_STATE_NOT_STARTED},
    { 2, { 0xbe0c2cc7, 0x3dd01a78, 0xbe37a43d, 0x3c8671ca, 0x3edf2e49, 0xbdd3cd0e, 0x3d09f375, 0xbe5d925d, 0x3d748d0e}, 0xbda9a660, CHANNEL_STATE_NOT_STARTED},
    { 3, { 0xbda736a0, 0xbc766f8e, 0x3dff2095, 0x3f55fe8e, 0x3e73b265, 0xbed256af, 0x3f9f8d33, 0xbfac319d, 0xbf14ad7b}, 0x00000000, CHANNEL_STATE_NOT_STARTED},
    { 4, { 0xbe8859c5, 0x3e985542, 0x3dd2f72a, 0x3f5a26db, 0x3ea3ef4a, 0xbeaa0b52, 0x3f0476e0, 0xbf8b9a67, 0xbefe1f32}, 0x00000000, CHANNEL_STATE_NOT_STARTED},
    { 5, { 0xbe0c2cc7, 0x3dd01a78, 0xbe37a43d, 0x3c8671ca, 0x3edf2e49, 0xbdd3cd0e, 0x3d09f375, 0xbe5d925d, 0x3d748d0e}, 0x3f6b76b4, CHANNEL_STATE_NOT_STARTED},
    { 6, { 0xbda736a0, 0xbc766f8e, 0x3dff2095, 0x3f55fe8e, 0x3e73b265, 0xbed256af, 0x3f9f8d33, 0xbfac319d, 0xbf14ad7b}, 0x00000000, CHANNEL_STATE_NOT_STARTED},
    { 7, { 0xbe8859c5, 0x3e985542, 0x3dd2f72a, 0x3f5a26db, 0x3ea3ef4a, 0xbeaa0b52, 0x3f0476e0, 0xbf8b9a67, 0xbefe1f32}, 0x00000000, CHANNEL_STATE_NOT_STARTED},
    { 8, { 0xbe0c2cc7, 0x3dd01a78, 0xbe37a43d, 0x3c8671ca, 0x3edf2e49, 0xbdd3cd0e, 0x3d09f375, 0xbe5d925d, 0x3d748d0e}, 0x3f982656, CHANNEL_STATE_NOT_STARTED},
    { 9, { 0xbda736a0, 0xbc766f8e, 0x3dff2095, 0x3f55fe8e, 0x3e73b265, 0xbed256af, 0x3f9f8d33, 0xbfac319d, 0xbf14ad7b}, 0x00000000, CHANNEL_STATE_NOT_STARTED},
    { 10, { 0xbe8859c5, 0x3e985542, 0x3dd2f72a, 0x3f5a26db, 0x3ea3ef4a, 0xbeaa0b52, 0x3f0476e0, 0xbf8b9a67, 0xbefe1f32}, 0x00000000, CHANNEL_STATE_NOT_STARTED},
    { 11, { 0xbe0c2cc7, 0x3dd01a78, 0xbe37a43d, 0x3c8671ca, 0x3edf2e49, 0xbdd3cd0e, 0x3d09f375, 0xbe5d925d, 0x3d748d0e}, 0x3db1c7c7, CHANNEL_STATE_NOT_STARTED},
    { 12, { 0xbda736a0, 0xbc766f8e, 0x3dff2095, 0x3f55fe8e, 0x3e73b265, 0xbed256af, 0x3f9f8d33, 0xbfac319d, 0xbf14ad7b}, 0x00000000, CHANNEL_STATE_NOT_STARTED},
    { 13, { 0xbe8859c5, 0x3e985542, 0x3dd2f72a, 0x3f5a26db, 0x3ea3ef4a, 0xbeaa0b52, 0x3f0476e0, 0xbf8b9a67, 0xbefe1f32}, 0x00000000, CHANNEL_STATE_NOT_STARTED},
    { 14, { 0xbe0c2cc7, 0x3dd01a78, 0xbe37a43d, 0x3c8671ca, 0x3edf2e49, 0xbdd3cd0e, 0x3d09f375, 0xbe5d925d, 0x3d748d0e}, 0xbc9efe73, CHANNEL_STATE_NOT_STARTED},
    { 15, { 0xbda736a0, 0xbc766f8e, 0x3dff2095, 0x3f55fe8e, 0x3e73b265, 0xbed256af, 0x3f9f8d33, 0xbfac319d, 0xbf14ad7b}, 0x00000000, CHANNEL_STATE_NOT_STARTED},
    { 16, { 0xbe8859c5, 0x3e985542, 0x3dd2f72a, 0x3f5a26db, 0x3ea3ef4a, 0xbeaa0b52, 0x3f0476e0, 0xbf8b9a67, 0xbefe1f32}, 0x00000000, CHANNEL_STATE_NOT_STARTED},
    { 17, { 0xbe0c2cc7, 0x3dd01a78, 0xbe37a43d, 0x3c8671ca, 0x3edf2e49, 0xbdd3cd0e, 0x3d09f375, 0xbe5d925d, 0x3d748d0e}, 0xbd00db0e, CHANNEL_STATE_NOT_STARTED},
    { 18, { 0xbda736a0, 0xbc766f8e, 0x3dff2095, 0x3f55fe8e, 0x3e73b265, 0xbed256af, 0x3f9f8d33, 0xbfac319d, 0xbf14ad7b}, 0x00000000, CHANNEL_STATE_NOT_STARTED},
    { 19, { 0xbe8859c5, 0x3e985542, 0x3dd2f72a, 0x3f5a26db, 0x3ea3ef4a, 0xbeaa0b52, 0x3f0476e0, 0xbf8b9a67, 0xbefe1f32}, 0x00000000, CHANNEL_STATE_NOT_STARTED},
    { 20, { 0xbe0c2cc7, 0x3dd01a78, 0xbe37a43d, 0x3c8671ca, 0x3edf2e49, 0xbdd3cd0e, 0x3d09f375, 0xbe5d925d, 0x3d748d0e}, 0x3e078980, CHANNEL_STATE_NOT_STARTED},
    { 21, { 0xbda736a0, 0xbc766f8e, 0x3dff2095, 0x3f55fe8e, 0x3e73b265, 0xbed256af, 0x3f9f8d33, 0xbfac319d, 0xbf14ad7b}, 0x00000000, CHANNEL_STATE_NOT_STARTED},
    { 22, { 0xbe8859c5, 0x3e985542, 0x3dd2f72a, 0x3f5a26db, 0x3ea3ef4a, 0xbeaa0b52, 0x3f0476e0, 0xbf8b9a67, 0xbefe1f32}, 0x00000000, CHANNEL_STATE_NOT_STARTED},
    { 23, { 0xbe0c2cc7, 0x3dd01a78, 0xbe37a43d, 0x3c8671ca, 0x3edf2e49, 0xbdd3cd0e, 0x3d09f375, 0xbe5d925d, 0x3d748d0e}, 0xbd55d3c9, CHANNEL_STATE_NOT_STARTED},
    { 24, { 0xbda736a0, 0xbc766f8e, 0x3dff2095, 0x3f55fe8e, 0x3e73b265, 0xbed256af, 0x3f9f8d33, 0xbfac319d, 0xbf14ad7b}, 0x00000000, CHANNEL_STATE_NOT_STARTED},
    { 25, { 0xbe8859c5, 0x3e985542, 0x3dd2f72a, 0x3f5a26db, 0x3ea3ef4a, 0xbeaa0b52, 0x3f0476e0, 0xbf8b9a67, 0xbefe1f32}, 0x00000000, CHANNEL_STATE_NOT_STARTED},
    { 26, { 0xbe0c2cc7, 0x3dd01a78, 0xbe37a43d, 0x3c8671ca, 0x3edf2e49, 0xbdd3cd0e, 0x3d09f375, 0xbe5d925d, 0x3d748d0e}, 0x3bfabc05, CHANNEL_STATE_NOT_STARTED},
    { 27, { 0xbda736a0, 0xbc766f8e, 0x3dff2095, 0x3f55fe8e, 0x3e73b265, 0xbed256af, 0x3f9f8d33, 0xbfac319d, 0xbf14ad7b}, 0x00000000, CHANNEL_STATE_NOT_STARTED},
    { 28, { 0xbe8859c5, 0x3e985542, 0x3dd2f72a, 0x3f5a26db, 0x3ea3ef4a, 0xbeaa0b52, 0x3f0476e0, 0xbf8b9a67, 0xbefe1f32}, 0x00000000, CHANNEL_STATE_NOT_STARTED},
    { 29, { 0xbe0c2cc7, 0x3dd01a78, 0xbe37a43d, 0x3c8671ca, 0x3edf2e49, 0xbdd3cd0e, 0x3d09f375, 0xbe5d925d, 0x3d748d0e}, 0x3f2ad554, CHANNEL_STATE_NOT_STARTED},
};


static u32 PRelu_Layer_2_10_weights[10] ={
    0xbf201aa1, 0xbe58c2e1, 0x3f817ed8, 0x3ee1da8f, 0xbf8472ad, 
    0x3ea49d7d, 0xbe988525, 0x3e80f74f, 0xbf61fb00, 0xbfa39fe0
};

static u32 layer_4_f16_weights[] = {
    { 0, { 0xbdee983a, 0xbec46272, 0xbf141f45, 0x3ea34484, 0x3ceb9d7b, 0xbf00e498, 0xbeaec5ce, 0xbe953ee2, 0x3f5600ce}, 0x00000000, CHANNEL_STATE_NOT_STARTED},
    { 0, { 0xbcbfa468, 0x3e96cbe4, 0x3e761280, 0x3d1e09e8, 0x3e0ca33d, 0xbedc6ed3, 0xbe961b99, 0xbe1d6249, 0x3cdc4235}, 0x00000000, CHANNEL_STATE_NOT_STARTED},
    { 0, { 0xbdbbfc6b, 0x3e81307e, 0x3ed2e63a, 0x3e11a25f, 0xbd2054e7, 0xbeb6c6db, 0xbb982972, 0x3ea1ee2a, 0xbeedf44c}, 0x00000000, CHANNEL_STATE_NOT_STARTED},
    { 0, { 0x3ead5634, 0xbde23e22, 0x3e627d2a, 0xbf21a121, 0x3d8fc892, 0xbf1b7c8e, 0x3f1093cf, 0xbe9a72fd, 0x3f01b150}, 0x00000000, CHANNEL_STATE_NOT_STARTED},
    { 0, { 0x3ef64bb1, 0x3e34931d, 0x3d63ece3, 0xbc4f8cd2, 0xbe4bddbd, 0xbdf656c4, 0x3d140523, 0xbece7b85, 0xbece39ce}, 0x00000000, CHANNEL_STATE_NOT_STARTED},
    { 0, { 0xbe80381d, 0x3e4508d5, 0xbd072694, 0x3e3350be, 0x3edead88, 0xbb8565de, 0x3da56288, 0xbd0d3ea2, 0xbdf6f07f}, 0x00000000, CHANNEL_STATE_NOT_STARTED},
    { 0, { 0x3bbc191e, 0xbebb8e50, 0x3e831c9c, 0x3e61dbdf, 0x3f428481, 0xbe971a66, 0x3d44e0ac, 0xbe86d812, 0xbfe53e44}, 0x00000000, CHANNEL_STATE_NOT_STARTED},
    { 0, { 0x3c952752, 0x3d96a7fd, 0x3dd1ddd1, 0xbe212d9f, 0xbe61b597, 0xbe713c27, 0x3d7265a3, 0x3f02e6fe, 0x3e88f448}, 0x00000000, CHANNEL_STATE_NOT_STARTED},
    { 0, { 0xbd0dc310, 0x3eac68a5, 0x3ea12b66, 0x3e38eef7, 0x3d64da93, 0x3e8c3e43, 0xbe1fbe8d, 0xbf038a76, 0xbfaba3c8}, 0x00000000, CHANNEL_STATE_NOT_STARTED},
    { 0, { 0x39f5d982, 0x3e6a63e8, 0x3e7da0ea, 0x3d916d21, 0x3dc6904c, 0xbe8afde5, 0xbe78ccc7, 0x3dc30607, 0xbd441f4a}, 0x00000000, CHANNEL_STATE_NOT_STARTED},
    { 0, { 0xbdee983a, 0xbec46272, 0xbf141f45, 0x3ea34484, 0x3ceb9d7b, 0xbf00e498, 0xbeaec5ce, 0xbe953ee2, 0x3f5600ce}, 0x00000000, CHANNEL_STATE_NOT_STARTED},
    { 0, { 0xbcbfa468, 0x3e96cbe4, 0x3e761280, 0x3d1e09e8, 0x3e0ca33d, 0xbedc6ed3, 0xbe961b99, 0xbe1d6249, 0x3cdc4235}, 0x00000000, CHANNEL_STATE_NOT_STARTED},
    { 0, { 0xbdbbfc6b, 0x3e81307e, 0x3ed2e63a, 0x3e11a25f, 0xbd2054e7, 0xbeb6c6db, 0xbb982972, 0x3ea1ee2a, 0xbeedf44c}, 0x00000000, CHANNEL_STATE_NOT_STARTED},
    { 0, { 0x3ead5634, 0xbde23e22, 0x3e627d2a, 0xbf21a121, 0x3d8fc892, 0xbf1b7c8e, 0x3f1093cf, 0xbe9a72fd, 0x3f01b150}, 0x00000000, CHANNEL_STATE_NOT_STARTED},
    { 0, { 0x3ef64bb1, 0x3e34931d, 0x3d63ece3, 0xbc4f8cd2, 0xbe4bddbd, 0xbdf656c4, 0x3d140523, 0xbece7b85, 0xbece39ce}, 0x00000000, CHANNEL_STATE_NOT_STARTED},
    { 0, { 0xbe80381d, 0x3e4508d5, 0xbd072694, 0x3e3350be, 0x3edead88, 0xbb8565de, 0x3da56288, 0xbd0d3ea2, 0xbdf6f07f}, 0x00000000, CHANNEL_STATE_NOT_STARTED},
    { 0, { 0x3bbc191e, 0xbebb8e50, 0x3e831c9c, 0x3e61dbdf, 0x3f428481, 0xbe971a66, 0x3d44e0ac, 0xbe86d812, 0xbfe53e44}, 0x00000000, CHANNEL_STATE_NOT_STARTED},
    { 0, { 0x3c952752, 0x3d96a7fd, 0x3dd1ddd1, 0xbe212d9f, 0xbe61b597, 0xbe713c27, 0x3d7265a3, 0x3f02e6fe, 0x3e88f448}, 0x00000000, CHANNEL_STATE_NOT_STARTED},
    { 0, { 0xbd0dc310, 0x3eac68a5, 0x3ea12b66, 0x3e38eef7, 0x3d64da93, 0x3e8c3e43, 0xbe1fbe8d, 0xbf038a76, 0xbfaba3c8}, 0x00000000, CHANNEL_STATE_NOT_STARTED},
    { 0, { 0x39f5d982, 0x3e6a63e8, 0x3e7da0ea, 0x3d916d21, 0x3dc6904c, 0xbe8afde5, 0xbe78ccc7, 0x3dc30607, 0xbd441f4a}, 0x00000000, CHANNEL_STATE_NOT_STARTED},
    { 0, { 0xbdee983a, 0xbec46272, 0xbf141f45, 0x3ea34484, 0x3ceb9d7b, 0xbf00e498, 0xbeaec5ce, 0xbe953ee2, 0x3f5600ce}, 0x00000000, CHANNEL_STATE_NOT_STARTED},
    { 0, { 0xbcbfa468, 0x3e96cbe4, 0x3e761280, 0x3d1e09e8, 0x3e0ca33d, 0xbedc6ed3, 0xbe961b99, 0xbe1d6249, 0x3cdc4235}, 0x00000000, CHANNEL_STATE_NOT_STARTED},
    { 0, { 0xbdbbfc6b, 0x3e81307e, 0x3ed2e63a, 0x3e11a25f, 0xbd2054e7, 0xbeb6c6db, 0xbb982972, 0x3ea1ee2a, 0xbeedf44c}, 0x00000000, CHANNEL_STATE_NOT_STARTED},
    { 0, { 0x3ead5634, 0xbde23e22, 0x3e627d2a, 0xbf21a121, 0x3d8fc892, 0xbf1b7c8e, 0x3f1093cf, 0xbe9a72fd, 0x3f01b150}, 0x00000000, CHANNEL_STATE_NOT_STARTED},
    { 0, { 0x3ef64bb1, 0x3e34931d, 0x3d63ece3, 0xbc4f8cd2, 0xbe4bddbd, 0xbdf656c4, 0x3d140523, 0xbece7b85, 0xbece39ce}, 0x00000000, CHANNEL_STATE_NOT_STARTED},
    { 0, { 0xbe80381d, 0x3e4508d5, 0xbd072694, 0x3e3350be, 0x3edead88, 0xbb8565de, 0x3da56288, 0xbd0d3ea2, 0xbdf6f07f}, 0x00000000, CHANNEL_STATE_NOT_STARTED},
    { 0, { 0x3bbc191e, 0xbebb8e50, 0x3e831c9c, 0x3e61dbdf, 0x3f428481, 0xbe971a66, 0x3d44e0ac, 0xbe86d812, 0xbfe53e44}, 0x00000000, CHANNEL_STATE_NOT_STARTED},
    { 0, { 0x3c952752, 0x3d96a7fd, 0x3dd1ddd1, 0xbe212d9f, 0xbe61b597, 0xbe713c27, 0x3d7265a3, 0x3f02e6fe, 0x3e88f448}, 0x00000000, CHANNEL_STATE_NOT_STARTED},
    { 0, { 0xbd0dc310, 0x3eac68a5, 0x3ea12b66, 0x3e38eef7, 0x3d64da93, 0x3e8c3e43, 0xbe1fbe8d, 0xbf038a76, 0xbfaba3c8}, 0x00000000, CHANNEL_STATE_NOT_STARTED},
    { 0, { 0x39f5d982, 0x3e6a63e8, 0x3e7da0ea, 0x3d916d21, 0x3dc6904c, 0xbe8afde5, 0xbe78ccc7, 0x3dc30607, 0xbd441f4a}, 0x00000000, CHANNEL_STATE_NOT_STARTED},
    { 0, { 0xbdee983a, 0xbec46272, 0xbf141f45, 0x3ea34484, 0x3ceb9d7b, 0xbf00e498, 0xbeaec5ce, 0xbe953ee2, 0x3f5600ce}, 0x00000000, CHANNEL_STATE_NOT_STARTED},
    { 0, { 0xbcbfa468, 0x3e96cbe4, 0x3e761280, 0x3d1e09e8, 0x3e0ca33d, 0xbedc6ed3, 0xbe961b99, 0xbe1d6249, 0x3cdc4235}, 0x00000000, CHANNEL_STATE_NOT_STARTED},
    { 0, { 0xbdbbfc6b, 0x3e81307e, 0x3ed2e63a, 0x3e11a25f, 0xbd2054e7, 0xbeb6c6db, 0xbb982972, 0x3ea1ee2a, 0xbeedf44c}, 0x00000000, CHANNEL_STATE_NOT_STARTED},
    { 0, { 0x3ead5634, 0xbde23e22, 0x3e627d2a, 0xbf21a121, 0x3d8fc892, 0xbf1b7c8e, 0x3f1093cf, 0xbe9a72fd, 0x3f01b150}, 0x00000000, CHANNEL_STATE_NOT_STARTED},
    { 0, { 0x3ef64bb1, 0x3e34931d, 0x3d63ece3, 0xbc4f8cd2, 0xbe4bddbd, 0xbdf656c4, 0x3d140523, 0xbece7b85, 0xbece39ce}, 0x00000000, CHANNEL_STATE_NOT_STARTED},
    { 0, { 0xbe80381d, 0x3e4508d5, 0xbd072694, 0x3e3350be, 0x3edead88, 0xbb8565de, 0x3da56288, 0xbd0d3ea2, 0xbdf6f07f}, 0x00000000, CHANNEL_STATE_NOT_STARTED},
    { 0, { 0x3bbc191e, 0xbebb8e50, 0x3e831c9c, 0x3e61dbdf, 0x3f428481, 0xbe971a66, 0x3d44e0ac, 0xbe86d812, 0xbfe53e44}, 0x00000000, CHANNEL_STATE_NOT_STARTED},
    { 0, { 0x3c952752, 0x3d96a7fd, 0x3dd1ddd1, 0xbe212d9f, 0xbe61b597, 0xbe713c27, 0x3d7265a3, 0x3f02e6fe, 0x3e88f448}, 0x00000000, CHANNEL_STATE_NOT_STARTED},
    { 0, { 0xbd0dc310, 0x3eac68a5, 0x3ea12b66, 0x3e38eef7, 0x3d64da93, 0x3e8c3e43, 0xbe1fbe8d, 0xbf038a76, 0xbfaba3c8}, 0x00000000, CHANNEL_STATE_NOT_STARTED},
    { 0, { 0x39f5d982, 0x3e6a63e8, 0x3e7da0ea, 0x3d916d21, 0x3dc6904c, 0xbe8afde5, 0xbe78ccc7, 0x3dc30607, 0xbd441f4a}, 0x00000000, CHANNEL_STATE_NOT_STARTED},
    { 0, { 0xbdee983a, 0xbec46272, 0xbf141f45, 0x3ea34484, 0x3ceb9d7b, 0xbf00e498, 0xbeaec5ce, 0xbe953ee2, 0x3f5600ce}, 0x00000000, CHANNEL_STATE_NOT_STARTED},
    { 0, { 0xbcbfa468, 0x3e96cbe4, 0x3e761280, 0x3d1e09e8, 0x3e0ca33d, 0xbedc6ed3, 0xbe961b99, 0xbe1d6249, 0x3cdc4235}, 0x00000000, CHANNEL_STATE_NOT_STARTED},
    { 0, { 0xbdbbfc6b, 0x3e81307e, 0x3ed2e63a, 0x3e11a25f, 0xbd2054e7, 0xbeb6c6db, 0xbb982972, 0x3ea1ee2a, 0xbeedf44c}, 0x00000000, CHANNEL_STATE_NOT_STARTED},
    { 0, { 0x3ead5634, 0xbde23e22, 0x3e627d2a, 0xbf21a121, 0x3d8fc892, 0xbf1b7c8e, 0x3f1093cf, 0xbe9a72fd, 0x3f01b150}, 0x00000000, CHANNEL_STATE_NOT_STARTED},
    { 0, { 0x3ef64bb1, 0x3e34931d, 0x3d63ece3, 0xbc4f8cd2, 0xbe4bddbd, 0xbdf656c4, 0x3d140523, 0xbece7b85, 0xbece39ce}, 0x00000000, CHANNEL_STATE_NOT_STARTED},
    { 0, { 0xbe80381d, 0x3e4508d5, 0xbd072694, 0x3e3350be, 0x3edead88, 0xbb8565de, 0x3da56288, 0xbd0d3ea2, 0xbdf6f07f}, 0x00000000, CHANNEL_STATE_NOT_STARTED},
    { 0, { 0x3bbc191e, 0xbebb8e50, 0x3e831c9c, 0x3e61dbdf, 0x3f428481, 0xbe971a66, 0x3d44e0ac, 0xbe86d812, 0xbfe53e44}, 0x00000000, CHANNEL_STATE_NOT_STARTED},
    { 0, { 0x3c952752, 0x3d96a7fd, 0x3dd1ddd1, 0xbe212d9f, 0xbe61b597, 0xbe713c27, 0x3d7265a3, 0x3f02e6fe, 0x3e88f448}, 0x00000000, CHANNEL_STATE_NOT_STARTED},
    { 0, { 0xbd0dc310, 0x3eac68a5, 0x3ea12b66, 0x3e38eef7, 0x3d64da93, 0x3e8c3e43, 0xbe1fbe8d, 0xbf038a76, 0xbfaba3c8}, 0x00000000, CHANNEL_STATE_NOT_STARTED},
    { 0, { 0x39f5d982, 0x3e6a63e8, 0x3e7da0ea, 0x3d916d21, 0x3dc6904c, 0xbe8afde5, 0xbe78ccc7, 0x3dc30607, 0xbd441f4a}, 0x00000000, CHANNEL_STATE_NOT_STARTED},
    { 0, { 0xbdee983a, 0xbec46272, 0xbf141f45, 0x3ea34484, 0x3ceb9d7b, 0xbf00e498, 0xbeaec5ce, 0xbe953ee2, 0x3f5600ce}, 0x00000000, CHANNEL_STATE_NOT_STARTED},
    { 0, { 0xbcbfa468, 0x3e96cbe4, 0x3e761280, 0x3d1e09e8, 0x3e0ca33d, 0xbedc6ed3, 0xbe961b99, 0xbe1d6249, 0x3cdc4235}, 0x00000000, CHANNEL_STATE_NOT_STARTED},
    { 0, { 0xbdbbfc6b, 0x3e81307e, 0x3ed2e63a, 0x3e11a25f, 0xbd2054e7, 0xbeb6c6db, 0xbb982972, 0x3ea1ee2a, 0xbeedf44c}, 0x00000000, CHANNEL_STATE_NOT_STARTED},
    { 0, { 0x3ead5634, 0xbde23e22, 0x3e627d2a, 0xbf21a121, 0x3d8fc892, 0xbf1b7c8e, 0x3f1093cf, 0xbe9a72fd, 0x3f01b150}, 0x00000000, CHANNEL_STATE_NOT_STARTED},
    { 0, { 0x3ef64bb1, 0x3e34931d, 0x3d63ece3, 0xbc4f8cd2, 0xbe4bddbd, 0xbdf656c4, 0x3d140523, 0xbece7b85, 0xbece39ce}, 0x00000000, CHANNEL_STATE_NOT_STARTED},
    { 0, { 0xbe80381d, 0x3e4508d5, 0xbd072694, 0x3e3350be, 0x3edead88, 0xbb8565de, 0x3da56288, 0xbd0d3ea2, 0xbdf6f07f}, 0x00000000, CHANNEL_STATE_NOT_STARTED},
    { 0, { 0x3bbc191e, 0xbebb8e50, 0x3e831c9c, 0x3e61dbdf, 0x3f428481, 0xbe971a66, 0x3d44e0ac, 0xbe86d812, 0xbfe53e44}, 0x00000000, CHANNEL_STATE_NOT_STARTED},
    { 0, { 0x3c952752, 0x3d96a7fd, 0x3dd1ddd1, 0xbe212d9f, 0xbe61b597, 0xbe713c27, 0x3d7265a3, 0x3f02e6fe, 0x3e88f448}, 0x00000000, CHANNEL_STATE_NOT_STARTED},
    { 0, { 0xbd0dc310, 0x3eac68a5, 0x3ea12b66, 0x3e38eef7, 0x3d64da93, 0x3e8c3e43, 0xbe1fbe8d, 0xbf038a76, 0xbfaba3c8}, 0x00000000, CHANNEL_STATE_NOT_STARTED},
    { 0, { 0x39f5d982, 0x3e6a63e8, 0x3e7da0ea, 0x3d916d21, 0x3dc6904c, 0xbe8afde5, 0xbe78ccc7, 0x3dc30607, 0xbd441f4a}, 0x00000000, CHANNEL_STATE_NOT_STARTED},
    { 0, { 0xbdee983a, 0xbec46272, 0xbf141f45, 0x3ea34484, 0x3ceb9d7b, 0xbf00e498, 0xbeaec5ce, 0xbe953ee2, 0x3f5600ce}, 0x00000000, CHANNEL_STATE_NOT_STARTED},
    { 0, { 0xbcbfa468, 0x3e96cbe4, 0x3e761280, 0x3d1e09e8, 0x3e0ca33d, 0xbedc6ed3, 0xbe961b99, 0xbe1d6249, 0x3cdc4235}, 0x00000000, CHANNEL_STATE_NOT_STARTED},
    { 0, { 0xbdbbfc6b, 0x3e81307e, 0x3ed2e63a, 0x3e11a25f, 0xbd2054e7, 0xbeb6c6db, 0xbb982972, 0x3ea1ee2a, 0xbeedf44c}, 0x00000000, CHANNEL_STATE_NOT_STARTED},
    { 0, { 0x3ead5634, 0xbde23e22, 0x3e627d2a, 0xbf21a121, 0x3d8fc892, 0xbf1b7c8e, 0x3f1093cf, 0xbe9a72fd, 0x3f01b150}, 0x00000000, CHANNEL_STATE_NOT_STARTED},
    { 0, { 0x3ef64bb1, 0x3e34931d, 0x3d63ece3, 0xbc4f8cd2, 0xbe4bddbd, 0xbdf656c4, 0x3d140523, 0xbece7b85, 0xbece39ce}, 0x00000000, CHANNEL_STATE_NOT_STARTED},
    { 0, { 0xbe80381d, 0x3e4508d5, 0xbd072694, 0x3e3350be, 0x3edead88, 0xbb8565de, 0x3da56288, 0xbd0d3ea2, 0xbdf6f07f}, 0x00000000, CHANNEL_STATE_NOT_STARTED},
    { 0, { 0x3bbc191e, 0xbebb8e50, 0x3e831c9c, 0x3e61dbdf, 0x3f428481, 0xbe971a66, 0x3d44e0ac, 0xbe86d812, 0xbfe53e44}, 0x00000000, CHANNEL_STATE_NOT_STARTED},
    { 0, { 0x3c952752, 0x3d96a7fd, 0x3dd1ddd1, 0xbe212d9f, 0xbe61b597, 0xbe713c27, 0x3d7265a3, 0x3f02e6fe, 0x3e88f448}, 0x00000000, CHANNEL_STATE_NOT_STARTED},
    { 0, { 0xbd0dc310, 0x3eac68a5, 0x3ea12b66, 0x3e38eef7, 0x3d64da93, 0x3e8c3e43, 0xbe1fbe8d, 0xbf038a76, 0xbfaba3c8}, 0x00000000, CHANNEL_STATE_NOT_STARTED},
    { 0, { 0x39f5d982, 0x3e6a63e8, 0x3e7da0ea, 0x3d916d21, 0x3dc6904c, 0xbe8afde5, 0xbe78ccc7, 0x3dc30607, 0xbd441f4a}, 0x00000000, CHANNEL_STATE_NOT_STARTED},
    { 0, { 0xbdee983a, 0xbec46272, 0xbf141f45, 0x3ea34484, 0x3ceb9d7b, 0xbf00e498, 0xbeaec5ce, 0xbe953ee2, 0x3f5600ce}, 0x00000000, CHANNEL_STATE_NOT_STARTED},
    { 0, { 0xbcbfa468, 0x3e96cbe4, 0x3e761280, 0x3d1e09e8, 0x3e0ca33d, 0xbedc6ed3, 0xbe961b99, 0xbe1d6249, 0x3cdc4235}, 0x00000000, CHANNEL_STATE_NOT_STARTED},
    { 0, { 0xbdbbfc6b, 0x3e81307e, 0x3ed2e63a, 0x3e11a25f, 0xbd2054e7, 0xbeb6c6db, 0xbb982972, 0x3ea1ee2a, 0xbeedf44c}, 0x00000000, CHANNEL_STATE_NOT_STARTED},
    { 0, { 0x3ead5634, 0xbde23e22, 0x3e627d2a, 0xbf21a121, 0x3d8fc892, 0xbf1b7c8e, 0x3f1093cf, 0xbe9a72fd, 0x3f01b150}, 0x00000000, CHANNEL_STATE_NOT_STARTED},
    { 0, { 0x3ef64bb1, 0x3e34931d, 0x3d63ece3, 0xbc4f8cd2, 0xbe4bddbd, 0xbdf656c4, 0x3d140523, 0xbece7b85, 0xbece39ce}, 0x00000000, CHANNEL_STATE_NOT_STARTED},
    { 0, { 0xbe80381d, 0x3e4508d5, 0xbd072694, 0x3e3350be, 0x3edead88, 0xbb8565de, 0x3da56288, 0xbd0d3ea2, 0xbdf6f07f}, 0x00000000, CHANNEL_STATE_NOT_STARTED},
    { 0, { 0x3bbc191e, 0xbebb8e50, 0x3e831c9c, 0x3e61dbdf, 0x3f428481, 0xbe971a66, 0x3d44e0ac, 0xbe86d812, 0xbfe53e44}, 0x00000000, CHANNEL_STATE_NOT_STARTED},
    { 0, { 0x3c952752, 0x3d96a7fd, 0x3dd1ddd1, 0xbe212d9f, 0xbe61b597, 0xbe713c27, 0x3d7265a3, 0x3f02e6fe, 0x3e88f448}, 0x00000000, CHANNEL_STATE_NOT_STARTED},
    { 0, { 0xbd0dc310, 0x3eac68a5, 0x3ea12b66, 0x3e38eef7, 0x3d64da93, 0x3e8c3e43, 0xbe1fbe8d, 0xbf038a76, 0xbfaba3c8}, 0x00000000, CHANNEL_STATE_NOT_STARTED},
    { 0, { 0x39f5d982, 0x3e6a63e8, 0x3e7da0ea, 0x3d916d21, 0x3dc6904c, 0xbe8afde5, 0xbe78ccc7, 0x3dc30607, 0xbd441f4a}, 0x00000000, CHANNEL_STATE_NOT_STARTED},
    { 0, { 0xbdee983a, 0xbec46272, 0xbf141f45, 0x3ea34484, 0x3ceb9d7b, 0xbf00e498, 0xbeaec5ce, 0xbe953ee2, 0x3f5600ce}, 0x00000000, CHANNEL_STATE_NOT_STARTED},
    { 0, { 0xbcbfa468, 0x3e96cbe4, 0x3e761280, 0x3d1e09e8, 0x3e0ca33d, 0xbedc6ed3, 0xbe961b99, 0xbe1d6249, 0x3cdc4235}, 0x00000000, CHANNEL_STATE_NOT_STARTED},
    { 0, { 0xbdbbfc6b, 0x3e81307e, 0x3ed2e63a, 0x3e11a25f, 0xbd2054e7, 0xbeb6c6db, 0xbb982972, 0x3ea1ee2a, 0xbeedf44c}, 0x00000000, CHANNEL_STATE_NOT_STARTED},
    { 0, { 0x3ead5634, 0xbde23e22, 0x3e627d2a, 0xbf21a121, 0x3d8fc892, 0xbf1b7c8e, 0x3f1093cf, 0xbe9a72fd, 0x3f01b150}, 0x00000000, CHANNEL_STATE_NOT_STARTED},
    { 0, { 0x3ef64bb1, 0x3e34931d, 0x3d63ece3, 0xbc4f8cd2, 0xbe4bddbd, 0xbdf656c4, 0x3d140523, 0xbece7b85, 0xbece39ce}, 0x00000000, CHANNEL_STATE_NOT_STARTED},
    { 0, { 0xbe80381d, 0x3e4508d5, 0xbd072694, 0x3e3350be, 0x3edead88, 0xbb8565de, 0x3da56288, 0xbd0d3ea2, 0xbdf6f07f}, 0x00000000, CHANNEL_STATE_NOT_STARTED},
    { 0, { 0x3bbc191e, 0xbebb8e50, 0x3e831c9c, 0x3e61dbdf, 0x3f428481, 0xbe971a66, 0x3d44e0ac, 0xbe86d812, 0xbfe53e44}, 0x00000000, CHANNEL_STATE_NOT_STARTED},
    { 0, { 0x3c952752, 0x3d96a7fd, 0x3dd1ddd1, 0xbe212d9f, 0xbe61b597, 0xbe713c27, 0x3d7265a3, 0x3f02e6fe, 0x3e88f448}, 0x00000000, CHANNEL_STATE_NOT_STARTED},
    { 0, { 0xbd0dc310, 0x3eac68a5, 0x3ea12b66, 0x3e38eef7, 0x3d64da93, 0x3e8c3e43, 0xbe1fbe8d, 0xbf038a76, 0xbfaba3c8}, 0x00000000, CHANNEL_STATE_NOT_STARTED},
    { 0, { 0x39f5d982, 0x3e6a63e8, 0x3e7da0ea, 0x3d916d21, 0x3dc6904c, 0xbe8afde5, 0xbe78ccc7, 0x3dc30607, 0xbd441f4a}, 0x00000000, CHANNEL_STATE_NOT_STARTED},
    { 0, { 0xbdee983a, 0xbec46272, 0xbf141f45, 0x3ea34484, 0x3ceb9d7b, 0xbf00e498, 0xbeaec5ce, 0xbe953ee2, 0x3f5600ce}, 0x00000000, CHANNEL_STATE_NOT_STARTED},
    { 0, { 0xbcbfa468, 0x3e96cbe4, 0x3e761280, 0x3d1e09e8, 0x3e0ca33d, 0xbedc6ed3, 0xbe961b99, 0xbe1d6249, 0x3cdc4235}, 0x00000000, CHANNEL_STATE_NOT_STARTED},
    { 0, { 0xbdbbfc6b, 0x3e81307e, 0x3ed2e63a, 0x3e11a25f, 0xbd2054e7, 0xbeb6c6db, 0xbb982972, 0x3ea1ee2a, 0xbeedf44c}, 0x00000000, CHANNEL_STATE_NOT_STARTED},
    { 0, { 0x3ead5634, 0xbde23e22, 0x3e627d2a, 0xbf21a121, 0x3d8fc892, 0xbf1b7c8e, 0x3f1093cf, 0xbe9a72fd, 0x3f01b150}, 0x00000000, CHANNEL_STATE_NOT_STARTED},
    { 0, { 0x3ef64bb1, 0x3e34931d, 0x3d63ece3, 0xbc4f8cd2, 0xbe4bddbd, 0xbdf656c4, 0x3d140523, 0xbece7b85, 0xbece39ce}, 0x00000000, CHANNEL_STATE_NOT_STARTED},
    { 0, { 0xbe80381d, 0x3e4508d5, 0xbd072694, 0x3e3350be, 0x3edead88, 0xbb8565de, 0x3da56288, 0xbd0d3ea2, 0xbdf6f07f}, 0x00000000, CHANNEL_STATE_NOT_STARTED},
    { 0, { 0x3bbc191e, 0xbebb8e50, 0x3e831c9c, 0x3e61dbdf, 0x3f428481, 0xbe971a66, 0x3d44e0ac, 0xbe86d812, 0xbfe53e44}, 0x00000000, CHANNEL_STATE_NOT_STARTED},
    { 0, { 0x3c952752, 0x3d96a7fd, 0x3dd1ddd1, 0xbe212d9f, 0xbe61b597, 0xbe713c27, 0x3d7265a3, 0x3f02e6fe, 0x3e88f448}, 0x00000000, CHANNEL_STATE_NOT_STARTED},
    { 0, { 0xbd0dc310, 0x3eac68a5, 0x3ea12b66, 0x3e38eef7, 0x3d64da93, 0x3e8c3e43, 0xbe1fbe8d, 0xbf038a76, 0xbfaba3c8}, 0x00000000, CHANNEL_STATE_NOT_STARTED},
    { 0, { 0x39f5d982, 0x3e6a63e8, 0x3e7da0ea, 0x3d916d21, 0x3dc6904c, 0xbe8afde5, 0xbe78ccc7, 0x3dc30607, 0xbd441f4a}, 0x00000000, CHANNEL_STATE_NOT_STARTED},
    { 0, { 0xbdee983a, 0xbec46272, 0xbf141f45, 0x3ea34484, 0x3ceb9d7b, 0xbf00e498, 0xbeaec5ce, 0xbe953ee2, 0x3f5600ce}, 0x00000000, CHANNEL_STATE_NOT_STARTED},
    { 0, { 0xbcbfa468, 0x3e96cbe4, 0x3e761280, 0x3d1e09e8, 0x3e0ca33d, 0xbedc6ed3, 0xbe961b99, 0xbe1d6249, 0x3cdc4235}, 0x00000000, CHANNEL_STATE_NOT_STARTED},
    { 0, { 0xbdbbfc6b, 0x3e81307e, 0x3ed2e63a, 0x3e11a25f, 0xbd2054e7, 0xbeb6c6db, 0xbb982972, 0x3ea1ee2a, 0xbeedf44c}, 0x00000000, CHANNEL_STATE_NOT_STARTED},
    { 0, { 0x3ead5634, 0xbde23e22, 0x3e627d2a, 0xbf21a121, 0x3d8fc892, 0xbf1b7c8e, 0x3f1093cf, 0xbe9a72fd, 0x3f01b150}, 0x00000000, CHANNEL_STATE_NOT_STARTED},
    { 0, { 0x3ef64bb1, 0x3e34931d, 0x3d63ece3, 0xbc4f8cd2, 0xbe4bddbd, 0xbdf656c4, 0x3d140523, 0xbece7b85, 0xbece39ce}, 0x00000000, CHANNEL_STATE_NOT_STARTED},
    { 0, { 0xbe80381d, 0x3e4508d5, 0xbd072694, 0x3e3350be, 0x3edead88, 0xbb8565de, 0x3da56288, 0xbd0d3ea2, 0xbdf6f07f}, 0x00000000, CHANNEL_STATE_NOT_STARTED},
    { 0, { 0x3bbc191e, 0xbebb8e50, 0x3e831c9c, 0x3e61dbdf, 0x3f428481, 0xbe971a66, 0x3d44e0ac, 0xbe86d812, 0xbfe53e44}, 0x00000000, CHANNEL_STATE_NOT_STARTED},
    { 0, { 0x3c952752, 0x3d96a7fd, 0x3dd1ddd1, 0xbe212d9f, 0xbe61b597, 0xbe713c27, 0x3d7265a3, 0x3f02e6fe, 0x3e88f448}, 0x00000000, CHANNEL_STATE_NOT_STARTED},
    { 0, { 0xbd0dc310, 0x3eac68a5, 0x3ea12b66, 0x3e38eef7, 0x3d64da93, 0x3e8c3e43, 0xbe1fbe8d, 0xbf038a76, 0xbfaba3c8}, 0x00000000, CHANNEL_STATE_NOT_STARTED},
    { 0, { 0x39f5d982, 0x3e6a63e8, 0x3e7da0ea, 0x3d916d21, 0x3dc6904c, 0xbe8afde5, 0xbe78ccc7, 0x3dc30607, 0xbd441f4a}, 0x00000000, CHANNEL_STATE_NOT_STARTED},
    { 0, { 0xbdee983a, 0xbec46272, 0xbf141f45, 0x3ea34484, 0x3ceb9d7b, 0xbf00e498, 0xbeaec5ce, 0xbe953ee2, 0x3f5600ce}, 0x00000000, CHANNEL_STATE_NOT_STARTED},
    { 0, { 0xbcbfa468, 0x3e96cbe4, 0x3e761280, 0x3d1e09e8, 0x3e0ca33d, 0xbedc6ed3, 0xbe961b99, 0xbe1d6249, 0x3cdc4235}, 0x00000000, CHANNEL_STATE_NOT_STARTED},
    { 0, { 0xbdbbfc6b, 0x3e81307e, 0x3ed2e63a, 0x3e11a25f, 0xbd2054e7, 0xbeb6c6db, 0xbb982972, 0x3ea1ee2a, 0xbeedf44c}, 0x00000000, CHANNEL_STATE_NOT_STARTED},
    { 0, { 0x3ead5634, 0xbde23e22, 0x3e627d2a, 0xbf21a121, 0x3d8fc892, 0xbf1b7c8e, 0x3f1093cf, 0xbe9a72fd, 0x3f01b150}, 0x00000000, CHANNEL_STATE_NOT_STARTED},
    { 0, { 0x3ef64bb1, 0x3e34931d, 0x3d63ece3, 0xbc4f8cd2, 0xbe4bddbd, 0xbdf656c4, 0x3d140523, 0xbece7b85, 0xbece39ce}, 0x00000000, CHANNEL_STATE_NOT_STARTED},
    { 0, { 0xbe80381d, 0x3e4508d5, 0xbd072694, 0x3e3350be, 0x3edead88, 0xbb8565de, 0x3da56288, 0xbd0d3ea2, 0xbdf6f07f}, 0x00000000, CHANNEL_STATE_NOT_STARTED},
    { 0, { 0x3bbc191e, 0xbebb8e50, 0x3e831c9c, 0x3e61dbdf, 0x3f428481, 0xbe971a66, 0x3d44e0ac, 0xbe86d812, 0xbfe53e44}, 0x00000000, CHANNEL_STATE_NOT_STARTED},
    { 0, { 0x3c952752, 0x3d96a7fd, 0x3dd1ddd1, 0xbe212d9f, 0xbe61b597, 0xbe713c27, 0x3d7265a3, 0x3f02e6fe, 0x3e88f448}, 0x00000000, CHANNEL_STATE_NOT_STARTED},
    { 0, { 0xbd0dc310, 0x3eac68a5, 0x3ea12b66, 0x3e38eef7, 0x3d64da93, 0x3e8c3e43, 0xbe1fbe8d, 0xbf038a76, 0xbfaba3c8}, 0x00000000, CHANNEL_STATE_NOT_STARTED},
    { 0, { 0x39f5d982, 0x3e6a63e8, 0x3e7da0ea, 0x3d916d21, 0x3dc6904c, 0xbe8afde5, 0xbe78ccc7, 0x3dc30607, 0xbd441f4a}, 0x00000000, CHANNEL_STATE_NOT_STARTED},
    { 0, { 0xbdee983a, 0xbec46272, 0xbf141f45, 0x3ea34484, 0x3ceb9d7b, 0xbf00e498, 0xbeaec5ce, 0xbe953ee2, 0x3f5600ce}, 0x00000000, CHANNEL_STATE_NOT_STARTED},
    { 0, { 0xbcbfa468, 0x3e96cbe4, 0x3e761280, 0x3d1e09e8, 0x3e0ca33d, 0xbedc6ed3, 0xbe961b99, 0xbe1d6249, 0x3cdc4235}, 0x00000000, CHANNEL_STATE_NOT_STARTED},
    { 0, { 0xbdbbfc6b, 0x3e81307e, 0x3ed2e63a, 0x3e11a25f, 0xbd2054e7, 0xbeb6c6db, 0xbb982972, 0x3ea1ee2a, 0xbeedf44c}, 0x00000000, CHANNEL_STATE_NOT_STARTED},
    { 0, { 0x3ead5634, 0xbde23e22, 0x3e627d2a, 0xbf21a121, 0x3d8fc892, 0xbf1b7c8e, 0x3f1093cf, 0xbe9a72fd, 0x3f01b150}, 0x00000000, CHANNEL_STATE_NOT_STARTED},
    { 0, { 0x3ef64bb1, 0x3e34931d, 0x3d63ece3, 0xbc4f8cd2, 0xbe4bddbd, 0xbdf656c4, 0x3d140523, 0xbece7b85, 0xbece39ce}, 0x00000000, CHANNEL_STATE_NOT_STARTED},
    { 0, { 0xbe80381d, 0x3e4508d5, 0xbd072694, 0x3e3350be, 0x3edead88, 0xbb8565de, 0x3da56288, 0xbd0d3ea2, 0xbdf6f07f}, 0x00000000, CHANNEL_STATE_NOT_STARTED},
    { 0, { 0x3bbc191e, 0xbebb8e50, 0x3e831c9c, 0x3e61dbdf, 0x3f428481, 0xbe971a66, 0x3d44e0ac, 0xbe86d812, 0xbfe53e44}, 0x00000000, CHANNEL_STATE_NOT_STARTED},
    { 0, { 0x3c952752, 0x3d96a7fd, 0x3dd1ddd1, 0xbe212d9f, 0xbe61b597, 0xbe713c27, 0x3d7265a3, 0x3f02e6fe, 0x3e88f448}, 0x00000000, CHANNEL_STATE_NOT_STARTED},
    { 0, { 0xbd0dc310, 0x3eac68a5, 0x3ea12b66, 0x3e38eef7, 0x3d64da93, 0x3e8c3e43, 0xbe1fbe8d, 0xbf038a76, 0xbfaba3c8}, 0x00000000, CHANNEL_STATE_NOT_STARTED},
    { 0, { 0x39f5d982, 0x3e6a63e8, 0x3e7da0ea, 0x3d916d21, 0x3dc6904c, 0xbe8afde5, 0xbe78ccc7, 0x3dc30607, 0xbd441f4a}, 0x00000000, CHANNEL_STATE_NOT_STARTED},
    { 0, { 0xbdee983a, 0xbec46272, 0xbf141f45, 0x3ea34484, 0x3ceb9d7b, 0xbf00e498, 0xbeaec5ce, 0xbe953ee2, 0x3f5600ce}, 0x00000000, CHANNEL_STATE_NOT_STARTED},
    { 0, { 0xbcbfa468, 0x3e96cbe4, 0x3e761280, 0x3d1e09e8, 0x3e0ca33d, 0xbedc6ed3, 0xbe961b99, 0xbe1d6249, 0x3cdc4235}, 0x00000000, CHANNEL_STATE_NOT_STARTED},
    { 0, { 0xbdbbfc6b, 0x3e81307e, 0x3ed2e63a, 0x3e11a25f, 0xbd2054e7, 0xbeb6c6db, 0xbb982972, 0x3ea1ee2a, 0xbeedf44c}, 0x00000000, CHANNEL_STATE_NOT_STARTED},
    { 0, { 0x3ead5634, 0xbde23e22, 0x3e627d2a, 0xbf21a121, 0x3d8fc892, 0xbf1b7c8e, 0x3f1093cf, 0xbe9a72fd, 0x3f01b150}, 0x00000000, CHANNEL_STATE_NOT_STARTED},
    { 0, { 0x3ef64bb1, 0x3e34931d, 0x3d63ece3, 0xbc4f8cd2, 0xbe4bddbd, 0xbdf656c4, 0x3d140523, 0xbece7b85, 0xbece39ce}, 0x00000000, CHANNEL_STATE_NOT_STARTED},
    { 0, { 0xbe80381d, 0x3e4508d5, 0xbd072694, 0x3e3350be, 0x3edead88, 0xbb8565de, 0x3da56288, 0xbd0d3ea2, 0xbdf6f07f}, 0x00000000, CHANNEL_STATE_NOT_STARTED},
    { 0, { 0x3bbc191e, 0xbebb8e50, 0x3e831c9c, 0x3e61dbdf, 0x3f428481, 0xbe971a66, 0x3d44e0ac, 0xbe86d812, 0xbfe53e44}, 0x00000000, CHANNEL_STATE_NOT_STARTED},
    { 0, { 0x3c952752, 0x3d96a7fd, 0x3dd1ddd1, 0xbe212d9f, 0xbe61b597, 0xbe713c27, 0x3d7265a3, 0x3f02e6fe, 0x3e88f448}, 0x00000000, CHANNEL_STATE_NOT_STARTED},
    { 0, { 0xbd0dc310, 0x3eac68a5, 0x3ea12b66, 0x3e38eef7, 0x3d64da93, 0x3e8c3e43, 0xbe1fbe8d, 0xbf038a76, 0xbfaba3c8}, 0x00000000, CHANNEL_STATE_NOT_STARTED},
    { 0, { 0x39f5d982, 0x3e6a63e8, 0x3e7da0ea, 0x3d916d21, 0x3dc6904c, 0xbe8afde5, 0xbe78ccc7, 0x3dc30607, 0xbd441f4a}, 0x00000000, CHANNEL_STATE_NOT_STARTED},
    { 0, { 0xbdee983a, 0xbec46272, 0xbf141f45, 0x3ea34484, 0x3ceb9d7b, 0xbf00e498, 0xbeaec5ce, 0xbe953ee2, 0x3f5600ce}, 0x00000000, CHANNEL_STATE_NOT_STARTED},
    { 0, { 0xbcbfa468, 0x3e96cbe4, 0x3e761280, 0x3d1e09e8, 0x3e0ca33d, 0xbedc6ed3, 0xbe961b99, 0xbe1d6249, 0x3cdc4235}, 0x00000000, CHANNEL_STATE_NOT_STARTED},
    { 0, { 0xbdbbfc6b, 0x3e81307e, 0x3ed2e63a, 0x3e11a25f, 0xbd2054e7, 0xbeb6c6db, 0xbb982972, 0x3ea1ee2a, 0xbeedf44c}, 0x00000000, CHANNEL_STATE_NOT_STARTED},
    { 0, { 0x3ead5634, 0xbde23e22, 0x3e627d2a, 0xbf21a121, 0x3d8fc892, 0xbf1b7c8e, 0x3f1093cf, 0xbe9a72fd, 0x3f01b150}, 0x00000000, CHANNEL_STATE_NOT_STARTED},
    { 0, { 0x3ef64bb1, 0x3e34931d, 0x3d63ece3, 0xbc4f8cd2, 0xbe4bddbd, 0xbdf656c4, 0x3d140523, 0xbece7b85, 0xbece39ce}, 0x00000000, CHANNEL_STATE_NOT_STARTED},
    { 0, { 0xbe80381d, 0x3e4508d5, 0xbd072694, 0x3e3350be, 0x3edead88, 0xbb8565de, 0x3da56288, 0xbd0d3ea2, 0xbdf6f07f}, 0x00000000, CHANNEL_STATE_NOT_STARTED},
    { 0, { 0x3bbc191e, 0xbebb8e50, 0x3e831c9c, 0x3e61dbdf, 0x3f428481, 0xbe971a66, 0x3d44e0ac, 0xbe86d812, 0xbfe53e44}, 0x00000000, CHANNEL_STATE_NOT_STARTED},
    { 0, { 0x3c952752, 0x3d96a7fd, 0x3dd1ddd1, 0xbe212d9f, 0xbe61b597, 0xbe713c27, 0x3d7265a3, 0x3f02e6fe, 0x3e88f448}, 0x00000000, CHANNEL_STATE_NOT_STARTED},
    { 0, { 0xbd0dc310, 0x3eac68a5, 0x3ea12b66, 0x3e38eef7, 0x3d64da93, 0x3e8c3e43, 0xbe1fbe8d, 0xbf038a76, 0xbfaba3c8}, 0x00000000, CHANNEL_STATE_NOT_STARTED},
    { 0, { 0x39f5d982, 0x3e6a63e8, 0x3e7da0ea, 0x3d916d21, 0x3dc6904c, 0xbe8afde5, 0xbe78ccc7, 0x3dc30607, 0xbd441f4a}, 0x00000000, CHANNEL_STATE_NOT_STARTED},
    { 0, { 0xbdee983a, 0xbec46272, 0xbf141f45, 0x3ea34484, 0x3ceb9d7b, 0xbf00e498, 0xbeaec5ce, 0xbe953ee2, 0x3f5600ce}, 0x00000000, CHANNEL_STATE_NOT_STARTED},
    { 0, { 0xbcbfa468, 0x3e96cbe4, 0x3e761280, 0x3d1e09e8, 0x3e0ca33d, 0xbedc6ed3, 0xbe961b99, 0xbe1d6249, 0x3cdc4235}, 0x00000000, CHANNEL_STATE_NOT_STARTED},
    { 0, { 0xbdbbfc6b, 0x3e81307e, 0x3ed2e63a, 0x3e11a25f, 0xbd2054e7, 0xbeb6c6db, 0xbb982972, 0x3ea1ee2a, 0xbeedf44c}, 0x00000000, CHANNEL_STATE_NOT_STARTED},
    { 0, { 0x3ead5634, 0xbde23e22, 0x3e627d2a, 0xbf21a121, 0x3d8fc892, 0xbf1b7c8e, 0x3f1093cf, 0xbe9a72fd, 0x3f01b150}, 0x00000000, CHANNEL_STATE_NOT_STARTED},
    { 0, { 0x3ef64bb1, 0x3e34931d, 0x3d63ece3, 0xbc4f8cd2, 0xbe4bddbd, 0xbdf656c4, 0x3d140523, 0xbece7b85, 0xbece39ce}, 0x00000000, CHANNEL_STATE_NOT_STARTED},
    { 0, { 0xbe80381d, 0x3e4508d5, 0xbd072694, 0x3e3350be, 0x3edead88, 0xbb8565de, 0x3da56288, 0xbd0d3ea2, 0xbdf6f07f}, 0x00000000, CHANNEL_STATE_NOT_STARTED},
    { 0, { 0x3bbc191e, 0xbebb8e50, 0x3e831c9c, 0x3e61dbdf, 0x3f428481, 0xbe971a66, 0x3d44e0ac, 0xbe86d812, 0xbfe53e44}, 0x00000000, CHANNEL_STATE_NOT_STARTED},
    { 0, { 0x3c952752, 0x3d96a7fd, 0x3dd1ddd1, 0xbe212d9f, 0xbe61b597, 0xbe713c27, 0x3d7265a3, 0x3f02e6fe, 0x3e88f448}, 0x00000000, CHANNEL_STATE_NOT_STARTED},
    { 0, { 0xbd0dc310, 0x3eac68a5, 0x3ea12b66, 0x3e38eef7, 0x3d64da93, 0x3e8c3e43, 0xbe1fbe8d, 0xbf038a76, 0xbfaba3c8}, 0x00000000, CHANNEL_STATE_NOT_STARTED},
    { 0, { 0x39f5d982, 0x3e6a63e8, 0x3e7da0ea, 0x3d916d21, 0x3dc6904c, 0xbe8afde5, 0xbe78ccc7, 0x3dc30607, 0xbd441f4a}, 0x00000000, CHANNEL_STATE_NOT_STARTED},
};


static u32 PRelu_Layer_5_16_weights[16] ={

};



#endif // CNN_LAYER_H
